#version: 0.2 - Trained by `huggingface/tokenizers`
a n
a r
h a
Ġ s
Ġ k
a t
Ġ p
i n
a l
Ġ t
c h
č Ċ
Ġ a
Ġ m
a m
Ġ b
Ġ d
h i
r a
Ġ n
h e
y a
Ġ v
u n
a d
i t
e r
a s
e n
o n
a k
i s
Ġ j
Ġ g
a a
i l
e s
h an
Ġ l
i k
Ġ ch
Ġ c
o r
u t
a i
Ġ ha
Ġ an
u r
e k
Ġk ar
h ar
h o
a v
a y
Ġ r
e l
e t
Ġ w
i r
u l
u k
e d
a p
u s
t i
an d
Ġ f
u m
a b
Ġ ra
i d
a g
Ġt he
u d
Ġm a
Ġ o
in g
a ar
Ġp ar
i c
an t
an g
Ġp ra
o l
i v
m a
u p
at i
Ġs am
Ġk e
Ġ in
an i
o t
r i
l e
ha t
ar i
Ġt o
Ġk i
s h
Ġ he
Ġs a
Ġn a
Ġ ho
Ġp r
o m
an a
Ġ 1
Ġd e
d i
ha l
Ġ y
Ġ 2
ha k
Ġ e
Ġs e
Ġn e
n e
o d
at e
is h
Ġd i
s t
un n
a an
a ch
a j
i ch
t e
Ġ h
Ġch e
Ġha i
Ġb ha
à µ
an e
c ha
t a
Ġa s
Ġan d
r e
Ġt e
un d
en t
Ġk o
o g
n a
al i
o k
es h
Ġc ha
hi k
i m
al e
Ġo f
h in
Ġa a
Ġ hi
h y
at t
Ġ ar
v e
Ġ ek
Ġa d
al l
Ġs t
h u
il l
i p
Ġma in
ya k
e e
am a
in e
ar k
Ġd a
as t
Ġ ya
Ġ en
v a
Ġg ar
an k
Ġm an
u g
Ġ at
n i
b ha
s ha
Ġb a
Ġp a
Ġ or
Ġv ar
i g
Ġa p
Ġ2 0
ar a
al a
at a
i a
u un
i y
l a
o p
Ġk a
Ġki i
in d
Ġj an
Ġ is
Ġ on
Ġ un
e m
as h
r am
ar t
Ġa m
Ġk aa
Ġ up
o s
Ġn uun
is t
Ġs an
at h
ch i
ek o
Ġj a
Ġb e
v ar
hi t
Ġa ap
Ġ i
d a
Ġ it
h ya
u j
hi l
Ġv a
c k
Ġa b
u ra
Ġs h
en d
ar s
r o
Ġs ha
Ġp at
t er
Ġv id
u v
Ġr e
Ġp ad
he r
Ġn ir
k o
Ġb ad
u b
k ar
ha a
Ġm o
Ġb har
it e
Ġa v
Ġ S
y an
ha m
l o
i b
ar e
0 0
il e
c t
Ġ M
k a
ch e
Ġ20 1
ak o
v i
Ġaa he
Ġs ab
w ar
Ġ ut
Ġ C
g a
c e
Ġch ha
r it
Ġm ad
t u
ud d
p at
v an
t h
on e
Ġf or
hi r
an n
o j
Ġt ha
Ġs ak
t ar
Ġ 3
Ġ al
an s
es s
Ġra j
Ġm at
d e
b er
i j
w a
Ġs ar
Ġm ar
Ġ us
Ġl ag
m an
el l
Ġp an
Ġt ar
it h
k e
o w
ad i
Ġ A
Ġc om
Ġk al
er s
es t
h t
p p
Ġw as
Ġpr at
y u
s han
i e
Ġ han
Ġa g
ut e
Ġpra d
s he
y am
Ġs ang
ya s
Ġn at
Ġv ich
Ġan e
Ġt ak
u ch
aa g
ad a
on d
Ġ T
ul l
Ġs w
Ġv e
us t
Ġ ate
n u
Ġk ha
Ġk am
Ġp o
it i
Ġha s
Ġm e
Ġh un
Ġ P
ant ri
t o
in i
ai d
y o
p an
a ya
ur u
am e
Ġt on
àµ ½
y at
Ġ B
Ġs he
Ġb han
Ġ I
ik a
Ġb hi
k i
Ġk at
Ġ 5
el e
Ġd o
b ar
àµ ¼
v er
ar an
Ġv is
y e
p ra
in a
Ġha ve
Ġ u
Ġa av
Ġj o
Ġc on
Ġb an
Ġp ur
p al
Ġs ark
h r
b a
Ġa k
Ġ 4
i ra
d u
Ġt hat
Ġm uk
Ġl o
Ġb al
Ġv ya
s e
or t
is e
p ar
it a
ha d
as e
Ġ N
Ġan i
y og
or e
Ġra k
Ġk aar
o un
Ġc hal
Ġs ad
s a
Ġkar e
Ġv ish
Ġp er
Ġp ol
ic k
he n
it t
g e
Ġv al
t ra
Ġs ing
ati on
Ġa f
Ġd ek
Ġj aa
p ur
uk k
Ġl ai
Ġ ir
Ġd in
Ġs hak
in t
l y
Ġl ak
at hi
Ġt hi
Ġna hi
ag ar
Ġr o
Ġs o
p a
Ġpra k
Ġ ud
Ġ D
Ġs har
i on
in di
Ġkar an
am i
l i
Ġ har
m e
ya an
Ġna al
ak a
b and
Ġw ith
h ul
Ġd har
ut t
r an
iy e
in ch
Ġr up
ar d
T he
at u
ek a
Ġp un
Ġp ani
Ġs at
Ġp e
Ġt a
Ġra he
h un
ic e
Ġb o
s hi
Ġhi s
Ġn am
ad e
uk u
w s
aa j
el a
Ġ L
Ġt am
h ut
Ġsing h
it y
Ġl e
er e
Ġs p
us h
Ġs ho
Ġ ik
Ġt at
Ġl aag
en e
Ġy e
u e
ha s
al o
Ġn aa
uk h
Ġad hik
Ġ H
Ġ R
i ya
Ġd ar
Ġf r
Ġch ar
k u
Ġg o
ik e
Ġp ak
e p
Ġ 6
et i
j ab
av e
ik i
Ġm il
Ġd is
Ġw or
unn u
Ġl ek
Ġ1 9
j i
Ġv i
àµ ¾
Ġc o
Ġl iye
et t
al ay
p r
ch ya
in n
Ġhe r
m ad
Ġb at
Ġha m
Ġw ich
Ġb and
Ġ F
ha y
Ġl ok
Ġw e
Ġk an
b ad
ha an
Ġna hin
ay an
ay e
d han
Ġt r
Ġc l
g i
Ġ G
Ġn et
ang a
am b
Ġv ad
ak e
Ġv ik
2 0
ch an
Ġa c
Ġn i
Ġv ir
hy e
Ġse e
ar y
Ġ W
àµ »
on i
Ġj i
Ġm ul
han a
iv e
av a
Ġb y
al ai
sh t
Ġs aid
ut i
Ġv yak
Ġ 7
he l
am an
c o
Ġ1 0
Ġya a
p ati
unn at
Ġpar t
Ġg ur
Ġb as
Ġg a
Ġ ish
Ġn o
aa v
Ġsam ay
Ġ 8
ak ar
Ġsark aar
p e
ul u
f f
Ġa ad
av ar
Ġkar a
hy am
h n
ak k
an j
p ad
al s
un e
Ġm ate
Ġd ur
el i
ha ar
ra s
Ġg har
Ġp al
ak i
Ġl a
Ġs hik
Ġ und
Ġp l
Ġf o
Ġch an
Ġab hi
c hal
m ent
ha v
Ġbhar at
ch ar
Ġv iv
bha v
m at
p o
Ġk han
en n
Ġch it
and i
y ar
ot e
Ġko i
ol l
ch u
Ġb ar
Ġfr om
av i
v ad
ol d
v en
j an
t an
Ġprad han
Ġm aa
Ġar e
Ġ z
um b
Ġd es
Ġg ai
Ġ201 8
t r
Ġg hat
ag a
ti on
d h
ik h
d er
v at
ig ht
is i
y al
ra k
ik k
j a
aar e
ud i
Ġd esh
Ġ J
Ġ O
Ġra hi
aa y
n o
Ġj aan
Ġe x
i f
ul e
on g
il a
Ġt ya
Ġj e
Ġ 9
Ġ E
ri ya
Ġt an
Ġk har
en g
p i
as s
Ġk ut
j e
ma an
ak u
al an
Ġha d
id e
Ġd r
c om
Ġd iv
Ġe m
s ar
Ġha y
r u
Ġt el
aar i
v u
aa i
Ġd u
v as
Ġm al
Ġpr ati
Ġr am
un g
t t
s o
Ġ ed
s am
ik al
q u
Ġ all
ur i
Ġa ar
Ġbha eko
er i
Ġk ad
ul d
ang l
Ġn ot
it u
h one
Ġho o
ti c
Ġs hi
n ar
Ġs u
Ġw hi
a h
m ar
k al
han e
h um
g at
Ġy o
b har
ant r
en a
Ġthe k
Ġm ot
di a
p ort
b i
er ic
en i
Ġka am
m i
Ġa aj
ya at
sh n
Ġs ank
s hak
ĠN e
ai r
Ġs ay
at o
am p
s i
an u
v ach
ag e
ak h
Ġgar n
ach hi
re e
Ġt ir
Ġm antri
v al
Ġf a
Ġs ur
Ġt al
ya a
p t
Ġha t
w an
Ġj ha
Ġor u
Ġkar te
Ġpun jab
m ber
Ġsam aj
v id
ik ar
Ġw ho
ud a
Ġpol ice
Ġkar ne
Ġt han
Ġb i
ap p
Ġho ya
ik o
Ġm ed
Ġt aan
Ġ1 2
ow n
ct or
Ġ il
Ġj ee
Ġlaag i
Ġ et
Ġvya v
Ġpo st
il m
an ni
b o
Ġn iy
ur e
Ġm ari
Ġt ra
Ġkar i
Ġ K
Ġi h
Ġha j
an o
uk o
ot t
Ġk on
Ġk av
al u
b h
Ġan us
or d
und a
Ġsan s
he t
at il
ad er
at r
Ġan g
Ġt ho
Ġpra s
Ġ1 5
Ġd il
Ġm ag
l l
Ġn av
ch it
Ġs i
ra j
Ġa w
Ġsa f
r ut
Ġ im
Ġc ar
ang al
o on
Ġb l
Ġch es
Ġm and
Ġ 0
Ġg ari
Ġde v
Ġv an
Ġt im
am m
et e
Ġm ud
Ġs and
Ġu h
Ġc ine
Ġj ar
Ġd w
Ġb ho
h on
Ġp as
and a
y on
aa p
m ak
hi a
Ġg ya
r at
ar u
1 9
Ġbha v
Ġj iv
ul o
uj ar
Ġb ol
ant ar
ir i
am aa
Ġb ut
end ra
Ġ U
Ġd al
Ġne pal
Ġs c
n er
Ġt i
he d
m o
Ġk r
Ġm in
Ġ1 1
b e
Ġv it
Ġ unn
Ġc r
Ġsh r
Ġo ut
Ġg aya
Ġt hak
am il
m al
ay u
Ġaf ter
Ġv ij
om e
Ġin d
Ġvid e
Ġt h
Ġtha i
Ġbe en
Ġn al
h yak
Ġ el
as i
Ġkaar an
d ai
Ġs up
Ġg al
Ġw ere
f t
Ġk she
Ġp ura
r ess
m antri
hi la
ast ha
us e
p er
Ġs un
Ġsam band
20 1
Ġe van
Ġc ent
Ġ20 0
har i
Ġlak h
Ġp ut
Ġm ut
Ġv ach
Ġsa ha
Ġpr am
k aar
Ġs han
Ġs ud
a ad
Ġr es
Ġ um
o ut
in k
Ġtat haa
aa b
Ġthe ir
as a
g al
Ġaap ne
ill i
Ġjan ya
iv ar
Ġen d
Ġf ar
es han
angl ad
Ġan t
Ġk ho
Ġt um
Ġgar ne
Ġg un
p ak
Ġw o
ab ha
Ġk ap
att il
it al
Ġthe y
g ar
uk t
Ġsa ath
Ġval on
o us
ish t
w o
Ġk ita
Ġm od
Ġ id
en s
hu b
Ġsh uru
at aa
Ġsam p
Ġn an
Ġn agar
Ġk h
Ġc an
Ġf e
ur t
Ġgar eko
un di
Ġ es
Ġv ic
Ġsat he
Ġki ya
in s
Ġy oj
Ġbha g
Ġg an
Ġ1 4
l d
as hi
Ġy og
d d
Ġd en
ir e
Ġj ari
Ġkar en
c i
Ġch and
Ġp ot
Ġr oj
w al
Ġt u
ti ya
hi s
Ġin ter
Ġb aj
Ġ1 8
Ġg at
Ġvish w
in u
z ar
Ġnaa hi
Ġbhan e
Ġb ab
Ġw ill
t s
Ġs m
Ġd on
Ġp ho
h m
Ġwor u
Ġkar n
Ġsa hi
in tu
Ġj ag
Ġw a
Ġd han
Ġg aye
Ġpar is
ach e
or u
Ġp ati
Ġt ara
Ġof f
ch in
Ġn ar
it s
ur n
al ya
Ġ ul
Ġap ni
Ġba ad
el ya
et a
un i
Ġpart y
Ġpra v
Ġvi bha
ya d
ick et
is a
Ġpra b
Ġd as
s an
Ġha l
Ġs id
Ġm us
ad an
o b
at ra
i ha
w e
Ġkaar y
Ġ ur
Ġk hel
Ġg ra
Ġf ilm
in te
Ġa y
ic al
av an
or i
he sh
Ġm as
Ġb ank
em ber
Ġp i
l am
han i
Ġm u
es hi
unn ar
od h
Ġc ol
Ġa j
ud h
t am
aj an
on a
Ġthi s
ĠNe ws
cha a
Ġprad esh
Ġam eric
Ġn as
ra v
Ġ ull
al aa
Ġn ai
ak sh
Ġsar v
ap a
Ġp aa
Ġma an
Ġan n
Ġhay es
Ġl ik
Ġya h
Ġb ij
Ġch ho
en ce
d ay
ach ar
Ġl i
k aa
l and
Ġk ur
Ġb aa
Ġon e
Ġ udd
Ġe v
n d
n t
ant u
Ġcom pan
Ġan ek
Ġk ab
al am
ha i
Ġnat hi
Ġaahe t
l ine
Ġen du
Ġpa hil
at an
ut h
ed i
Ġte m
Ġma j
Ġk ai
Ġhaj aar
Ġcom p
ra i
Ġkar un
Ġj ill
ug h
m aa
is s
uk e
ha p
ash tra
g an
t aa
um ar
m ai
Ġpr em
Ġvide o
Ġm rit
hak a
Ġk ot
r y
Ġ V
Ġ er
Ġsa al
Ġka ha
c l
Ġa var
Ġkar o
Ġh u
Ġ2 5
il o
Ġg uru
all y
ad u
un a
Ġe i
Ġ1 6
Ġm ak
Ġen n
Ġra s
Ġn il
um p
Ġ1 3
ip p
Ġtam il
b al
Ġs ant
Ġc ap
hat t
Ġa am
Ġut tar
w ay
d ar
Ġmad hye
Ġk el
Ġd it
Ġst han
y s
at er
ap ar
Ġap ane
ars han
c a
b s
Ġch il
as ar
as ya
Ġj al
Ġas e
Ġw ant
Ġwhi ch
ant e
an ti
Ġa ch
un t
Ġn ak
Ġan u
Ġha ti
Ġy et
Ġsa am
on s
d o
Ġk it
o v
Ġke eti
Ġf ir
Ġnir vach
Ġm ore
Ġl ab
hi le
ash t
Ġg ho
s har
Ġhun e
c ch
m ay
Ġv as
Ġp att
Ġra sht
Ġk uda
Ġb anglad
Ġhi m
d esh
Ġ iv
y ana
Ġp ul
Ġv at
00 0
m p
ing s
Ġsan st
l ai
m in
w ai
and hi
on t
ach i
ant a
Ġj am
Ġg ad
Ġn iv
Ġvyak ti
Ġam ar
l ic
uk a
ap an
ist an
e c
Ġn u
Ġr ang
Ġir ukk
Ġkat ha
Ġlo c
ĠI n
h ra
h ur
Ġt er
t hi
al ak
Ġbat aa
al at
as he
Ġsa at
Ġt ay
Ġw hen
p att
Ġad hyak
n an
f at
Ġs aa
hi ti
Ġki ha
v in
or n
Ġd ha
Ġdi e
Ġ3 0
hat a
Ġw ar
Ġv il
v ama
sh tra
r id
k k
le y
Ġun haa
Ġs al
har an
Ġa at
op e
ar ch
Ġab out
Ġpra y
Ġd ay
Ġthe o
Ġpra shn
Ġvar sh
Ġj ab
Ġit s
Ġv and
k s
ba at
l u
a at
Ġan tar
Ġ ent
cha ar
Ġa ay
uj h
ik u
t il
Ġho ta
ra a
Ġp et
ar o
Ġb ag
c hak
Ġt hir
Ġst r
b d
Ġkar m
Ġo t
Ġk ond
ol i
id hi
er y
1 0
Ġsab ha
Ġm ana
Ġk u
Ġg ay
Ġ201 7
Ġl og
s p
as ha
Ġo ver
Ġm han
Ġho te
at in
is hi
Ġma hila
id i
ra p
Ġ1 7
n al
ent s
Ġo ck
umb ai
Ġmo di
e et
m er
Ġin dia
r ant
Ġcon g
is han
Ġb ach
Ġv aa
ve mber
Ġpar ik
d ha
Ġk in
Ġk ol
g u
j o
Ġr an
Ġsh ri
ann u
Ġb he
Ġm ai
Ġm el
Ġpat r
Ġne ws
Ġn ira
ee y
Ġk ya
H e
Ġkha bar
w at
Ġb r
b ile
ic t
Ġa ak
Ġma am
Ġg ujar
Ġs ura
1 2
Ġm it
Ġn ik
Ġn ie
ab ad
Ġho t
y er
Ġh on
ag i
re at
k ram
Ġk is
Ġmari yu
Ġn in
Ġ2 4
es ha
m el
os e
Ġcompan y
y ant
Ġk uch
Ġb ana
o ber
in cha
Ġs ir
Ġs ap
Ġdiv as
Ġcine ma
d hye
Ġy an
Ġwo uld
1 5
ul y
Ġap p
av id
w n
il le
Ġsa hit
Ġs on
Ġal so
Ġb ak
k an
Ġse c
at ak
hal i
v ed
Ġund er
Ġba at
Ġdw ara
Ġe ra
ti m
Ġvar t
Ġy uv
Ġm ur
mad on
p u
ch o
aar a
aan e
und e
Ġb et
Ġch er
Ġko s
Ġre port
Ġl ad
w as
Ġvyav astha
ali a
he ko
ay at
ari a
Ġlak sh
k at
Ġp en
Ġh or
Ġs in
Ġche pp
v ir
Ġg ram
har a
ch ch
e y
Ġs ub
Ġde c
y ank
Ġw ale
Ġen g
Ġp hir
r il
Ġdek h
Ġmat ra
w it
Ġn ame
o st
am ak
Ġpradhan mantri
Ġk as
Ġma hin
Ġra haa
Ġra a
j al
d an
t ak
en nu
es e
Ġdi g
Ġpram ukh
Ġameric a
Ġsahi b
um an
Ġv ak
har u
en u
Ġm un
Ġm ark
Ġk hat
Ġc hak
ap at
Ġre he
i es
ay og
Ġma hat
Ġv in
Ġvij ay
Ġv ig
Ġar th
Ġar o
Ġse va
Ġ Ġ
av u
ol e
m ed
hr u
r es
ĠT he
ad hik
p ali
Ġd illi
ya v
Ġa sh
Ġniy am
Ġn ag
1 7
hi m
um a
Ġne w
Ġup ar
Ġse y
Ġanus aar
Ġ qu
sha m
Ġmad hyam
ug a
Ġvis hay
Ġk ath
al p
o ch
Ġcom m
Ġs im
Ġs ikh
ct ober
n g
b ab
he en
Ġbhar tiya
Ġt ab
Ġp hone
i i
in chi
Ġt aar
el y
f or
Ġm ay
Ġs uch
Ġm ane
hi d
Ġ5 0
Ġt ap
ha le
v ak
n et
Ġ2 1
in al
Ġm uj
ati ya
os s
c hat
Ġpr o
Ġac c
l ab
ars hak
Ġha to
Ġpra st
Ġt in
av aan
ell am
p h
ang e
n am
ut a
Ġdit ha
Ġkar va
Ġk ura
Ġra shtra
al k
Ġek ati
Ġpl ay
Ġb h
ug u
Ġg u
Ġyo u
Ġl ed
Ġn ij
hi e
op le
udd ha
Ġho e
Ġ2 2
Ġchit ra
Ġn er
Ġab hin
Ġna am
Ġt ri
and e
Ġma har
Ġk un
Ġte am
Ġh ue
Ġsark ar
am ar
Ġdi ya
ant ra
Ġg ro
ek h
Ġho ti
he re
Ġmo bile
att u
Ġk od
er n
Ġmuk hyam
hal a
Ġj ad
Ġg han
Ġb ra
Ġa i
1 8
Ġtim e
Ġs av
Ġj ise
Ġch in
Ġbad al
Ġan k
Ġnir n
Ġ ip
Ġd own
Ġr iha
Ġm en
ar n
s k
Ġadhyak sh
Ġpar i
Ġs et
Ġ2 3
ul a
Ġlag a
z a
en c
i an
Ġrahe ko
h le
Ġre c
Ġa ag
ic ha
Ġra aj
ap t
Ġprat ham
Ġm et
Ġv ai
x t
Ġb el
e v
Ġm on
Ġg am
Ġw at
ich u
Ġk he
Ġm id
Ġkar ke
Ġv r
Ġch hin
Ġs hat
at ing
Ġn ick
Ġa as
Ġkshe tra
s ab
Ġj od
al in
Ġk hub
iv er
Ġp it
m s
m uk
it ed
Ġno vember
or y
Ġbad a
r ic
Ġs war
at ha
he s
c tion
Ġin to
at ar
Ġv im
Ġt is
iv ers
Ġa di
Ġ ari
er u
q ue
Ġsw ast
Ġvyak t
udd h
Ġp ach
Ġt wo
Ġg ha
Ġho i
hy u
Ġn is
Ġf l
v es
Ġs uru
Ġna j
d in
f i
war d
Ġte en
Ġpe ople
Ġcon t
Ġkaary kram
Ġ1 00
Ġh ind
ura i
Ġt as
Ġl ast
ul i
ind ra
Ġsw at
an er
Ġk ise
ant o
l im
Ġch est
ap ur
Ġma ha
Ġk ach
Ġk ang
at ti
ir unnu
s hik
Ġn ad
f a
i h
v is
at ed
Ġs k
Ġp ust
od hu
Ġrak h
t on
b u
p s
iv i
har e
l es
or k
Ġy anni
Ġd ab
or s
all i
Ġ ill
Ġho ve
Ġfo ot
Ġsam asya
Ġk hul
Ġj it
Ġt yaan
han d
Ġj ust
f e
art hi
Ġbanglad esh
er al
an aa
ang i
Ġa an
Ġd id
Ġc hat
Ġha tu
Ġdek ha
Ġb ani
Ġar t
Ġan y
3 0
Ġsam an
if e
Ġk et
Ġmad hya
Ġmed ia
Ġvic haar
ed an
oj an
s hat
Ġvid y
m ik
Ġpr es
lo w
Ġba ck
id er
5 0
Ġn all
j h
Ġho me
Ġya s
Ġk ujh
av aa
an al
I n
Ġm y
m as
ut on
Ġy u
Ġat h
1 1
it ra
Ġ ing
Ġch un
Ġba hut
g er
Ġch o
Ġch on
Ġha ta
Ġha a
Ġst ar
Ġloc als
inch in
s ang
Ġva h
Ġvar sha
j it
ap er
Ġk ul
ch and
ad hi
Ġp ich
Ġkaa hi
ig n
Ġshar ir
Ġj ana
ok k
Ġco uld
Ġs om
Ġfir st
ya p
id h
up ar
Ġup j
Ġt ele
Ġra il
f ore
Ġs r
vi ous
Ġmar ch
Ġv el
b han
g hat
Ġk ani
Ġp achhi
Ġwor k
Ġsab h
Ġrup ee
Ġs und
ap ra
Ġo p
y ane
Ġpa hun
Ġva ali
Ġr at
Ġs er
us in
Ġda ura
Ġcr icket
Ġpar iv
d r
Ġjaan kar
Ġ uch
Ġgar eka
Ġt ut
Ġs y
Ġche y
Ġt ad
Ġye ars
aj i
Ġbo od
ma il
te mber
Ġb ale
Ġj ane
ig a
Ġin di
Ġan um
Ġwhi le
Ġj is
d av
Ġcha a
Ġ Y
an ce
Ġbha j
Ġm unn
hit h
Ġvis hesh
Ġup yog
udd hi
I t
Ġko ti
b b
Ġk ud
Ġl aa
Ġsam pad
k am
Ġaav i
inch aru
Ġ ich
Ġj anda
Ġk il
ul la
uk i
Ġbal en
ika as
vi e
e a
Ġv ast
ai ya
Ġbha i
ll um
Ġj at
Ġk eli
Ġr og
Ġne pali
s hal
Ġn im
Ġsam et
Ġpra yog
Ġba it
ind a
j u
al il
Ġa ga
us ht
Ġt hik
o ur
v ik
ist ar
ĠS t
bha g
Ġadhik ar
Ġmukhyam antri
Ġco urt
Ġc oun
um ber
e ad
Â ł
Ġd un
ch che
Ġv aj
Ġa st
es i
Ġh one
art hik
p l
w ad
Ġk hal
a il
Ġsha bd
Ġjaankar ee
g aa
Ġt old
Ġa ir
hak o
el s
up p
Ġthe m
Ġd h
ĠC om
n at
ar g
Ġ att
u h
u es
Ġp ai
Ġbl og
Ġk end
Ġk ak
y ata
ta in
Ġraj ya
Ġd el
Ġk isi
d hi
he e
ek i
Ġnirvach an
2 4
Ġanu bhav
g ed
Ġs ari
id ent
Ġnir maan
Ġprak as
Ġp u
Ġp ok
Ġch ir
Ġas a
Ġsh un
ai y
hak ar
Ġpa ani
Ġd ik
Ġn it
Ġchal a
Ġprab hu
Ġut te
Ġjaa a
ment s
Ġp ri
Ġkar na
an iki
Ġd od
Ġon line
i àµ½
Ġse x
Ġgari eko
Ġbe ing
y le
Ġp or
ul t
am in
Ġp ed
Ġt ame
Ġkar ata
Ġpe hle
Ġ2 7
Ġfo und
ad han
Ġt est
Ġo ctober
Ġy at
Ġpunjab i
Ġcong ress
Ġn ab
ri b
h ing
m and
um ai
Ġ2 8
Ġud yog
ut unn
Ġsam b
ud e
Ġbe fore
Ġsamp ark
Ġj une
uk unn
v it
Ġb ang
Ġprat is
Ġprat ik
ush ti
b aar
Ġs it
Ġb all
av ya
Ġf amil
ic o
un ch
Ġj in
Ġc ame
Ġr u
Ġad d
Ġshik sha
1 4
Ġr ed
Ġm antr
2 5
ank o
Ġdaura an
r al
aa ya
pr at
Ġr ok
Ġwe ek
Ġv ikaas
ur at
ip i
Ġn ya
Ġtan ne
Ġmuk hya
Ġf al
Ġn ish
Ġthi e
un jab
es ter
Ġan and
Ġin s
ash yak
Ġjill a
Ġparis had
Ġb u
bhar at
ab le
ow er
Ġmrit yu
y ek
Ġye ar
ch ana
Ġra v
us hi
aa h
Ġus e
Ġd ak
Ġpa as
pp et
ay am
yan ni
o ma
u c
p ana
Ġma han
Ġv ata
Ġg andhi
Ġan ya
Ġma atr
et s
Ġp av
Ġj uly
Ġh um
Ġgar nu
Ġna an
Ġk er
il i
r ish
Ġm ug
Ġv en
s hit
Ġ2 6
t y
Ġm er
Ġnet aa
ind e
Ġl ya
ut u
Ġn umber
Ġadhik ari
Ġk ram
p or
Ġrup ama
Ġk ele
ra h
ur ed
Ġam b
Ġt ul
Ġp ub
ye ar
Ġsak ate
Ġpho to
Ġb hal
Ġg re
Ġir und
Ġtara h
ation al
Ġjiv an
ek hi
ill ion
Ġm att
Ġg ol
an ak
Ġb hu
Ġwant s
Ġs ag
yam ule
Ġot her
Ġsam achar
Ġe ver
Ġen ne
Ġtak e
Ġv ib
iv ing
Ġs us
Ġho sp
ation s
Ġaga in
ang s
ok e
ug ht
Ġs uk
Ġv aar
Ġnu chi
Ġp aan
Ġb are
Ġwe bs
Ġs ol
Ġpr an
Ġb aare
Ġhun ch
r on
Ġs il
ud al
Ġsa ch
Ġbha ag
Ġaa f
ur s
a w
e i
Ġre g
a cha
Ġs ik
Ġkar aar
Ġh unda
art h
Ġaav e
r s
Ġbad i
Ġme raa
Ġkaran yaat
b at
il ai
op p
s y
Ġch et
Ġ ati
Ġp and
Ġt ik
Ġd am
Ġgar dai
Ġbad hi
Ġle ft
Ġpar am
m it
Ġhan d
Ġdo ctor
as an
ant ran
Ġs aar
1 6
Ġut pa
Ġg ir
Ġkar y
Ġ201 6
at s
Ġm ile
Ġthe re
Ġst ate
t ya
hy o
bha av
Ġa arthik
ust r
Ġin t
Ġkar od
pat u
Ġche iy
Ġkar ade
Ġo l
Ġis lam
Ġs ut
hin n
e ra
am en
Ġro op
v el
Ġp uj
Ġen na
Ġr ite
Ġprat in
Ġhe l
Ġp ug
Ġb aar
Ġlek h
1 3
Ġsab ai
Ġnirn ay
B ut
c er
id a
Ġsaf al
k um
und ai
ĠT el
c es
v o
b ir
Ġkaa y
d es
Ġn inn
Ġshak e
Ġs ome
c ent
g o
ad s
Ġjaa ve
Ġm umbai
ri a
ar ik
Ġvish wa
Ġn ati
ya da
yak ram
Ġkaran ya
Ġl ike
Ġpar e
Ġhu a
Ġg het
Ġc al
l od
Ġsaat he
Ġpust ak
Ġprad aan
Ġpak istan
Ġpad e
j ay
Ġd haka
Ġn ow
Ġkar ya
ma in
n aa
r ik
Ġjee van
Ġb ig
hi ch
Ġra at
Ġas al
Ġa ami
g uru
Ġpra sha
Ġbhan ne
Ġt ur
Ġkar t
ang an
Ġva ale
ra sht
Ġf at
u bha
Ġch hu
Ġun t
Ġj as
ir ik
hat e
Ġkam i
ho s
en ti
Ġj ast
Ġki m
ala ya
Ġ4 0
Ġk hil
Ġa z
Ġd aa
in ar
and u
Ġsm art
Ġm angal
Ġv ip
Ġd os
Ġv ed
ri end
Ġmaam le
Ġm i
Ġha te
ee p
ukk um
an ya
k h
Ġdek hi
Ġs aare
Ġch ik
Ġkar vama
ek ar
Ġa ali
Ġb hul
Ġma has
Ġsa j
Ġd et
iy on
Ġdhar m
oun e
d har
w w
Ġh y
la ck
Ġj ai
es ia
Ġs uv
Ġya di
Ġlo ok
Ġv all
ap ad
y ani
Ġha ath
en ge
uk al
Ġaav ashyak
Ġm ani
Ġbha sha
g h
ug ust
f al
Ġhi t
Ġk ir
8 0
ib i
av in
c c
Ġs el
it o
um ay
ot s
it tu
ut ti
Ġkar ada
Ġsura k
ank a
c ed
ot a
o u
Ġun i
r uti
iti on
ok i
Ġ2 9
Ġman us
Ġj et
r in
Ġkh ud
Ġsark ari
p ai
Ġw hat
w ari
year old
ct ed
Ġc a
Ġev am
Ġupj ela
Ġp ict
Ġt ol
am al
han s
Ġr el
Ġpur i
Ġprak aar
Ġki chu
d al
z e
on di
o o
Ġm ang
Ġsho w
ha ma
ya g
ot h
a in
Ġn udi
ho t
Ġja ataa
ha ti
Ġpr e
Ġpar ic
iv en
Ġb ir
ram an
Ġbha eka
Ġvad hu
Ġg ri
id d
kar an
Ġshak ti
od y
iy at
Ġka hin
Ġsak taa
ivers ity
Ġav asar
Ġy atra
Ġsank hya
l an
st o
c in
Ġst hap
r ol
Ġthe r
bo ok
ci al
Ġmad ad
k ad
p tember
Ġ19 9
ot her
Ġprak ash
Ġparik sha
g y
Ġd iti
ad hu
Ġap ril
Ġp ant
Ġhat ya
Ġs ri
Ġsab hi
Ġpan ch
ya h
Ġvik he
ca use
aa z
Ġch hil
r ed
s on
an ch
Ġma hil
p ut
Ġaw j
Ġw here
Ġsans ad
uk ar
Ġfamil y
Ġs hu
Ġad a
k er
Ġar tic
Ġin st
Ġmhan un
r et
Ġt ag
Ġt yas
Ġtak a
pal ika
g in
hy at
Ġg he
Ġka he
Ġbo hut
Ġj hal
Ġr ight
Ġkel aa
j at
Ġk ali
Ġb hak
a am
Ġas s
Ġkarn aa
Ġun di
am ai
Ġsud hi
ak t
ig ar
Ġd ub
Ġtay ar
Ġs ukh
Ġp ass
Ġm ember
Ġvis he
Ġg et
eng il
p ol
Ġl av
Ġth ro
Ġyoj ana
ill a
Ġviv idh
Ġvibha g
g et
Ġv ag
m ani
z aar
enn ai
Ġa ata
j ar
at mak
Ġsam ud
Ġmon th
Ġup lab
v ari
ak al
ur o
s ad
as u
Ġsam av
Ġaf no
Ġaad har
ya y
Ġaap nar
ch en
Ġb ali
Ġl ink
ta at
S he
att in
Ġd he
Ġjan u
Ġk oll
am ent
Ġas un
Ġl en
Ġshi v
Ġmand ir
an am
Ġk endra
Ġgujar ati
Ġk ott
Ġc ase
Ġw om
p hone
r und
hy og
b ru
Ġpur v
Ġi f
w ara
Ġd ho
Ġpra apt
as han
ik um
Ġra ak
ha da
Ġk umar
Ġsak da
re vious
ĠL e
it le
Ġth ree
as on
Ġav ark
Ġb hat
o e
s w
Ġcl ub
is k
Ġp os
Ġc all
Ġi b
dhan i
Ġp ay
Ġd ite
cho ol
art an
Ġbe cause
ham mad
l ed
Ġs ent
Ġk um
Ġk n
Ġd uk
Ġsad ak
Ġas l
Ġkare que
ill y
ĠU n
Ġm eri
it hi
Ġjan aa
u var
av al
Ġw ay
id ha
ol an
Ġsam bhav
Ġtat hy
s ho
Ġek a
Ġmo uth
Ġto p
or es
di o
Ġoff ic
y ukt
ch n
aa f
Ġgro up
Ġsup er
Ġtar haa
Ġdec ember
Ġin n
Ġnir m
Ġbho om
Ġt ip
esh war
Ġcha d
Ġlag e
Ġdur ing
Ġon ly
ra bad
ad h
g s
p achhi
ar am
b an
Ġb ala
ti a
z i
Ġp ind
Ġn id
gar h
Ġp ash
Ġak k
f er
Ġad hya
b as
ug al
v aar
Ġsa hyog
Ġman llum
Ġun ale
Ġtra in
Ġk es
Ġshik shak
Ġb re
m ir
Ġg ate
p as
Ġ ell
ep achhi
o sh
v ani
am at
Ġke hi
Ġlog on
ul ar
Ġkshe tr
Ġm ath
Ġs att
Ġd arshak
is ha
han o
ol og
Ġ201 5
n ne
r up
Ġg en
Ġav ast
Ġkaar yak
Ġmut hal
l in
Ġv ay
Ġy en
ess i
uv an
e ct
Ġ3 1
at es
N e
Ġ201 3
ic s
d aar
Ġk ite
Ġprat yek
Ġa ale
Ġm ik
Ġup ayog
Ġin cl
im an
Ġjan m
Ġt ene
Ġg ul
Ġvibha ag
Ġn ok
Ġsh ra
àµ¼ tt
he la
de v
ich e
Ġkhar ch
Ġbha d
Ġen jh
Ġmad e
Ġhosp ital
ind u
ch ha
Ġb ed
Ġko hn
ist er
Ġsamband h
Ġsanst ha
Ġp aid
en na
Ġra h
f ul
ing u
r ama
Ġp uch
og ram
Ġprat isht
Ġsab ase
Ġt ari
Ġd aksh
Ġl ife
Ġcent re
Ġp la
Ġsh uk
Ġj ay
Ġhu i
Ġb ich
Ġr et
old id
Ġch uk
Ġgujar at
g am
ut tu
in ik
Ġna ya
Ġad hi
Ġpat aa
Ġwor ld
b hi
Ġl ig
Ġban aa
l ek
udd he
Ġpura s
Ġprab hut
2 2
Ġnat un
ri y
Ġse ptember
Ġpahil aan
v ay
ph pt
pra dhan
Ġl ine
Ġsak al
vid han
Ġ20 7
Ġbad ha
Ġsh ram
on n
ata at
Ġs um
Ġm ala
m ati
Ġ ub
ad ar
Ġf ol
Ġchand ra
it an
Ġin c
Ġdo o
k har
Ġan aya
ek sha
uk ti
Ġek ad
Ġp ha
Ġpar ist
Ġh indi
k han
ut hi
ap ak
Ġcol le
Ġc ond
oun t
n agar
Ġb ik
Ġas an
Ġb hum
Ġkr ish
Ġprav esh
at ine
il y
Ġen a
ot u
Ġman s
Ġtr ini
Ġ201 4
g n
Ġse v
te m
t al
v ish
Ġsam aaj
uv at
de rabad
Ġvik as
Ġk sham
and h
Ġagain st
iv as
Ġpho t
a f
am s
Ġra ashtra
Ġho ga
Ġar r
ĠTel ugu
Ġk id
Ġha chche
Ġk ala
il d
Ġghat na
Ġcl ai
Ġthe n
Ġaap ako
Ġuplab dh
Ġcha ar
Ġbhar ati
Ġs en
Ġm und
k ha
Ġsang it
Ġwa ala
Ġfa is
Ġan ge
r and
Ġj aag
Ġpar ivar
Ġj il
Ġr end
Ġha k
Ġnir va
air unnu
Ġpas and
Ġinter net
Ġj atiya
Ġl and
Ġkath madon
Ġw ell
Ġsp e
Ġ ele
pr ess
p it
Ġch i
ĠM r
Ġshar e
Ġdu ii
ank u
Ġsha st
ik aran
ud hu
Ġ yak
uk intu
Ġlek in
Ġshi sh
Ġsamp ann
Ġsampad ak
han g
in o
Ġl im
Ġas hi
Ġmus lim
h or
Ġp in
Ġsam ar
Ġmo st
g anj
ab a
hin e
Ġit iha
Ġsang hat
Ġvyav s
Ġsam ag
Ġas ha
H ome
Ġb lack
Ġg amb
ath madon
Ġpar yat
v ajan
Ġma z
Ġja w
Ġwebs ite
Ġ201 2
Ġv er
ĠNe w
Ġpo int
Ġsam en
Ġkal ak
Ġjaa ya
Ġk or
hy an
l ing
Ġd oll
un haa
one y
4 0
g ra
Ġv ist
g ha
Ġst hal
v il
at han
Ġv ali
ell en
ur al
k as
yak o
Ġbi en
aj a
on u
Ġj ate
Ġpr aman
Ġcha cin
Ġpa isa
2 00
d as
Ġshar ma
Ġch hat
Ġan ti
o od
Ġil le
a c
Ġka hyu
Ġ q
Ġb in
iv es
Ġb akh
hi c
av at
àµ º
Ġpa ase
en ne
Ġho w
Ġnan ak
r is
Ġ ali
Ġk yon
Ġt ader
Ġm or
Ġb ane
bha ve
Ġit ar
Ġg rant
ut o
Ġbha e
Ġp ag
hya an
Ġrasht ri
l et
Ġna yaan
Ġlag u
Ġcine m
al it
rit ish
Ġvya p
Ġcon o
j as
l ad
Ġa cha
m u
t yas
Ġd us
Ġdi was
em ent
Ġgo od
Ġho s
Ġkal am
b uk
t ha
Ġm iss
Ġc ard
har ule
Ġpa ck
Ġdw aara
Ġchun aav
ion s
Ġa al
Ġha v
hil i
Ġcomm un
Ġmuj he
Ġv itt
m m
Ġv ira
it ar
Ġman ukh
Ġmat ram
Ġkha d
9 9
Ġc or
av ama
Ġs ite
Ġho on
Ġcl ic
Ġath va
j ee
ed a
Ġst art
ka al
ap u
Ġst ha
o or
Ġk att
b all
el u
wo od
Ġsurak sha
Ġc amp
Ġaap alya
ab i
ur es
Ġgar e
w ani
Ġg eet
Ġr ek
Ġpra ch
st a
ya var
Ġv et
Ġsad sy
p et
Ġpad d
Ġches har
Ġrec ord
od hi
Ġabhi pra
Ġsa hay
Ġj ud
ri g
Ġhe ad
ank ari
Ġvis ha
vajan ik
bru ary
s s
ang u
Ġk ast
upar ne
Ġpub lic
Ġb het
and er
ut an
Ġaap an
Ġshe sh
Ġfo ur
Ġtya are
Ġg ame
us aar
Ġba ith
ff er
Ġj ell
Ġr em
Ġs os
Ġni hat
van u
Ġg av
hin i
Ġ6 0
ut tar
l as
Ġpar annu
Ġsam bha
ark aar
n n
av ai
Ġpr ess
Ġex p
eng al
at aan
Ġm ake
es her
Ġmark et
h s
Ġpo or
6 0
Ġn ay
up at
Ġkaa j
Ġo k
Ġbad e
c ap
r er
ne pal
og a
ank i
Ġjar uri
Ġvib hinn
Ġvar g
Ġhar d
ff ic
Ġpra bhav
Ġke val
Ġb is
Ġkar ellen
Ġsa ad
Ġbataa e
Ġan al
Ġop en
Ġt har
Ġd ine
av ir
Ġvid hya
Ġaro und
al th
Ġe ven
Ġa ayan
Ġam ader
Ġja il
Ġyog a
Ġsec ond
Ġhel p
f ic
Ġm amm
Ġv ell
ur ope
m ul
Ġp aar
ant s
indi a
Ġsam art
Ġde ep
Ġup a
Ġmatt um
Ġjanu ary
Ġsam mel
l en
w ali
y ing
m ana
Ġk rit
Ġab d
Ġdes c
S T
Ġg op
Ġraaj nne
Ġya dav
Ġgho shn
Ġmat ch
Ġkha as
Ġkhan d
Ġm ati
sh na
Ġtr ans
b ho
re et
Ġcame ra
m ag
Ġs ira
Ġbaa har
Ġd hi
ya chi
Ġl at
Ġ uj
Ġk all
ab har
Ġ3 5
Ġs hir
am ay
Ġd ol
Ġ201 1
own lo
Ġt uun
Ġba cha
ap ati
ri p
Ġap pe
ist s
Ġp ond
Ġv ery
id ia
Ġpar k
Ġsan cha
Ġgur inchi
c on
Ġv aid
us han
Ġk ant
f ord
k ul
p ir
Ġb on
uk un
Ġnin nu
Ġpar ay
av as
uk àµ¾
Ġkun ai
j ha
Ġs l
ast er
A M
ch im
Ġho use
s u
at am
Ġp ett
Ġne i
Ġsand ar
Ġt usin
Ġch end
ho dhan
Ġmed ical
n ir
Ġap pati
Ġch he
ond on
Ġk ill
er man
Ġche it
am o
ya di
ta ck
Ġjad on
l ak
v aan
Ġb or
Ġpr ogram
ers on
ver n
ad d
Ġs od
Ġs te
Ġk ash
Ġha zar
Ġbo ard
Ġmuk ti
Ġlek ar
ed u
Ġf in
ash war
Ġpad i
Ġbel ie
y ama
pra desh
Ġn ava
Ġya ad
Ġlek hak
Ġjha ali
ag ram
ma hat
re me
2 3
Ġkar u
Ġch ur
ett en
ra d
Ġw it
Ġcha m
Ġjee v
Ġb id
har ul
iv inn
Ġbha van
Ġp ath
Ġch int
har uko
ad esh
Ġcha hie
had ur
ĠIn dia
j un
Ġp ank
j am
o y
et ik
Ġpaan ch
Ġincl ud
m y
un u
as ang
Ġthro ugh
Ġl ong
Ġkin wa
b hut
an na
Ġk aan
Ġj andi
Ġcha le
ĠA r
201 8
Ġyan chya
f ar
p in
Ġra hul
hana as
Ġun iversity
Ġp esh
ter s
Ġdu i
Ġshe tak
Ġu cch
Ġmaa hiti
201 7
P revious
Ġd ire
Ġf riend
Ġkr ishi
Ġrasht riya
Ġsaar vajanik
A n
t en
Ġs chool
Ġt hin
Ġgay i
Ġsay s
Ġan tim
Ġcha hi
bh har
Ġtele gu
Ġo pp
for m
iv a
Ġat ak
Ġsan rak
Ġ ic
ani e
Ġjaan ch
Ġtem ane
Ġdhe rai
ut er
Ġam ra
Ġja ati
ya i
Ġv ek
Ġm ant
ne y
Ġmo ut
Ġpar antu
Ġvya bhhar
Ġsp asht
Ġus ke
Ġ ila
Ġr om
all a
k ari
te e
ma j
od han
Ġmar athi
Ġa alo
Ġkar ab
us ed
ali àµ½
ip u
Ġraj dhani
n av
o ti
Ġpr oj
Ġabhi yog
Ġn ig
ur y
Ġja at
Ġever y
A l
Ġm um
Ġav astha
pr ati
n ai
Ġk ay
Ġb ashwar
The y
Ġv ann
Ġl in
Ġtam ara
Ġkar at
Ġf er
Ġmin uun
Ġsang bad
Ġbo ok
Ġjha alaa
om et
c chu
Ġchar chaa
enc y
Ġpict ured
2 1
and han
ab ar
iv ed
Ġshar u
Ġartic le
he ka
el d
ra g
el f
us i
Ġjan am
Ġjan av
Ġa eko
all o
Ġsan chal
Ġvishw as
Ġt en
Ġn ight
Ġf il
Ġfol low
ak shan
Ġo b
od e
st e
ul at
ank e
Ġjan ata
Ġswast hya
et ti
ark o
Ġtha p
Ġ19 8
Ġkhar id
Ġde ath
ud hi
od u
Ġjha ale
Ġpratin idhi
Ġsa hak
Ġpur na
Ġm andi
ak ti
ist unn
end uku
Ġkav ita
v aa
Ġt and
Ġvik ip
Ġit u
Ġyet he
l ish
n s
Ġt ena
st em
Ġk hed
al ik
Ġn ave
Ġprad arshan
7 0
Ġg yan
Ġvar shan
Ġmahar ashtra
Ġav i
amb h
Ġne ed
hy alay
Ġgar er
ib le
l ik
p ik
Ġp ort
Ġman ag
Ġmahat v
w aan
aa e
ni a
ra y
Ġap na
Ġa un
Ġch up
Ġjar ur
ung s
Ġgra han
Ġmana je
Ġcon s
Ġvach che
Ġm ere
et hi
ata al
aag arik
Ġkar di
Ġam rit
W e
l er
z al
Ġch ang
mad hye
Ġs ini
Ġa ji
Ġb ina
Ġpar ti
Ġghat n
Ġs hub
ic an
Ġpra kar
en ch
Ġkal yan
Ġrak am
g har
Ġs eri
Ġk uti
Ġkam eti
Ġt ang
Ġmar g
Ġsaha j
rish na
Ġra d
ing h
Ġsha h
Ġpr op
Ġjo ie
Ġrail way
Ġb er
Ġd ene
hin d
c y
Ġl et
ap as
Ġpra ka
Ġek ata
Ġpan cha
Ġb ro
Ġd hyaan
ho l
Ġat tack
pat ti
Ġnet a
ut undi
m dhye
ho d
Ġf es
Ġpra hari
Ġek han
Ġst ud
Ġag ar
Ġb ivinn
Ġjaa e
Ġ ug
Ġkar ta
Ġkar yu
Ġvar shi
00 00
Ġvyavs aay
Ġtar ike
Ġser v
Ġaap ke
n it
ak at
Ġper cent
Ġmrit y
Ġsha hid
Ġnya ay
Ġ3 2
aaj ik
t in
is ed
ck et
Ġkam al
Ġlok o
co ver
i o
Ġk ann
Ġr it
iti es
o op
Ġ Q
as am
Ġshe ikh
bha i
Ġ201 0
Ġj ila
dr en
am ad
Ġan a
ab h
ab hi
Ġbhar ti
ha de
is m
sh r
ast han
Ġanus ht
Ġb udh
Ġv ari
ay al
Ġpol is
Ġirukk um
ownlo ads
ch es
Ġm ali
Ġna yak
ank ar
Ġun ke
Ġban aav
ep i
phpt itle
Ġs par
Ġch oll
Ġvir uddhe
Ġkav it
Ġanum ati
Ġch hut
Ġar op
Ġc ity
ast hit
ig h
Ġsha b
T his
eric a
Ġtay ari
v ai
Ġp inn
Ġse ven
Ġya han
Ġutpa adan
ar at
im e
Ġb ari
el o
Ġf inal
Ġb it
Ġan ni
Ġsa hm
Ġmo ti
Ġso ch
ay ite
sha s
Ġsuv idha
ar ak
Ġk ore
Ġch od
uk ond
Ġo ur
it r
Ġhe ro
Ġvar um
ĠE ng
Ġm am
ur an
Ġo esia
Ġut t
Ġd hak
hi ya
Ġgar da
Ġband ha
Ġpahun ch
Ġs ara
Ġa ct
Ġ4 5
Ġmin ute
Ġudd esh
hi ra
uk um
wa ad
Ġtar vat
Ġpra char
hik o
o ck
in er
ol a
Ġpr er
e ek
Ġp air
Ġun hen
Ġro yas
ha al
Ġt ann
Ġt app
Ġa ugust
ik unn
Ġha al
Ġan tu
ed e
og rap
Ġproj ect
Ġha o
up arch
Ġor e
Ġsin ce
o c
Ġn ile
Ġat u
Ġhun di
Ġjell er
s at
Ġs ne
ir unn
s aa
Ġp ya
Ġra b
k ot
Ġs ug
Ġs her
Ġya ve
Ġull ekh
Ġkang ras
Ġyu va
t re
ip o
k ai
Ġm alay
Ġy okk
Ġpahil o
m il
Ġb ul
Ġr is
Ġpra shan
ag at
yak a
Ġt eni
Ġb il
Ġst ri
Ġn aagarik
Ġl od
Ġap ana
Ġsang har
j iv
n ess
Ġg ot
Ġw r
Ġba zaar
Ġab hya
Ġbhav ish
at al
Ġp hon
Ġb om
ul ku
inch indi
Ġaz aad
b le
o ot
Ġb lo
Ġsthan eey
Ġj u
Ġcha h
an an
Ġv ie
Ġe ar
hun ik
Ġpul ish
Ġma ans
Ġpak sha
Ġm ir
is ke
le x
yak ar
Ġl ist
Ġl iya
et h
t ai
Ġaar ope
Ġj aga
Ġsam it
ush k
Ġ7 0
ad y
Ġo wn
Ġka hi
ĠO ff
Ġmot her
Ġtara f
ad har
Ġgur ud
a har
e x
bab u
Ġk ale
Ġan up
Ġba hu
Ġra ch
Ġsak de
Ġvyak hya
Ġp hul
in nu
ap ai
Ġsa an
Ġker ala
al d
Ġka ur
Ġal ag
Ġaay ojan
Ġt wit
am ani
Ġf ree
Ġen nu
Ġkho l
Ġkn ow
Ġbha yo
Ġap ara
b y
Ġad de
ib ar
Ġmo vie
Ġaay oj
Ġm ara
Ġpratis hat
2 7
a ce
il s
Ġkar yo
Ġpra band
àµ¼ t
Ġgo ing
ya b
Ġma ari
hal u
pur na
Ġk en
Ġit he
Ġbhar i
2 6
Ġb ur
Ġd ham
aj e
Ġniy antran
j ad
n es
us s
Ġen te
Ġz yada
Ġgir l
Ġm uch
Ġjee e
apra dhan
c ti
k intu
v ind
ik as
ik unnat
ic a
Ġat yant
ustr alia
an sh
Ġs hil
Ġt aa
ak ing
Ġis e
Ġsamband hit
Ġthin k
g ur
ha at
Ġd and
Ġte j
Ġk sha
Ġk ache
Ġb est
Ġsa ade
Ġnam m
co ok
Ġha pp
Ġr iv
Ġja ande
Ġshr esh
Ġsund ar
Ġcan cer
Ġkim mat
b in
m athi
Ġd arshan
Ġr and
ed er
Ġvir odh
Ġgamb hir
Ġa alaa
Ġkar yakram
Ġnir man
Ġase en
ant h
Ġvid han
rit i
Ġsam as
Ġbhan dai
Ġsy stem
Ġpres ent
Ġkarya alay
v ya
Ġp us
Ġb uj
Ġsa ans
ist r
4 5
l ok
Ġs ku
Ġk avi
Ġm udd
ang àµ¾
hin a
Ġirund hu
Ġvidhya art
et u
Ġy oun
wa al
Ġaf is
Ġjaw aab
Ġ8 0
ĠA m
Ġp ower
b ed
Ġpra bha
ent ly
Ġst and
Ġhot el
Ġve g
Ġband h
ip ur
m es
Ġdaksh in
B C
u al
an chi
Ġn anj
Ġnar endra
Ġudd h
4 7
ha di
Ġse em
Ġjan aay
am ana
re en
Ġkha s
Ġpl an
in che
Ġm ale
ran ce
f u
Ġn ikal
Ġg it
Ġch aran
an ai
al t
Ġb ud
han t
Ġkar ine
ti p
hin ch
ar ing
Ġn ika
ich ch
Ġpa hile
Ġfa il
Ġg as
Ġsak e
Ġaaj e
Ġsarkaar le
and ar
Ġm ish
Ġch ot
and hu
Ġwe b
bhan da
ek shan
Ġvid esh
Ġsamav esh
2 8
ha b
Ġm ok
Ġm ess
Ġha lo
ti àµ½
igar h
2 9
Ġt ai
Ġc ele
Ġf as
Ġse en
Ġrup aiy
Ġsamband hi
un k
Ġch inn
ct s
anglad esh
Ġv apar
Ġsa h
Ġpur ush
Ġrahe ka
Ġt hana
Ġg el
Ġban ane
Ġpaid aa
Ġj ela
Ġl amb
yan chi
ay s
Ġin j
uv ad
Ġut tam
Ġshik shan
Ġchil dren
m en
p ti
uk uni
Ġman ch
Ġpura a
Ġkis aan
Ġv y
Ġst hit
Ġghoshn aa
Ġd ai
Ġsam u
Ġsa uthi
Ġpat el
es an
ik ari
ek k
ul k
Ġaad haar
Ġa yog
s c
Ġd ot
Ġtum ha
Ġpot ana
Ġkar ti
we en
e j
Ġt aj
Ġa ik
Ġv ill
Ġap oni
ĠC o
Ġv ele
Ġw ast
Ġde e
cha y
Ġvya vas
shi sh
Ġgay o
Ġk hu
ut al
Ġpra yat
Ġst ill
Ġda ur
ĠC hr
i z
Ġd ag
is her
ib e
Ġt hul
Ġd er
Ġus ed
Ġsahit ya
Ġdig ital
h us
Ġn uk
it ik
Ġw ang
Ġmut ab
Ġk ati
or th
Ġhi se
k r
Ġc le
Ġen patu
Ġta x
ak an
om ani
Ġun ion
Ġlag i
un ki
Ġmod el
Ġyoj it
is hak
Ġne ar
ich i
Ġas p
Ġu hanaas
Ġkho j
Ġm illion
Ġn ib
Ġv yat
Ġn iti
Ġhar i
Ġday s
c an
Ġpar ish
ali an
hin da
Ġap ar
ort s
Ġvi maan
m on
p ho
Ġt it
t ave
un ale
Ġfor mer
Ġprak riya
Ġchho d
Ġip po
Ġb im
aa ye
uk ul
Ġsa ame
uj avaan
Ġpat ra
Ġak ali
Ġac el
Ġid i
Ġd ir
is ang
ap urn
Ġpar v
Ġal le
ĠN o
Ġro ad
t yamule
Ġs ada
Ġp il
or ld
Ġra hya
Ġnir desh
l ag
Ġm em
Ġj aye
Ġtha she
hun ch
Ġp ill
ujar ati
Ġdel hi
p unjab
Ġto ok
Ġraj a
Ġgen eral
r ist
Ġsaam aajik
ar ed
Ġj ind
ur r
com e
Ġyoj an
v iv
Ġs aaj
Ġan te
ag es
Ġma uke
Ġsho uld
char u
Ġt yo
Ġkar wai
Ġpat il
v atu
z il
ic tion
Ġvid udal
shi p
Ġd ad
it er
Ġpras hik
Ġbet ween
Ġpra vas
hr er
Ġ Z
Ġd uj
Ġj im
ip ar
Ġman y
os hi
Ġso och
Ġdhan ya
n aan
Ġn adi
Ġj han
Ġjee wan
Ġadd ed
hi te
Ġpra apat
Ġe uta
Ġas ate
Ġsad ar
Ġshan ti
Ġb ill
us am
Ġde f
ump ol
Ġbhal o
k ir
m umbai
Ġg oun
Ġav al
Ġbhan da
sha y
ek shak
Ġsam vidhan
Ġcr ores
rid ay
Ġpro f
Ġparishad er
w ala
ha j
Ġv ind
Ġl u
Ġam e
ĠA n
Ġnet rit
c il
m ark
Ġt yanni
Ġa ward
ut ion
uk unt
Ġdur ghat
i il
Ġt y
Ġl an
Ġy ar
pat r
tr y
Ġ200 9
Ġkend riya
d en
k ani
Ġhe re
hal l
Ġy ete
Ġvach ch
at ma
in ed
han u
Ġin v
Ġsha har
Ġkond u
Ġb ai
Ġd ata
Ġg hen
Ġav ash
Ġmat o
en se
Ġj or
ed ia
ikk unn
Ġshuru u
Ġb eshi
Ġd ard
id am
up ati
Ġka al
ind hu
ars hi
Ġs ai
ta ff
Ġpuj a
Ġs ale
Ġch han
Ġcha da
art y
eni or
Ġsund er
Ġb att
Ġn enu
Ġl if
um i
hik ar
Ġpras id
Ġbaj et
uk an
Ġmar an
Ġcon f
p hi
Ġas iri
Ġadhik aar
Ġchit ran
M r
Ġp es
Ġg oli
Ġmo hammad
Ġsad haran
Ġcent er
Ġvishw avid
Ġkshetr ama
g g
l il
us had
ark ar
Ġbhaj p
Ġch ina
Ġha ley
ab e
Ġtat ha
k on
us hal
Ġsid dhan
Ġvyap aar
Ġin f
Ġpr ob
v ada
Ġb ip
Ġg ang
Ġf ase
Ġja ya
Ġp ayan
Ġg od
Ġch essi
hik a
Ġpol e
Ġsho ot
m antr
o h
p ro
i al
Ġt alai
Ġj ankari
uk hi
und aa
Ġle ad
Ġhind u
Ġmonth s
Ġd ukh
hin chin
Ġhi gh
Ġfa ce
Ġinclud ing
a z
n ak
Ġt urn
av illy
ay o
Ġsa ak
Ġat le
Ġun ki
Ġvir al
m ing
s il
ar ya
Ġs all
un th
Ġtam ane
Ġmil a
er o
ag an
Ġne xt
Ġinter n
it is
Ġj em
Ġl id
ap o
Ġma uj
hal o
Ġniv ad
Ġshuk ra
Ġp erson
Ġa isa
Ġch ok
ho k
Ġh ona
Ġre p
Ġyog ya
Ġjanaay eko
4 8
Ġja ise
Ġtim es
Ġyuv ak
Ġmaans ik
ch il
ir s
ud an
ani an
Ġbha ira
Ġpuras kar
Ġc ell
po or
enn al
Ġa ath
Ġkad hi
Ġk om
Ġde p
t he
Ġshra dd
al ku
Ġn ote
Ġkar be
uk ki
hil o
Ġ3 3
Ġsar vat
an y
Ġs aab
Ġb ody
Ġl am
Ġam m
Ġaap i
Ġsaha bha
p aper
Ġs ul
Ġto day
Ġne uj
est ed
b hu
Ġup al
ks hit
Ġbani i
Ġupa chaar
Ġt w
ud har
Ġsad asya
p ura
Ġk ama
Ġk ull
ch hu
Ġj ati
Ġl ater
Ġpol ic
ett ing
Ġaad esh
Ġparic hay
l ya
ie f
Ġg and
st ar
ij an
Ġtho ught
Ġnal k
Ġc are
Ġam it
Ġvish yam
ĠR ead
Ġmot or
Ġled a
ut es
em an
Ġsku ul
Ġyoun g
Ġb ri
ich ar
Ġham i
Ġbait hak
s aan
Ġman ass
Ġshak t
band han
Ġled u
ubha yo
Ġpar ne
Ġin du
Ġki ye
Ġka ise
ub e
mat amaa
Ġraa heen
Ġs oll
hur ti
Ġc ri
Ġsam iti
ord ing
Ġpet rol
Ġc hatt
va h
Ġmo on
ĠI ST
Ġprak at
Ġkab hi
Ġlab h
Ġkil omet
Ġsammel an
v am
Ġg had
Ġl ang
Ġha ad
Ġf ive
Ġma ch
ĠP unjab
ĠD ownloads
ĠJ o
ves ti
k rit
w ork
Ġt apa
Ġa h
Ġun ako
Ġyo ur
Ġd ow
ya as
Ġr un
iv il
ani a
Ġpr ote
Ġnat att
Ġchest unn
Ġw ater
Ġprati yog
Ġchend in
k ash
s ide
Ġ ellam
Ġd og
ra an
olog y
Ġsos hal
Ġch us
Ġban ne
Ġdu ara
Ġsira j
Ġb en
Ġg in
av ad
ed it
Ġgo vern
Ġmand al
Ġti ar
k ap
Ġm ass
Ġt icket
Ġb ann
Ġra shi
Ġche ck
ase ch
in c
Ġn avi
Ġpra g
Ġdi ed
ĠP ost
Ġ19 7
kaar an
A s
s her
Ġ ela
Ġm udi
Ġmag ha
Ġput ia
Ġin han
Ġbas ari
gal uku
Ġpra pan
Ġpr ar
st ai
rit u
Ġper u
Ġindi an
Ġfor m
Ġbat am
o ra
p ul
v ers
Ġm alai
Ġc ut
uk ta
Ġand olan
Ġsw ami
Ġ5 00
ide o
pradhan mantri
Ġk ri
av atu
Ġin i
Ġtel is
Ġtir i
Ġaw ay
an cha
Ġt yana
ra at
he b
Ġnagar palika
Ġpla ce
Ġghat ana
Ġdoll ar
Ġprat iv
Ġpe j
Ġdun iya
ut ar
Ġsha s
Ġav an
ĠL ondon
Ġmer o
Ġasp ataal
Ġt ali
Ġha th
Ġw el
ag ue
Ġthe ri
g ad
l og
as at
Ġg aan
Ġra hyo
Ġsang h
Ġsans hodhan
Ġm ig
Ġg hum
ma atr
Ġsak ati
Ġak hil
akk um
Ġdil i
end ar
Ġtho se
Ġdon t
ĠCom ments
Ġmamm la
Ġlak shan
Ġsi x
Ġsey y
Ġjana an
o ve
Ġv es
ĠR e
he ri
en te
Ġaa h
ve y
Ġsar vas
ĠW e
Ġet hir
Ġsaam aan
ak ir
Ġl ot
Ġas k
Ġsaam ne
A nd
g es
in ter
Ġt hal
Ġsam e
ach an
Ġtel us
Ġrashtra pati
Ġs n
aa on
us hya
Ġped d
in chal
ul ak
Ġpr ot
Ġbe uro
Ġdown lod
A r
c el
Ġl al
Ġpat ni
ric a
Ġya sto
Ġsup reme
Ġgam ee
Ġvr uddhi
Ġanusht it
ra il
as k
Ġto d
Ġvar aku
Ġut h
Ġhon ar
Ġw ent
Ġf el
Ġho st
pur am
Ġcong res
3 5
y oj
Ġp ap
Ġp avan
re ji
Ġno ti
on o
Ġtar un
Ne xt
g ari
Ġf akt
Ġav ak
pr es
Ġtum hi
v ali
Ġa ise
Ġha st
and an
Ġe mail
Ġdekh te
at te
al ika
Ġraj u
ht t
v r
Ġch or
ek ale
und u
Ġnir d
Ġkary alay
w are
Ġp id
Ġch ennai
Ġho in
Ġne ver
Ġpak sh
k in
p le
ha ade
am er
Ġg ele
ol ice
os han
Ġlag n
no o
Ġjari g
t han
Ġc at
Ġvich ar
Ġrak sha
Ġsooch na
R ead
Ġa hile
ann ar
Ġ3 4
ĠO x
Ġmatram e
Ġdire ctor
Ġnir des
Ġj anie
aa ve
Ġpar ya
Ġvar she
var an
w ale
ak shi
Ġsa itu
Ġvar e
unnat in
ujar at
Ġel la
Ġniyam it
Ġada alat
rund hu
s ur
Ġa ma
ap pat
Ġsam m
Ġko shish
ast ar
Ġvach chin
Ġeng land
Ġwom en
ace book
is on
Ġg um
Ġh tt
ĠP r
àµ¼ k
Ġdu us
on y
Ġch ud
ig er
rit ain
ly wood
Ġdes her
Ġbab u
Ġlaksh ya
Ġpari war
Ġra hane
Ġna zar
Ġy ug
att ar
ĠM ore
band i
Ġcl ass
Ġmantr alay
Ġcall ed
am dhye
Ġd ra
ik sha
Ġjag at
Ġbr and
b el
j har
Ġj had
Ġse i
po orn
Ġprakas hit
Ġprasha san
Ġele ct
al ed
Ġd ete
ut y
ur se
Ġfoot ball
Ġw icket
ab hav
Ġte chn
ill en
Ġjan at
Ġmed i
w ast
ak um
all u
Ġit i
par antu
Ġb es
ra u
Ġsha hir
Ġchha bi
Ġsura kshit
Ġraashtra pati
al on
Ġa e
Ġsar as
Ġswat antra
Ġk intu
ap n
Ġbha aj
Ġc as
cha i
ro w
Ġmar o
Ġa it
Ġa ai
Ġd at
ang as
ach ya
Ġnam bar
Ġunn ai
Ġdon on
Ġcap tan
h d
p ram
Ġt ham
Ġsam pra
Ġpa alan
tion s
an che
Ġp utt
Ġd ok
ek u
Ġman on
Ġcon tr
Ġlek ha
Ġchit r
Ġasl elya
Ġbhoom ika
Ġviv ar
Ġtem ani
Ġtap as
Ġvidy art
Ġvarshi ya
Ġpa hel
Ġre al
Ġaayoj ana
g han
Ġa adi
Ġsam aa
ari es
Ġman av
un hone
ur am
Ġkar ib
iv al
st han
Ġvishwa as
w er
uk ari
Ġaap e
Ġcom e
Ġviv aad
sam m
Ġenn iv
Ġprast aav
Ġnaj ar
Ġhise ve
b ra
Ġ uk
Ġp ush
Ġb ars
ark ari
Ġakk uv
Ġnave en
Ġl ive
Ġw ad
Ġf ire
Ġsam sk
Ġe man
ĠH e
rasht ri
Ġn ond
Ġpar matamaa
iv aar
Ġja her
Ġ3 6
Ġsam r
ane e
Ġ9 0
dan iki
ek e
va ad
shak o
Ġrah man
3 7
I ts
y i
Ġt ot
Ġhe alth
Ġho gi
Ġis l
ĠM ar
ĠW orld
Ġjin han
Ġret urn
b r
g us
Ġp aper
Ġpar at
Ġpar ip
iv id
ĠA l
sa h
Ġt ala
Ġc y
Ġva hi
Ġdi es
Ġh us
og le
Ġpa hela
Ġis te
Ġut he
Ġtha yo
Ġsang ha
Ġshe ea
Ġnanj hi
t el
Ġch ut
Ġma ar
Ġya hi
Ġsan yukt
Ġus ki
Ġji h
Ġwa àµ¼
d s
en ed
Ġj ap
h up
p re
Ġan other
Ġaav yo
Ġham aare
Ġvaar u
Ġlim ited
k ata
t amil
ha aran
ch ik
ag am
Ġkam ish
Ġdek he
Ġmahatv apurn
ing ton
Ġre ve
Ġus ne
Ġfe bruary
Ġa ash
Ġj y
end er
Ġbal etten
Ġmul am
Ġkad am
Ġma il
pat ra
Ġmul ya
Ġla unch
Ġum m
Ġv ant
Ġche m
Ġir up
Ġlaag e
Ġjanav yu
Ġp her
Ġin vesti
Ġpad aar
Ġpur n
Ġkrish na
3 9
l is
t ik
Ġg reat
ach ch
hr uko
Ġtya acha
Ġsthap ana
j ana
Ġk hun
Ġd an
es ar
ic haar
Ġpra jal
up u
Ġsa waal
Ġar ab
var s
Ġag o
haan oon
Ġkap ur
Ġs as
Ġp hurti
uk ayu
Ġba alak
Ġut s
Ġ5 5
Ġbhe j
Ġtyaan chya
n ath
Ġt aaj
iv u
ata h
ck s
ĠS ep
Ġjaan o
Ġte ch
Ġvid eshi
j ya
t um
w aar
Ġkar ee
ati a
Ġna ame
Ġche itu
ukk u
Ġgurud wara
n ik
Ġn ing
Ġg l
Ġkar yan
st r
Ġte o
Ġtak en
ar sh
al y
Ġb ot
Ġjo va
g aar
Ġr ic
ti me
Ġf ind
Ġsam oo
Ġban oun
a ami
t ho
Ġkar ane
Ġpr ant
Ġpa hila
iy an
Ġpur us
yar man
Ġvart hal
b il
y ul
Ġs ign
Ġg old
Ġha in
ap ane
Ġab hy
Ġkat al
Ġrat ri
Ġbaith k
c ess
Ġk utt
sh ri
Ġsho t
Ġkut umb
a ile
b ari
p ari
Ġe vu
st ha
Ġh in
Ġba har
Ġak ram
Ġro om
Ġaw ami
Ġmak as
Ġt reat
Ġcha mp
Ġja ani
aag at
Ġbhan er
Ġshak ay
Ġkut a
Ġsancha alan
Ġr ele
Ġbad h
ĠM ay
ek han
ark a
Ġgho shna
Ġyan chi
Ġhy derabad
Ġvikip idia
p un
at ur
Ġb us
Ġd ike
ur ity
ho ut
Ġya haan
ĠS c
Ġthak e
el ai
Ġma hi
Ġun hone
Ġpat hak
Ġsar ak
Ġtar ik
Ġsang eet
Ġdo sha
àµ¾ k
o i
Ġt aiya
Ġd up
Ġas at
Ġcha alu
ck ed
Ġmo h
Ġshik shar
Ġres p
Ġsikh s
m av
Ġj un
ir u
id om
ĠU K
k ut
p th
p hon
an ar
Ġs hal
et tu
und ani
ki ya
Ġsach iv
ay la
Ġman chi
Ġvid hi
Ġag ra
Ġpun ar
Ġdev ya
Ġparic hal
ĠOx ford
r ani
Ġk ade
Ġda ily
Ġud a
Ġyet hil
Ġhove ga
o di
al ar
and ai
Ġf i
hy al
ust han
ĠD ec
Ġkang ress
mahat ya
l al
Ġt ek
ik y
ay ani
ab aat
end ing
Ġvid ha
chit r
Ġk ata
av it
ath mik
Ġag hi
Ġbang ab
Ġunt undi
Ġk y
Ġa ane
Ġh unde
ine ra
Ġsup port
d aan
l uku
Ġs taff
Ġa he
Ġdi eko
Ġre f
Ġtha yu
Ġvis esh
m ukh
o x
Ġm aid
Ġkar che
har ma
Ġsha amil
Ġiv ite
Ġku i
ak aa
Ġch hal
ed aar
st er
Ġmil i
Ġbaj e
Ġwat ch
b odhu
d am
t aan
Ġs ic
Ġg aj
ĠF acebook
Ġpati u
u f
Ġag ast
Ġtem ana
Ġprabhut van
g ir
Ġr od
Ġra st
Ġsam poorn
Ġst ation
9 0
S A
Ġt ran
en er
Ġg ut
ur g
um e
Ġse ason
Ġhi ro
sa hit
hun e
Ġcolle ge
j et
Ġs enior
Ġv aari
ik an
Ġke m
Ġhe th
Ġmain e
Ġmat lad
Ġdev el
Ġs ena
hi re
Ġn ek
ay i
ap att
ant ha
Ġpra j
Ġkon ni
Ġbij epi
Ġbhasha a
7 5
he k
es hal
Ġra hin
Ġo per
ok es
Ġla al
chit ra
ĠEng land
et y
ich ya
ro id
Ġdhar e
ov adi
Ġsabha pati
Ġpariv artan
vie w
3 3
ĠA nd
akar ta
ch ari
Ġb istar
Ġch har
Ġra i
yat il
tr ini
Ġvand hu
O n
Ġp odhu
Ġm is
Ġch ol
et ar
et ire
Ġdhar am
Ġkut ub
Ġswast hy
Ġrupaiy yaan
Ġp ud
Ġa age
Ġch uki
Ġkani p
Ġmember s
Ġadhya yan
Ġkarab en
c ar
w ant
y ut
an as
Ġv ot
it ing
Ġkar udd
ĠF ilm
Ġull du
Ġbataa ya
ĠUn ited
Ġar asi
Ġme eru
Ġprashik shan
4 4
t n
ak ari
yan antar
Ġsamay ma
char ya
aap h
Ġabhin et
y r
Ġm ic
Ġst haan
Ġmuk hi
Ġje va
Ġpras ang
Ġjar ug
Ġcap tain
Ġsamb hal
Ġk dd
Ġp ab
Ġt ivi
uk at
Ġpray oj
Ġred di
b ot
r oss
am ber
Ġb hit
ma al
Ġst yle
Ġpat ake
Ġnav in
hm ed
Ġkarm chaar
Ġgrant h
a han
k il
Ġh uk
Ġbha gat
va cchu
Ġut e
Ġvi akti
Ġvik alp
Ġpray ek
Ġsey ya
Ġk and
Ġm ash
Ġm os
han da
et er
ti ck
Ġma arg
Ġche yarman
Ġar b
ist unnar
ĠH indi
Ġbang la
Ġa ushad
Ġra chana
Ġpra chand
Ġitiha as
Ġb udd
Ġpa wa
vad ik
Ġpras ad
av ik
Ġma ut
Ġar og
Ġsw ad
Ġdes ha
Ġvaj e
d aa
Ġa hin
Ġd ya
ad ia
Ġch uke
uk tar
ta h
Ġta hit
aay en
ugh ter
Ġbanglad esher
Ġthul o
d on
d hu
g ul
l aa
n as
s arkaar
Ġk shan
Ġb ache
ak s
Ġch unt
unn und
Ġen aku
bha yo
Ġbhi dio
Ġco up
ĠG o
Ġkart aan
Ġavark as
Ġkum aar
in j
Ġm int
ir ed
Ġf it
ist han
pe ct
Ġbra hm
s abha
t yaan
Ġt eli
Ġn asht
Ġsank et
l or
Ġ ukt
ha ve
Ġk aj
Ġb ela
ut ta
Ġvan ti
Ġutpa ad
Ġfais la
harul aai
a it
Ġt uk
Ġt ere
as ed
ud yog
Ġna àµ½
Ġde wa
Ġe ff
Ġja haan
Ġmo han
Ġshak o
Ġbat oun
hans abha
Ġb ay
el le
Ġar j
Ġman as
ĠB BC
Ġtam ari
Ġbu ild
am u
Ġc urr
av ark
Ġw ww
Ġho urs
Ġsad as
c ur
Ġar asu
Ġis ke
ĠR o
Ġjaave ga
Ġshu bh
r os
Ġa ia
ak hi
Ġand hra
war il
Ġvya va
3 6
Ġs aari
Ġd ate
Ġg ale
Ġto m
ara h
Ġkalak aar
Ġp ast
Ġd ile
Ġj ame
art er
Ġanal ine
Ġraajnne etik
Ġt ipp
Ġaad hunik
Ġpariv aar
b ij
w att
Ġt all
Ġm om
Ġb aan
Ġb ase
Ġv yank
ti v
Ġki u
sh u
Ġde b
d ra
g ulo
ak am
Ġch ya
Ġraj an
Ġpas oon
Ġdid nt
hi ri
is ion
Ġkar tr
Ġun gs
Ġmuk t
Ġz i
air unn
Ġpot ani
Ġchahi da
ro om
Ġsak adi
Ġlag bhag
Ġacc ess
Ġserv ice
Ġko h
Ġ6 5
Ġchitra pat
Ġkhil aaph
r om
in an
Ġa id
Ġv yas
od a
Ġek ajan
ip al
Ġre ad
Ġsw eek
Ġdal it
Ġunn ayan
Ġmel v
Ġsec ret
Ġwom an
4 6
Ġr il
Ġba cch
nu hos
Ġkha ate
Ġgal at
Ġvishw agi
Ġniv as
Ġdik ha
y l
Ġra akh
Ġma ya
Ġto o
Ġraj k
Ġsat ya
b angladesh
m un
m yaan
Ġm all
ay irunnu
Ġas alya
os ed
Ġmin utes
Ġsud haar
Ġcoun try
Ġavast haa
Ġsanrak shit
Ġamrit sar
c ing
Ġp uk
Ġp all
Ġv alia
Ġma ji
hat h
Ġvar ai
Ġchar itra
ern du
Ġn and
Ġma hesh
ri ed
Ġpr iv
Ġam be
Ġu ir
out h
Ġksham ta
am erica
Ġha wa
et te
ish th
ip s
Ġda ud
ind er
Ġdhar ner
Ġvad hare
Ġ200 8
at aka
Ġv ang
Ġw and
Ġtha y
Ġ19 6
Ġum ar
Ġchil d
Ġchon as
c al
c le
m ari
r um
em b
Ġbien pir
d ekhi
g un
ad o
Ġl on
Ġl ing
Ġ3 8
Ġnet rut
Ġqu es
s al
Ġsa athi
Ġvar uk
ell ing
Ġchal aa
ĠL iving
hn as
b ul
Ġt oli
ra b
Ġf und
Ġ7 5
h uk
es he
ud u
sh ti
Ġva ala
tt il
fat ar
g as
Ġp op
Ġn ings
av en
Ġsan jay
Ġtak hav
Ġdo odh
has pati
way s
it ch
Ġj ama
Ġma ile
Ġba hum
Ġreport ed
Ġprast ut
irik t
Ġ ide
ul du
Ġya ar
ĠM c
Ġ3 7
Ġroj u
b ol
p ot
Ġt ira
Ġm ith
Ġsan vat
ĠC l
ina am
Ġbhaira heko
t at
Ġg e
Ġr i
Ġthe se
ri m
Ġve er
par yant
Ġdun ia
Ġadde ha
s ap
w ati
Ġs ide
Ġpar ib
Ġto ur
Ġal och
Ġlag aa
rak shan
Ġvit tu
Ġtis uk
e ver
Ġm are
Ġd akh
Ġf ull
Ġra ashi
yak sh
art ment
Ġcine mal
Ġkhil aaf
p ani
v ati
Ġp ir
Ġy ana
Ġsh ut
ĠS und
ĠI s
int s
Ġmul aa
3 1
v ant
it v
and har
Ġf lo
ri an
Ġpa ha
Ġlaag eko
lek in
Ġbik ri
Ġcontr ol
m et
Ġp hil
he li
Ġf ast
Ġhe art
Ġst hiti
Ġsab andhi
Ġpit aa
Ġjaya are
Ġg ira
ul am
Ġjan vari
Ġre ally
Ġdo st
Ġaav ashe
Ġbak hrer
Ġkram ma
y ala
Ġt et
Ġm ek
Ġm oney
Ġg erman
ut unnar
Ġma haan
Ġte va
Ġkh ushi
Ġfollow ing
Ġshe khar
Ġvir odhi
Ġkon t
Ġpatr kaar
Ġmahar aj
A ra
o os
s ank
s elf
Ġp ann
Ġm ata
Ġkar av
Ġka han
Ġaap aki
Ġnat akk
ĠP M
Ġrak t
Ġum med
Ġabhin ay
p ite
Ġv eru
Ġv istar
Ġhi ra
var e
Ġdar ek
Ġpray tn
Ġfat her
e f
Ġel aka
Ġpres ident
n ag
ch cha
Ġd ina
ad em
ek hane
Ġsa u
Ġse ver
Ġsh ort
Ġsab hy
Ġme et
hr ule
Ġvad d
Ġram ro
Ġsand esh
Ġpahil i
Ġeng ine
Ġsamart han
Ġsaan uun
g aj
o ok
am bar
Ġb oth
Ġch ini
Ġan nar
Ġsa inik
Ġ4 8
itt ed
Ġac ch
Ġgur ut
Ġmud da
Ġ ipp
al es
er t
Ġg ati
ir heko
Ġra has
Ġma ham
ic es
cha an
ro y
Ġre ce
Ġu bha
Ġshar ataan
Ġdis c
Ġnar ayan
Ġv end
il ar
Ġr anj
Ġme ra
q at
in han
Ġb ib
ik àµ¾
Ġad m
all um
Ġmuk h
Ġnepal ko
c u
c op
Ġde g
Ġva q
Ġkaar ob
Ġkh ush
Ġmaan ush
Ġnika al
h re
Ġa wa
Ġa urat
ak hal
el hi
Ġsa w
Ġhar ek
Ġbo y
Ġtu haanoon
rig ht
u va
Ġw ind
id in
Ġpr art
Ġde ve
Ġsha m
Ġav ish
Ġut ha
Ġmahin e
Ġpare in
Ġprabhav it
k athmadon
t hir
à ¤
er ing
Ġc ra
Ġya chche
ĠD iction
Ġpun e
Ġmaam la
Ġhav ing
t ab
Ġm ushk
ak il
Ġw alk
ĠO ne
Ġcomp uter
t av
Ġha at
ĠC ity
Ġmil an
Ġ200 7
b hak
Ġch ara
ut ayu
ot hi
Ġmo ol
Ġloc al
Ġmahan agar
c um
r or
av ill
Ġke ep
Ġcha ss
Ġor der
Ġap eksha
iy al
iti ya
Ġraa hat
ha as
Ġk ada
Ġaa yaa
hy ama
iy u
Ġlek han
Ġfo od
Ġcar alay
Ġgad di
Ġabd ul
s ak
Ġc re
Ġthe v
Ġh undai
ham i
Ġvich on
Ġdo es
Ġak shar
Ġtel ipar
Ġbab a
c cha
Ġp ia
Ġr est
Ġma ho
Ġsahabha agi
Ġ eti
Ġad hin
Ġsha mal
Ġ3 00
Ġnat ann
Ġro o
Ġmut al
Ġpratin id
Ġn el
ya ad
en gi
Ġj av
Ġg rand
ed d
Ġda al
Ġva as
Ġtr ump
udi o
jat ik
Ġs ala
at or
Ġm aaj
Ġj yaan
Ġg hya
Ġpr om
st ra
sha hi
udd in
ĠB ritish
ori es
Ġprayat n
3 8
e che
s ari
Ġw in
ic ch
Ġmat rai
Ġkha ali
Ġhun u
Ġaav yu
Ġabhi yaan
Ġtel ug
usin ess
Ġaloch ana
5 5
Ġd aan
Ġan usthan
Ġsang at
Ġvit aran
Ġprob le
e arch
y ang
Ġn ip
Ġo i
Ġo un
Ġpad am
Ġham en
uth or
ec ut
haspati bar
a ck
y att
Ġc am
ent er
Ġup st
ro wn
Ġjo b
Ġmit ra
Ġ ett
Ġho l
st hal
Ġgar u
Ġsans kar
v yak
Ġha wai
et utt
itt le
Ġpl as
Ġyen ar
A N
ho p
ap achhi
Ġpar ch
Ġin e
ani i
Ġi ra
Ġvish v
Ġdar aj
Ġanus andhan
Ġ15 0
Ġcan ada
uton di
Ġchik its
k ya
at is
ul lo
Ġag adi
band hi
Ġpun ha
Ġpray ojan
Ġchepp ar
Ġlaa bh
Ġvie ws
n innu
Ġg up
po àµ¾
Ġvyakti gat
Ġkarva ani
Ġghe un
Ġchandra babu
at ai
Ġma hiti
Ġand er
im p
Ġhi r
Ġaav ya
Ġro u
haan le
Ġdos ro
Ġvyakhya o
k hya
Ġ ala
Ġg lo
Ġkar mak
Ġf ans
sh ya
Ġ1 000
Ġ20 00
ura v
pp ing
Ġfe el
w hili
in es
Ġt ave
Ġan ai
av ali
el ar
Ġki unki
Ġad an
Ġav as
Ġnaa v
Ġjiv it
Ġput ra
apur na
Ġfriend s
Ġsahm ne
p hir
t l
at un
iv it
Ġsan sar
Ġpad h
Ġz aro
Ġdr ess
Ġhal f
Ġcomp ani
Ġtut ang
Ġnetrit v
as hak
hin di
Ġun til
Ġva ad
li er
Ġput iya
Ġnaj ik
Ġksha ti
ĠFilm ibe
y ute
Ġa and
am ul
Ġn aku
ir an
Ġsa in
ane ra
sha d
Ġkaa phi
Ġpak ist
Ġshr omani
Ġkhe ti
n il
an ik
am es
Ġkar she
Ġe urope
Ġko ek
Ġev ent
Ġirukk intu
Ġkill ed
i um
Ġk iven
Ġd eta
Ġsam jha
Ġke u
esh ta
Ġsu ffer
Ġwhi te
ĠIn di
Ġsambha va
alla hu
v athi
Ġk ase
Ġb od
Ġw ife
Ġo pr
Ġpar aj
Ġe va
ba hadur
Ġim port
Ġbana un
Ġtaaj a
3 4
am um
Ġch ann
Ġdi ffer
Ġba aki
end u
rit y
Ġal ai
ans a
ĠI m
Ġshak ha
Ġkit aab
Ġjit he
Ġkardi as
Ġa ust
Ġa iti
ed t
Ġsam adhan
Ġun ka
ĠC ar
form ation
Ġarasi el
Ġa ut
Ġan ub
Ġman o
Ġba al
Ġnat ak
Ġpo o
n ing
t aj
Ġp ell
Ġa ank
am ee
it or
on nu
ma har
Ġdhar na
Ġadhik rut
Ġil ava
pak she
r ukk
s ag
Ġp amp
Ġsam maan
Ġkaa yam
Ġup ad
Ġja wa
Ġmo ve
Ġsar al
hr ile
hay i
Ġghar e
Ġtul ana
u ck
Ġt ani
hi p
Ġf id
ic ense
va as
Ġlo ve
Ġed ut
u ally
Ġs ati
Ġp od
Ġde vi
Ġad bhut
ib er
Ġsab che
Ġmul uk
hyak sh
Ġdoctor s
anch ester
Ġbom b
j ise
o ugh
Ġm ene
Ġb ayan
Ġg iven
Ġan ut
Ġpol it
ard s
Ġsho ws
Ġku f
Ġkyon ki
Ġparti es
3 2
Ġch rist
Ġha f
Ġkar ai
av o
Ġpar as
ich it
Ġir ind
Ġham ro
Ġla ine
Ġtamil n
Ġprakas hith
Ġvist aar
Ġwr ote
A T
d il
Ġp oss
Ġn att
Ġis t
Ġva ik
Ġjhal elya
Ġchass indi
Ġk ish
Ġp is
Ġma ovadi
Ġhe ard
Ġman j
inch an
jan ak
Ġgan esh
Ġmid hu
Ġweek s
Ġdak hal
Ġsanghat han
b ag
f as
s it
he el
ne w
os i
Ġbho t
Ġswat antr
Ġven di
udhi ana
b hit
s en
ag hat
ri es
Ġst hir
The re
Ġco st
Ġantar gat
Ġpuras kaar
Ġkash mir
Ġj ung
Ġha ar
Ġo d
aar an
Ġ201 9
Ġall tu
Ġnis chit
v eshan
Ġb art
Ġj apan
ik shan
Ġf is
Ġra g
Ġdi z
Ġun it
Ġpati ala
Ġvig yan
Ġshikshar thi
Ġd ena
Ġo tt
Ġde al
att ine
Ġup asthit
Ġnat atti
bhar tiya
Ġsmart phone
Ġsaamaan ya
s ana
Ġk iti
Ġa aga
sha at
Ġabhi man
ĠO n
Ġmanus her
Ġmund u
Ġsaab aka
b en
Ġn iche
Ġg ud
ti ve
Ġpr odu
Ġy uddh
Ġand ar
Ġek ai
Ġab le
Ġag e
Ġprak alp
Ġsamaj ik
Ġkot ati
Ġsk ul
Ġsom et
ĠLe ague
ĠJo hn
k ale
Ġd ang
Ġl ikh
Ġho to
Ġpad he
ĠC up
Ġdhar a
Ġta in
Ġsaa f
Ġbach ya
yank a
c ort
k ak
o àµ¾
Ġt ank
it ute
Ġc er
Ġr ug
ill at
Ġprav art
n ama
Ġs if
Ġv akh
Ġch hie
and s
Ġna ujavaan
od an
Ġi yak
rit ti
ĠF e
Ġaag rah
Ġjaye ga
ya cha
er sh
Ġg ant
Ġr eli
ud er
Ġtal k
Ġbho jan
ĠDec ember
O ne
k hand
p ich
Ġas am
hul u
Ġbo x
anu ary
Ġhao war
Ġkilomet re
Ġzi ada
l oni
t ir
Ġpar inaam
ati àµ½
Ġse yal
Ġkam ishan
par is
ĠW est
Ġbh raman
Ġsr ushti
k un
m ane
t aar
he te
ad ai
it re
Ġch ange
hat s
Ġgar ine
Ġman n
sa athi
Ġlik he
Ġkarmchaar ee
m od
m angal
Ġm iti
er ed
Ġl uk
Ġag u
ĠB e
Ġmi x
p ic
Ġm ast
Ġb ott
Ġma ang
ro und
ran ti
Ġfr ont
Ġac ross
Ġtya alaa
Ġsaf ar
iri unnu
Ġel aan
Ġnagar ik
Ġgat han
Ġpray ukti
Ġvishay ma
pol ice
Ġmaz ya
8 5
j ali
p pat
ch t
Ġa eka
Ġl ight
ut et
av ana
Ġw ai
uk ol
esh n
Ġman or
Ġdee bs
b ang
g yan
Ġ X
Ġk us
Ġha ll
ap i
th ing
Ġnaa hit
Ġwich on
ĠG ujarati
ong ress
Ġprop er
Ġnyaay alay
4 9
m ant
v ing
Ġd av
Ġko sh
Ġmot ta
Ġvij aya
avaan o
Ġbacch on
y od
il an
Ġin de
aan che
Ġsha bad
ĠS y
Ġmur der
Ġacch hee
Ġp ip
al m
al ani
Ġn ich
ho un
ol am
Ġad e
Ġjiv en
Ġjari gin
Ġkas ri
Ġspar d
Ġp m
Ġd uti
hi st
av aran
Ġpar ven
Ġpra bhaav
re ed
im es
Ġva is
Ġco urse
inn er
Ġnet work
Ġsay ing
Ġpratik riya
a e
al um
Ġt re
Ġb aga
Ġn ap
Ġn ite
ad in
il ity
Ġpar ako
iy ar
ĠM iss
Ġal am
est s
ĠB ar
Ġsat ta
aga um
Ġsc reen
Ġer pat
Ġrakh te
Ġdos hi
b or
p tar
Ġki ra
Ġsan vadik
Ġthir um
pres ent
at ic
at ari
in ju
ch hi
Ġsa int
und o
Ġcha al
Ġval yan
Ġsho dh
ikal il
Ġhove gi
uk aa
Ġsanchal an
v ana
ar es
Ġpr od
Ġe ach
Ġand r
Ġvid hansabha
Ġus ing
Ġval ang
Ġbol i
Ġshan t
Ġdas amber
Ġacc ording
Ġgam es
Ġvim ars
Ġfoot bal
Ġprasid dh
ĠDiction aries
s m
Ġa asar
Ġl ene
ay ana
ir heka
201 6
Ġsir f
Ġkak sha
Ġmanag er
W hen
v yav
Ġp ine
Ġm ub
Ġv aag
ek ha
av er
um enn
aaj e
Ġ19 5
Ġga eko
Ġsur ya
rasht riya
Ġitiha sh
s un
un te
ad am
Ġj ug
hy alo
Ġsaf e
Ġbl ue
Ġann ikal
Ġsanst han
Ġsal er
Ġuch it
Ġspe cial
ĠChr ist
a ani
Ġv ina
uv atu
Ġre hinda
Ġsak rant
ikk um
Ġfase buk
d arshan
f ter
x i
Ġb uk
Ġl ar
Ġst ree
Ġ3 9
Ġal p
Ġall ah
Ġtu haade
Ġmaan av
Ġvidy ut
Ġnuk saan
Ġiti has
k et
y ati
an chya
Ġb uddha
Ġpra vid
iv r
Ġhi st
ee che
Ġun g
Ġam hi
Ġall ow
Ġches e
Ġyog adan
Ġchin ta
Ġseri es
f riend
ch er
Ġv ada
hik ari
Ġda ughter
yam an
Ġme ga
Ġres earch
Ġjam in
Ġmahin a
Ġupar ant
Ġalle ged
Ġdevel op
p ane
p ada
Ġj ashe
Ġan ter
av ars
Ġjan ako
ĠC han
ĠC ol
ens ion
Ġur ja
Ġchhal fal
Ġjame en
Y ou
Ġp ow
Ġd ush
Ġn ind
ya ch
Ġj ok
Ġc ab
ut am
Ġat m
pat ta
Ġtam am
Ġpradhan mantr
Ġkshe tre
Ġamar indra
Ġphot ograp
g it
p ath
w oru
Ġk het
Ġp hal
al aai
ek sh
up a
Ġaa hat
Ġsan n
ick s
Ġrahe she
Ġare a
Ġvyav ast
Ġkore a
r ati
t un
Ġnav en
Ġden yaat
ĠCom m
Ġtrain ing
Ġbre ak
Ġques tion
Ġa je
is ing
Ġtar ikh
Ġaf rica
Ġgo ot
Ġla w
Ġsap ta
ĠY ork
Ġra hyu
Ġvya h
Ġchal l
Ġcl ik
Ġjiv ita
Ġpratisht han
Ġyak han
ĠSep tember
ha vi
Ġg hal
re am
Ġgar am
Ġchit ram
ĠJ anuary
Ġum ed
Ġroj i
Ġnak ki
Ġbra h
Ġwit hout
Ġp orn
Ġa va
Ġr ole
el la
Ġka un
pal ik
vach an
Ġlig er
Ġprativ edan
Ġl yo
up i
var g
Ġcom ment
Ġvis it
Ġz ind
Ġsank at
Ġ200 6
Ġnick s
m ud
Ġp ull
it ri
Ġj har
Ġc ust
Ġkar am
Ġin ch
Ġtel angan
Ġask ed
ĠSund ay
Ġt att
Ġb ara
Ġb ritish
en o
Ġr ul
Ġho ld
Ġam ake
Ġsha hr
Ġus kaa
Ġkat hin
Ġaav edan
Ġta hale
Ġpak she
Ġhos en
Ġvidhyaart hee
Ġd ind
Ġd hir
Ġd inda
uk unnar
end ed
ij i
Ġdr ug
Ġsur esh
Ġvic tim
Ġameric an
Ġdet aa
Ġb ichaar
ay ute
Ġas ar
ig i
Ġap ad
uv ai
Ġton n
Ġrak hia
Ġsp orts
Ġmanus hya
Ġvishwavid y
Ġvakh te
m ut
y es
cha ma
Ġpat har
ĠS te
rit t
Ġal ong
Ġud an
mo han
Ġsud har
Ġkaren ge
Ġnirvach ane
ulla h
Ġreve aled
m illion
he er
Ġpra yaas
Ġsam aya
Ġe j
Ġbha al
Ġraj in
shi re
Ġchar ge
Ġdil aa
Ġgram in
Ġvaar ta
Ġbhaaj apa
ak she
ti ma
ag o
ĠD avid
at um
Ġra han
Ġe p
ug g
Ġdr usht
Ġet a
Ġchaa hate
Ġsamb odhan
v art
ar ani
Ġb hut
Ġb ike
he ey
Ġj ang
ik at
et an
ap ol
iv an
Ġbha er
Ġham la
ĠE urope
Ġyuv ati
Ġasal ye
Ġmutab ak
Ġcle ar
Ġpahel am
Ġk ind
am it
Ġd had
as ma
ai gn
Ġma hen
Ġpa in
uv ak
yan ya
ĠT V
Ġ4 2
Ġfe w
Ġhune ch
orn ing
Ġvast u
Ġinv ol
p lo
Ġs uj
Ġb hra
unn av
Ġad ai
Ġval are
Ġham ale
Ġbataa eka
Ġbien pi
o f
Ġa ab
Ġj ot
Ġse m
Ġse arch
Ġad ami
Ġbe g
Ġnir antar
Ġtha ya
Ġlok ap
Ġvyavastha apan
Ġimport ant
Ġn ann
Ġha ir
ur ang
id u
Ġpra ia
Ġde van
re ady
Ġsu yog
app att
Ġpi ar
Ġplay ers
Ġshram ik
Ġbhum ika
Ġhard ik
d hil
in ce
ra st
es amm
ir k
ark u
bha eko
Ġvar nan
Ġshak yata
Ġ0 17
Ġthak ave
Ġay in
Ġchest unnar
Ġtelis inde
atur day
p ay
p ann
at ely
in ue
Ġt ule
ch are
and al
Ġra ha
cha m
Ġkha ane
Ġ4 3
Ġkho op
Ġmak ing
Ġgre attar
Ġric ard
g on
ar aj
Ġs pa
Ġt uj
Ġl ittle
Ġc reat
ab at
Ġpar a
Ġke hete
di e
Ġar as
bha j
ko ol
Ġban oune
Ġpe ch
Ġviv aran
Ġkut utal
Ġvic ha
A t
c ol
Ġl ib
Ġh yaa
Ġpa ud
Ġam al
Ġbe come
ĠM anchester
Ġsak ne
kal il
fi ed
Ġlat est
r en
Ġs ita
Ġa isi
us ti
Ġo une
Ġaa w
Ġen e
Ġba zar
Ġvar u
pat al
Ġjo i
Ġoru var
Ġmaj or
Ġsec urity
F or
s in
Ġpr os
vi jay
Ġshe ersh
Ġsu chi
Ġtal uk
Ġdal er
Ġpi em
Ġsangit ale
l ay
an ek
Ġs ars
Ġa asa
Ġn ational
Ġkar yam
uk on
ĠJ uly
ĠO ctober
Ġdr iver
val ani
Ġpul isher
wit ter
Ġshub hak
ĠFilmibe at
Ġb eng
ut ai
Ġjan ma
Ġpe hali
Ġdr ushti
Ġich ha
ishak h
Ġdhanya vad
Ġhiro in
Ġabhinet ri
H ow
at ri
Ġd v
ag ad
Ġy i
unn i
Ġva yas
Ġsha hi
Ġthak a
Ġsud khya
Ġupj elar
Ġclai ms
b aj
e V
o bar
s ans
ak shar
Ġj amm
Ġf ile
Ġh riday
ip pat
Ġam ir
Ġvid hyalay
Ġvis hal
so ci
Ġtum i
Ġbach che
Ġaag al
aa ch
Ġan ur
Ġra dio
hat ar
Ġbha epachhi
Ġas ato
Ġka h
ĠA ugust
Ġ4 4
Ġval ik
Ġim m
Ġnepal ama
Ġrek he
Ġiste maal
l it
n ya
t hik
av ani
Ġo ld
unn ill
Ġche ya
Ġpa at
Ġtak han
Ġsw aagat
Ġrak ha
Ġbab y
Ġrek ha
Ġhus band
k umar
o undai
Ġm ishan
am ma
Ġj ig
il er
Ġha alat
Ġma he
Ġmad h
aya d
Ġpak rau
Ġout side
Ġtip s
Ġbala at
g ing
m us
Ġkar j
ich t
Ġbe hind
ham aa
àµ¼ nn
pra shn
Ġ8 80
avar u
angl il
incha da
O M
j id
j atiya
Ġn ari
un al
Ġkar ale
id ed
ate g
Ġte ra
ill o
Ġpad har
ĠM o
ĠIn ter
Ġshish u
Ġgl ass
n ap
Ġt eri
as o
Ġj ant
Ġl end
or an
Ġan ug
Ġtak ing
Ġu yar
Ġpancha yat
Ġintern ational
Ġprar amb
Ġkaarob aar
b on
d at
Ġra ham
Ġsam aad
Ġsam bhaav
ko i
ĠS aturday
Ġal ready
Ġtar uvat
Ġmil it
Ġaar og
Ġkab ar
Ġjarig indi
8 4
A R
b ai
Ġm ust
Ġn ine
Ġra hen
Ġas ataat
Ġpad a
ub ani
yan chya
ĠT amil
Ġram esh
Ġkarm akarta
atti àµ½
isk eko
Ġstart ed
Ġpar chi
Ġpra hrile
Ġpr ekshak
Ġde mand
Ġup aay
hil lo
ĠM ond
aid h
has hik
hum i
Ġmant avya
Ġjaga h
A m
p ing
Ġm alli
Ġd ist
Ġde ad
Ġe var
Ġne m
Ġya sh
bha s
Ġvar ta
Ġta aliàµ½
yal yer
Ġpraka ash
Ġcoup le
ar er
Ġb am
Ġf ut
Ġcha p
Ġaa e
op a
Ġva hat
Ġus ee
Ġjo di
Ġso ft
Ġshr eni
Ġfar vari
Ġkarn ataka
tem pt
6 5
b ak
n ed
Ġ est
Ġn idhi
ad ha
or g
Ġst op
Ġman is
uv al
ĠP re
iya dhu
pe cted
Ġfar ee
Ġbaa ba
Ġgro und
Ġpash chim
Ġduus are
t tu
Ġs athi
Ġa ustralia
Ġb ura
Ġb uddhi
Ġv ent
Ġg ath
um ati
Ġna ana
di p
Ġen ni
Ġsha her
ce pt
Ġtr ust
Ġraak hi
Ġkamish nar
l av
Ġt ath
Ġt ante
Ġf an
Ġna ukari
ana ya
Ġbha le
Ġda akhal
Ġun gal
ib a
Ġtar get
Ġvir od
Ġghar elu
Ġmot a
Ġjil ha
in ai
ist u
Ġsarkaar ko
Ġpost er
mo bile
Ġsin im
Ġarr ested
Ġbhra sht
q til
Ġt aya
Ġb usiness
ad hye
uk alu
ap pa
id har
Ġsam purna
aan o
ta ur
ub lic
Ġlag ata
ull u
als in
Ġchit ras
19 9
Ġnal ki
Ġghan ta
ester day
Ġbelie ve
Ġchatt agram
n ay
Ġp hy
hi guru
Ġl ess
Ġw ard
Ġpar id
Ġpr ith
sha h
Ġvar an
Ġvar isht
Ġvid hy
Ġsak inch
Ġvad h
vad hi
Ġoffic ers
Ġparyat ak
Ġshoot ing
e il
Ġp engal
ad al
Ġg hana
Ġg ive
ap e
Ġsam vid
Ġek ta
Ġaap kaa
pat il
Ġcon tra
Ġmal yal
Ġkhe tra
Ġshub he
Ġbhavish ya
Ġtalai var
b adi
c r
f r
h la
Ġs ig
at ch
Ġb ull
Ġg ie
Ġl ip
ho me
uk une
na itik
Ġpa hon
Ġup adesh
Ġsak ch
Ġkal isi
ond u
Ġrak han
Ġdin on
Ġro und
ĠH o
Ġrang e
ward s
dav ad
Ġhand s
Ġakhil esh
d un
Ġt hane
ul ai
Ġpar ents
ĠS outh
ĠC oun
Ġbhan nu
Ġtho di
Ġnews paper
Ġvig ya
Ġghan te
Ġpich le
Ġlook ing
Ġanti ar
Ġk adi
Ġa ene
Ġn un
on es
ek ai
Ġpa ise
Ġvid ud
ĠA pp
Ġlo st
Ġviv a
Ġshan kar
Ġwant ed
Ġaat ank
Ġantar jatik
Ġyan cha
Ġbait he
Ġkn own
d ur
Ġm hat
el am
Ġna àµ»
Ġas ana
Ġut pad
Ġchal ach
ĠH ar
Ġkan an
eric an
Ġchand igarh
ont he
6 8
m or
Ġa ck
as amm
ut he
Ġan pat
ka àµ»
Ġvish l
pur vi
Ġdes ign
Ġtan u
Ġnok ki
Ġcommun ity
Ġcamp aign
j ai
v ig
at her
ak aran
Ġprat ir
Ġper um
Ġjha alya
Ġmaid an
Ġch eshta
et ya
Ġpar anj
Ġbha ga
Ġro b
Ġmal ak
Ġfar ak
bab at
Ġbhaj pa
Ġpok har
Ġparyat on
Ġt ro
Ġd ud
Ġl aai
Ġpar icha
Ġke vi
Ġho il
Ġ1 20
Ġand ol
Ġst ore
Ġbhar ya
ami yaan
Ġwork ing
Ġinvesti g
Ġtaiya ar
Ġs ch
Ġs ril
Ġch ic
Ġan ch
ip ad
Ġman ju
op patt
Ġun mai
Ġtar ak
Ġgo sht
Ġpaa hi
Ġnik ai
Ġaan sh
iga um
Ġsthap it
Ġsamag am
e h
w aj
z ed
Ġs adi
Ġn or
ad hya
Ġc rit
Ġav edan
ĠT r
Ġni àµ¼
Ġghar ma
Ġhaad ase
Ġaurat aan
I f
k ur
m ala
y ate
Ġm utt
Ġb esh
ra shtra
Ġj ho
il ute
Ġte x
Ġil aaj
Ġyog ayog
Ġbab at
Ġmaj bo
Ġb onthe
Ġc ode
Ġo v
Ġse at
Ġcha udh
ub at
Ġprat ya
Ġsc or
s om
aa va
aa pan
il ak
el lo
Ġra ah
Ġpar ve
iy o
ĠM P
ans i
Ġraj yas
Ġenn ai
Ġasal yane
Ġther iv
Ġtapa in
H is
m um
Ġm aster
Ġd or
it und
av y
Ġto mar
aan aa
Ġh ud
Ġar ko
op al
ĠA ir
Ġtak k
Ġak h
Ġvad hia
Ġrahi a
Ġind ust
Ġlik hia
Ġmug hal
Ġib pati
Ġvaas ate
vyak ti
b hat
v adi
Ġp ita
Ġd om
Ġf ight
Ġpr ov
Ġat irikt
Ġba as
Ġup alak
Ġva ataa
udd e
Ġsang rah
Ġso uth
Ġtr ek
hyam antri
Ġje vi
Ġaar op
Ġjha al
Ġvaj ah
Ġdarshak t
Ġear ly
b ich
q up
Ġt id
Ġb iman
en al
Ġche yal
va hi
Ġat ya
Ġup aad
ĠT witter
Ġco ver
Ġlok sab
Ġkan oon
Ġabhi yan
Ġid d
Ġsid hu
hani an
Ġbhak t
Ġabhipra yam
Ġasat ana
t antr
y t
Ġb ayat
Ġj os
Ġan yanya
ay ik
Ġr uk
cha da
Ġat tempt
Ġab ar
Ġrup ayan
ĠF or
Ġshr en
Ġres inde
Ġpatr ika
Ġuch ch
Ġtag g
Ġchhat aan
cover ed
Ġbudh war
Ġprer an
Ġsamaya ulo
m esh
v aare
as av
is ar
es ti
Ġpar ikal
ok a
Ġar amb
Ġraj asthan
Ġem ale
Ġent er
Ġkaaryak ar
Ġstha pan
n all
p and
r ing
Ġt asech
is athi
ir up
id ar
aar o
Ġke wal
Ġto k
Ġche b
ali g
Ġbe a
pp a
ĠP ar
Ġchal u
Ġdur jet
Ġmus ic
Ġvaj on
Ġduj e
Ġdiffer ent
o cch
Ġk ashi
Ġb ee
Ġb engal
aar atmak
Ġin formation
Ġsh udhu
Ġal ways
Ġcom ments
ull ar
Ġvish yan
Ġsho ck
com pan
Ġsay di
Ġnivad en
ĠMond ay
j aya
an il
ari o
ĠT his
ĠP ark
Ġro hing
Ġpak ad
po ol
Ġed utt
Ġvart on
bhan ga
Ġ207 5
Ġjind agi
Ġbistar it
a hak
t om
Ġs iri
Ġs alaa
Ġt av
Ġd ark
Ġr um
Ġdar ta
mo st
Ġsaam ana
Ġkaarykram ma
ues day
Ġcommun ist
harul ai
Ġparish ram
Ġupalak she
e var
j ag
r ang
av ari
ay ya
Ġma at
Ġar g
ark as
Ġda inik
Ġka hani
Ġon nu
Ġam y
Ġsw abhav
pur i
Ġshr ik
gra han
Ġparay unnu
Ġabhya as
ĠNo vember
f ilm
p ach
z z
Ġs ip
Ġv aaj
Ġra chan
Ġpra arthi
Ġsam aye
unn ai
Ġvid he
Ġnir uvan
Ġvis a
pak istan
Ġkot s
Ġsarkar er
Ġtut r
Ġchhil len
Ġhin sa
k rut
an it
Ġg all
Ġg em
Ġch h
va at
Ġvid ya
ĠM s
Ġsang rakshan
Ġbhan i
Ġgo shti
Ġvijay i
Ġsr in
ĠY ou
esi ar
Ġdod ar
Ġaavashyak taa
Ġchol li
Ġdina as
1 00
Ġt ark
en di
ir am
att inu
Ġva han
Ġut haa
Ġdar j
Ġtra ffic
Ġfe et
Ġpran ali
Ġnid han
Ġsahm ati
Ġpraband hak
Ġgaan v
ha st
Ġa hmed
am ule
ya ada
Ġj og
Ġl as
Ġra dd
ist undi
Ġva itt
ess ion
Ġpur att
Ġper y
Ġem er
Ġgarn uparne
Ġtir ich
Ġgad d
Ġkhal eda
Ġdurghat ana
Ġbuild ing
A I
z an
Ġn ic
ya du
un ar
Ġvar tan
Ġ4 7
Ġdar amiyaan
Ġram at
Ġinn um
Ġsanghar sh
Ġs ind
Ġa ama
Ġm ela
Ġn ut
Ġra ate
Ġpr athmik
Ġar jun
Ġjan as
Ġup ay
Ġvish ya
Ġac adem
Ġga yak
angal ore
Ġsc ul
Ġdhi aan
Ġnamm ute
Ġgovern ment
Ġtechn ology
Ġn aye
ut ik
Ġma hatt
Ġe ight
od ar
Ġcha i
Ġek hane
Ġpa ho
ash ington
Ġamb ed
Ġdesc rib
Ġapara adh
m ans
w aa
Ġ ura
Ġk hid
Ġm unde
Ġf un
Ġas han
Ġbhar t
Ġut ar
Ġkal ai
Ġtho da
Ġraajnne eti
Ġju o
Ġgoun palika
6 4
c hatt
Ġs ib
Ġp aap
Ġp alli
Ġm illi
Ġm orning
it el
as ham
Ġw apar
ap rat
Ġpar amar
Ġsam aan
os a
Ġsh ulk
ĠA f
yam ai
Ġvya pak
Ġthi an
Ġye il
Ġvad hashik
aav aan
Ġdr ink
ĠU S
mel um
Ġcho udhar
Ġsiddhan th
Ġumm id
n ake
t hal
Ġk ilo
al oni
Ġt or
un che
ik ai
uk ir
ti e
Ġek atu
Ġor at
Ġmat daan
Ġag le
Ġdis ha
Ġviv ek
Ġcheiy unn
Ġtumha ala
Ġaaga amee
g iri
r ul
Ġp ie
al ity
Ġm ill
Ġb eti
Ġg ani
aa in
el an
iv ave
Ġy uktar
uj a
Ġmad at
pat um
ans hi
Ġshak ya
Ġdar bar
Ġla ash
ikal u
Ġsaal as
Ġbet ter
Ġill at
Ġgarnu hos
Ġgre en
Ġkoh li
g ujarat
Ġ čĊ
Ġk ag
Ġp le
al as
Ġb aaj
Ġf ib
shi v
Ġstr ong
Ġner am
Ġdod er
Ġhuk am
Ġvalik itis
p hil
Ġm antran
is aa
Ġbha ekale
hy derabad
ĠT uesday
Ġhas il
ĠG erman
Ġbij a
Ġcomp ut
Ġkel elya
Ġroop ond
a al
Ġ unnat
Ġch ul
ĠM arch
Ġir an
Ġsc i
Ġsarv is
Ġmhan ale
Ġvin od
Ġclai med
Ġpadd hat
Ġhao ya
Ġdeg ree
Ġtaaliàµ½ ninnu
A fter
l ive
Ġpra yas
Ġcha y
Ġst ory
Ġsh ur
Ġshak ato
Ġsp okes
pr il
Ġsarkaar ne
Ġsank alan
Ġhon ge
Ġsik hia
Ġmajbo ot
k ama
l ess
ik ul
Ġch hel
Ġw est
Ġy on
Ġte ach
ara at
Ġkal pana
Ġchar ch
Ġprati pak
Ġpost ed
Ġden ya
Ġjag an
Ġmaj he
abad h
Ġvak hat
Ġpu ura
Ġinc ident
Ġalai hi
s ia
Ġv ajan
it ive
Ġl ap
Ġr ana
Ġo li
Ġin ca
Ġto get
und er
Ġat utt
Ġba hir
ĠM in
Ġpur ana
Ġz ime
Ġall ahar
Ġhaj ar
ts av
Ġanu yay
muk hi
Ġsabai bhanda
cur ich
Ġprart hana
engi àµ½
7 7
r el
w in
Ġp hay
hi b
Ġj ato
Ġan il
ay ee
ap ani
Ġma hal
Ġpa hi
os p
sa ad
ary ant
Ġmal ik
mo di
Ġavastha ama
g ency
p ed
x patt
Ġs odh
Ġm aga
it ale
Ġpar eka
Ġho u
Ġand uku
Ġsan j
Ġbhan d
Ġmul ak
Ġje et
Ġsur g
Ġkap hi
Ġsaa ch
Ġball en
Ġear lier
Ġrele ased
Ġsomet hing
r k
w ak
Ġs kool
Ġh undaa
Ġam pi
Ġchal an
Ġvish yak
Ġhar yana
Ġtra d
Ġlakh s
Ġmod ati
ĠUn iversity
Ġekad am
Ġcinem alo
Ġblo ck
Ġmanon yan
Ġmint us
Ġtoget her
p ark
Ġk ute
Ġn andi
han ya
Ġch el
Ġsam man
Ġne us
Ġdi eka
Ġte ma
ug ul
Ġhas ina
Ġme g
Ġ4 9
Ġud gha
ĠD r
Ġkan ti
ĠE x
Ġmag h
Ġmaam ala
Ġath wa
chand ra
Ġmattum e
Ġvek ho
Ġaaw aaj
b ind
c ame
g una
Ġp am
Ġa kaal
Ġv inn
it es
Ġan im
ver t
Ġsall allahu
Ġbatoun ubhayo
v ata
ad un
ab ot
Ġpra har
Ġst adi
Ġya ara
Ġsar ir
Ġsang ati
Ġcon c
pur v
Ġji ar
ctor s
Ġtho un
Ġnil ai
Ġghet la
Ġ207 4
Ġpadaar th
i als
j ak
k av
u y
Ġa akh
Ġm agar
es hik
Ġan o
Ġbas s
Ġmal she
Ġed u
yaa hi
Ġbi har
Ġsamband hinchin
Ġplas tic
ch ir
ho de
ap al
up er
Ġho tan
Ġup per
Ġtha ha
Ġbal ki
mat o
umb odhu
Ġann ik
Ġbij i
Ġlaga ani
fe ct
Ġgri h
avai a
Ġshetak ari
Ġbatam ya
f ee
Ġn aari
it il
us ha
Ġf rance
Ġst ay
Ġis se
Ġon du
Ġsak adia
Ġag ami
Ġban av
sa at
Ġmuj ab
Ġsaman ya
Ġcho ti
Ġoffic er
Ġglo bal
w ami
an m
ed ar
Ġf ig
Ġna e
ale e
op at
Ġvid hn
ini og
ĠI t
Ġkaran m
ene f
Ġz ar
Ġdiv ase
Ġdu h
Ġkit ia
incha du
cc ess
Ġparist hit
Ġvira at
ulat ho
Ġhtt p
Ġanter rashtri
Ġvaataa varan
Ġd ast
Ġd one
Ġj aj
Ġg ayu
Ġg etting
van s
Ġmar ud
Ġ4 6
itt und
Ġaar akshan
apa as
rid ge
Ġgin ti
r ana
ar ma
Ġs ru
Ġg att
es a
ud o
Ġas ia
Ġva haan
yas hi
Ġak raman
Ġmu hammad
min al
Ġshat ab
ĠFe bruary
am la
it in
is l
Ġch um
av ak
Ġgar d
Ġpa e
Ġbhar ata
Ġvi ol
Ġaar amb
aap ne
Ġacc used
Ġkod ukk
Ġsandar bhanga
jad on
Ġmutab ik
Ġtaya ar
w am
Ġn en
Ġv ab
ad as
Ġr im
Ġy esterday
Ġba ani
Ġjan ar
Ġun ar
Ġmo usam
are eki
pan ch
Ġviv aah
Ġer andu
Ġsaa hit
d ham
k y
t ame
am ra
Ġb ans
er v
Ġc op
uk rav
int t
Ġ8 8
Ġsub e
Ġeng lish
Ġdekh ne
Ġswar oop
ar as
Ġk asht
Ġv ap
it he
Ġc ant
aar ma
ill er
Ġap n
Ġsha am
ub a
Ġjaa o
Ġsp ent
Ġsur vey
Ġ14 25
Ġdas hak
Ġkhel ma
Ġnak shat
Ġadhyak sha
Ġirund atu
h ta
n ako
Ġc li
ant hi
Ġh ug
Ġst or
yan saathi
man o
ĠA ll
àµ» s
Ġmot hya
Ġcar yakram
Ġbol e
Ġlab hik
ction s
Ġbani a
Ġinc re
Ġaand olan
k ach
m ug
Ġt ura
am as
il ed
Ġch itt
Ġr ani
ic haa
ma ch
Ġsam a
Ġhe ld
Ġho la
Ġar a
uj he
Ġnir mat
pp ed
Ġvis ar
ira ight
Ġcr od
Ġend al
Ġsamsk ruti
Ġmelv avaa
How ever
at le
he ra
ak àµ¾
Ġha ate
Ġr us
ab u
cha d
ell i
Ġak hya
Ġcl ose
Ġund e
Ġdesh ma
mar g
si an
Ġsans aar
Ġth reat
Ġroj anta
Ġvig yaan
Ġpich he
Ġvel ai
Ġriv yul
0 1
j ela
z aa
Ġb ok
Ġd hr
is hed
ur ing
Ġche yada
Ġba her
li àµ½
Ġrahe gaa
Ġband a
Ġtr ying
201 5
Ġtur ant
Ġmans ir
ĠCo urt
Ġsamaad haan
Ġgath bandhan
9 5
k ara
Ġc el
ang ana
up h
Ġhe lic
Ġar u
Ġis i
Ġis kaa
Ġam mel
Ġpat ani
wa adi
Ġu cha
Ġchal chitr
Ġsu z
amp ai
Ġsm all
Ġkel an
jee e
Ġpya ar
Ġbil kul
ghan istan
Ġk elya
Ġp ave
Ġt ell
ya j
es ion
Ġc ir
Ġad it
Ġya anche
Ġat ithi
ash tr
Ġit yadi
Ġbhar poor
aya dhi
Ġkad al
het her
ww w
o ol
v aj
Ġp riya
Ġt alli
Ġd ue
en ni
ek ho
Ġpar vat
ma ine
om i
ne pali
im s
Ġba ishakh
wa h
ĠN ational
Ġrak hi
raj ya
p d
id ay
st and
ine ma
Ġda wit
Ġen ic
bha sha
Ġre por
yo ti
Ġ4 00
Ġdin er
Ġshak ta
Ġdhar mik
je ct
Ġsu ami
Ġmu fat
Ġ25 0
Ġcap i
Ġchak ra
Ġaas apaas
rip aya
b ank
w ana
Ġk uk
un er
Ġj avaan
Ġg ave
ur ved
Ġpar tic
Ġho y
Ġas le
Ġar est
Ġba ink
Ġre qu
Ġpad un
ĠC hel
Ġrup i
Ġham ile
Ġyaa ad
Ġ0 7
Ġmus al
Ġsarv occh
iver pool
Ġbare ma
Ġnirva hi
cti ve
4 2
l aai
Ġs iv
ak sha
Ġkar k
ap pati
Ġda ya
Ġun te
Ġsan maan
Ġmad hy
ĠA tt
Ġprati bed
Ġaak aar
Ġkaranya chi
kr isht
Ġanuyay i
j is
Ġs agar
Ġa antar
Ġan uvad
ag er
ve en
Ġya d
Ġen llum
she p
Ġsat mber
ĠF r
anj an
Ġabhi vr
Ġgra ahak
Ġich chin
Ġspe ed
Ġpond andi
d arshak
m ur
s ing
v ate
Ġs aav
Ġj ya
es haa
Ġne et
Ġbha ve
hu ra
hya s
Ġraj kiya
Ġsar va
ĠP a
Ġval an
band h
po st
ung ar
Ġaar u
Ġnas al
Ġshut ing
d et
m am
Ġk hi
Ġk ong
Ġm igaum
us ing
Ġen jo
op ter
Ġva ittu
itt atu
Ġsing le
has an
ava ani
hub ali
Ġkarn aar
Ġli er
nan ak
Ġaji ha
ĠQ u
Ġsecret ary
Ġvidhn ga
E R
d ani
Ġa bha
Ġm ump
Ġch ief
Ġf akir
Ġke em
Ġne eche
Ġgar h
Ġja ana
Ġrak hen
ĠL ab
ĠW illi
Ġvyak tam
Ġaad mi
Ġcele b
lya ala
Ġavak ash
b udh
d le
k ud
v un
Ġhe d
Ġsa adhan
Ġh rid
Ġst at
Ġav adhi
Ġlag ane
Ġ5 8
par am
Ġle ave
Ġtel ust
Ġaw las
Ġtum chya
Ġpratiyog ita
Ġsamoo h
Ġparib artan
7 8
a ata
p une
Ġj oshi
Ġf ur
Ġsam patti
Ġke j
Ġal aava
Ġsad hya
Ġsho pping
ĠG e
vad hikar
ung al
Ġdod erndu
Ġpayan bad
I N
a un
an and
Ġd eni
Ġg aa
Ġha z
Ġpra chaar
Ġst reet
Ġaap avama
shan t
Ġcon ta
Ġ4 1
Ġso und
Ġud v
alay alam
Ġish t
Ġmas jid
Ġsaam ag
Ġirukk u
Ġacc ount
Ġdab ee
ail y
Ġdub ai
Ġlen da
Ġgop al
Ġphon es
Ġseem aa
Ġvachch indi
Ġsever al
Ġcust om
Ġlokap riy
Ġvadhashik sh
b he
g ram
k ab
an lo
ar it
at ya
in et
al al
Ġm ira
Ġd hav
Ġd ance
is te
uv am
Ġbal te
Ġchal ache
Ġlik hat
Ġpul as
opp am
Ġsum mer
Ġaalo chan
Ġabhya s
Ġdurjet na
b aaj
g r
Ġk one
ak ya
il and
Ġch op
Ġan na
Ġr iti
Ġna atak
ent al
Ġni oga
Ġvir uddha
Ġshik har
fi eld
Ġpor an
ibi ai
I m
Ġg elya
har uma
Ġra di
id war
unn atu
Ġen ough
Ġgar ch
Ġal most
Ġ5 6
Ġmuk aab
ĠJ une
Ġex press
Ġdr ish
Ġgari b
Ġth ing
Ġcent ral
Ġseri ous
c ter
v ayan
y m
Ġn ede
ya st
is an
is se
Ġl iving
Ġha tan
Ġw hether
Ġf ad
yas a
Ġrak he
Ġta ak
Ġmil akar
app et
Ġth ings
Ġyog i
opp ed
Ġbir th
Ġkaree b
Ġmulaa qat
Ġpakist ani
Ġudgha atan
en ing
ik rut
Ġy ukt
Ġcom iti
wat va
Ġbr other
phpt it
Ġafis er
Ġanut uk
paris had
ĠChrist mas
g ri
ar ti
Ġa uthor
Ġha ji
ir ukk
ma han
ma ile
ck le
rit ik
iti ons
Ġbhan eko
Ġchan ce
if t
abha i
Ġsm iti
Ġaj it
Ġdec ision
Ġtri ed
Ġart hath
Ġdag gar
Ġs aria
he ro
en da
av il
Ġr hode
ir ya
Ġf all
Ġde ya
Ġne pat
ale en
ind ar
Ġmad hiri
van ya
Ġmat sar
shan i
ĠD e
ĠF riday
aav o
Ġsu ccess
Ġthak ate
Ġnij er
ps m
Ġsambhaav na
Ġpaahi je
Ġconc ern
S t
n nu
Ġsam bh
ta w
Ġte rak
Ġvar shako
Ġaap le
Ġaap nake
hil ai
Ġsab ek
ĠA ustralia
aag e
Ġchal i
Ġper i
Ġhat hi
Ġches uko
iri unnat
Ġbanglad eshi
Ġdeep ak
Ġril ies
Ġkish or
l at
Ġv am
Ġg ene
Ġr ij
Ġo cc
Ġin as
Ġsa has
Ġsa wai
Ġpr int
Ġy enn
hak t
Ġman am
var aj
Ġmar int
Ġlag aae
Ġtar f
Ġ5 1
vid ence
enc es
Ġpug eko
ubha eko
Ġpre vious
Ġvist rut
Ġreli es
ĠComm ons
Ġparchi ya
c ast
c ongress
Ġt ed
hi bar
Ġkar avaia
ap ore
Ġna z
Ġy atr
Ġjan er
Ġpat al
Ġre main
Ġmat u
Ġnat wat
Ġmul a
Ġhim self
Ġstr ot
Ġsk in
Ġkarata ana
ustr alian
Ġanpat s
6 6
c ity
k art
n ad
n ic
Ġm ap
Ġn okk
il et
Ġl ee
Ġc up
Ġaap anaa
Ġnir v
ĠM a
Ġjar urat
prat ham
Ġrom an
Ġupal abadh
Ġaccess time
S C
v oru
an ir
Ġp udde
Ġl iga
um o
Ġsa udi
Ġy uddha
Ġman it
Ġav asan
pra sad
Ġgo bind
Ġfar m
Ġsanst h
Ġrel ation
Ġbelie ved
Ġsaans ad
Ġisl iye
d y
w adi
Ġp ete
Ġv eli
ak ram
Ġl aj
Ġhe s
Ġdi j
Ġbad hu
ĠM or
Ġsab and
Ġsak ale
Ġu haanle
Ġvya st
Ġham ala
Ġvik ram
Ġ8 5
Ġil anga
Ġmag hani
wad hin
Ġnirva hin
Ġnig am
Ġshresh th
h ri
l akh
Ġt ib
Ġn ars
ik er
Ġpar av
unn a
Ġek hano
Ġat il
Ġsha hra
ham p
ĠA pril
Ġme ating
ĠP olice
rib ution
fer ence
Ġshresh t
l oki
m ot
ch ennai
Ġm ight
er gy
Ġan to
le el
Ġko un
hik i
att ile
art ha
Ġi bb
Ġpat ak
Ġbad haa
Ġtak ke
Ġtat kal
Ġdes pite
Ġsthan ma
incha bad
Ġsanvat sar
Ġgerman y
P olice
b ig
e es
j or
Ġk up
Ġt ane
Ġm ab
ach and
bha va
Ġi hnas
van lo
Ġ5 2
Ġdo ing
Ġjaa hir
Ġmod al
Ġpaa e
iss ion
Ġsant osh
Ġthir d
d haka
t as
ar ai
Ġs astar
Ġp on
Ġkar ma
ul an
uk undi
Ġdi p
Ġat mahatya
ara am
ib b
Ġle ast
Ġaad hi
Ġund u
qu i
Ġann oun
Ġsim ran
Ġtad ant
Ġpand it
enti al
k hal
y ath
Ġs ett
Ġt are
Ġt we
Ġa udio
Ġd ari
Ġn ash
Ġj ip
Ġan yat
har s
Ġw anti
Ġpar n
unn ing
ok o
rit sar
oj ak
Ġkal aj
Ġle g
Ġco ach
Ġmas hin
Ġparik shar
Ġkaaryak art
Ġten o
Ġchunt ni
Ġshubhe chha
4 3
ar m
Ġt iger
un ia
av am
ay ull
Ġf em
Ġsa ada
Ġna u
re w
Ġte maj
Ġman u
Ġba hi
Ġvar ukintu
Ġbe came
ro j
ull du
ep ani
Ġlok oney
Ġgur ubani
ĠE d
Ġsank alp
Ġsaha yog
Ġdon ald
Ġaam chya
Ġkit he
Ġsir uph
Ġsil hat
Ġaik ya
Ġprapan ch
Ġipp ol
ĠPre mi
c ra
g est
l elya
Ġp ingu
Ġn aar
Ġn ashi
it ill
Ġc art
ut s
id ents
Ġsa ham
Ġse ctor
Ġpat han
Ġsw e
Ġsw ikar
Ġdhar shan
Ġpram ane
Ġwar iki
Ġaaf u
Ġsamag ri
Ġmor cha
ĠPunjab i
Ġzind gi
Ġvishyan lo
c or
n amm
v itt
ar ar
Ġn ur
Ġj ude
aa hi
Ġna ani
Ġya ch
Ġpo ol
ĠN orth
Ġchar it
Ġroj ul
ishi sht
Ġket lak
Ġavasar am
Ġdoll ars
Ġpress ure
Ġnoti fic
Ġvishwagi anko
Ġdescrib ed
an um
Ġt antra
Ġb hr
Ġb hed
ad ya
Ġg yaan
es av
Ġan ud
Ġkar chen
Ġr in
ir ek
ang ai
Ġsam iksha
var y
Ġit naa
ck e
Ġcom es
Ġband e
Ġvad ha
aav avaa
Ġhat yar
ft aar
ens ive
Ġplay er
Ġgha ite
ansa athi
s id
t ing
w A
Ġb aap
as ana
ik ram
Ġch ow
Ġan uman
Ġan ukul
ed nes
Ġf ran
Ġna yaa
Ġse hi
Ġas ad
Ġst re
Ġgar aj
Ġbe gan
Ġit tar
Ġbhar an
ĠS o
ba ad
Ġshan i
Ġcont inu
Ġich ch
uvat um
Ġstud ent
n iti
v ara
w ing
Ġk ing
Ġp og
ad aar
as oon
ik unnu
av aar
Ġr ub
Ġr anga
ic i
Ġof is
Ġhi g
Ġup i
uj j
ĠC an
Ġpol u
itt ing
Ġdek hen
Ġud hd
ĠD aily
bo ur
Ġtis uko
Ġpor ul
antha puram
e ma
k unn
p en
s kar
Ġb apar
ai ye
Ġw ap
Ġhe tu
Ġas we
Ġut pann
th r
oj i
Ġval el
Ġdar sha
ĠW ar
ide vi
Ġkon sag
Ġres ult
Ġsid dh
Ġart ha
Ġbhu g
tem ane
Ġchhat ra
Ġchur ch
ednes day
Ġd ani
Ġc ort
Ġan chal
ach iv
Ġka ushal
Ġsad e
Ġ6 4
Ġpas hu
Ġsun il
Ġavar ute
Ġsaat hai
Ġnij ee
Ġjaag aa
Ġnib andhan
Ġk ham
at est
Ġb ata
hi sht
ik sh
ti es
Ġma hak
Ġpr ison
ee ch
uj i
ĠS e
ĠS m
Ġir unth
Ġthi m
Ġrup ia
Ġgun jam
Ġbhag wan
Ġjag ya
Ġins ide
Ġdekhi eko
Ġsahak ari
Ġterak ekk
L L
k ol
s and
v ave
an or
Ġk itt
Ġk udi
at ta
Ġa hil
it ak
Ġl udhiana
Ġch ust
Ġsang heey
Ġshe she
ukk ak
Ġgo vind
Ġband hu
enn is
Ġbar abar
Ġwa higuru
Ġdha ma
Ġexp eri
yoj ak
Ġudhd haar
7 6
b ib
v ast
Ġj ul
Ġl alit
ik ta
Ġf ari
Ġe vidence
ish war
Ġen jhar
end s
ga on
pra kas
Ġkaar ya
Ġso cial
Ġprak ara
Ġshar t
Ġno bel
uri es
Ġum r
Ġbh uk
Ġacha anak
Ġadm itted
Ġfis adi
k uch
o z
in ing
Ġc ader
ud on
Ġde var
Ġbha ar
Ġad min
Ġaap lyaala
Ġre ach
Ġcon v
Ġir uk
Ġlek unda
Ġex pl
Ġnot t
Ġim eil
Ġdas ham
Ġsal man
C om
l aksh
p ate
Ġp ana
Ġp aye
Ġt un
Ġb ark
it am
esh nal
Ġman uk
var un
Ġpat ti
Ġpo i
Ġak ha
Ġta hat
ĠR s
pad ak
Ġgai a
aga at
Ġhay etten
dd al
Ġkhat am
Ġplay ed
Ġnish chit
Ġjast o
Ġpant apradhan
Ġbri haspatibar
P ost
m ule
u a
Ġk haa
Ġt ama
Ġb aari
Ġg hus
Ġl ut
ag ari
Ġma as
iv ari
Ġna ho
unn ad
var dhan
Ġsw apn
ba ck
Ġbal le
Ġkare a
ly mp
Ġle vel
Ġmet re
Ġnab heko
utunn ai
Ġjaave gi
Ġbhoom i
Ġmum ba
Ġjim me
Ġtamiln adu
7 1
I D
b ama
t ara
t asech
in us
es il
and atu
Ġho kar
hak e
Ġe ch
ip an
Ġbe at
Ġkal av
Ġgal p
Ġlik haa
Ġras ul
dha ti
Ġsom bar
Ġavash ya
d hun
ak on
Ġl oni
Ġkar vi
Ġo chi
ant til
Ġsa chin
Ġas w
Ġpa hal
Ġve et
Ġprak rut
Ġtal am
Ġsand hya
Ġkshe t
Ġkhel adi
Ġkis ans
àµ¼t ti
Ġnek apa
Ġhelic opter
L e
t ad
Ġa alya
us ne
Ġpar im
ol k
Ġte vi
Ġar un
ip ai
Ġba andh
ura s
ĠM rs
pp att
ikal k
Ġsup p
Ġkap ad
inte yu
Ġev o
Ġlaksh mi
Ġbh ram
Ġtri p
Ġjis amen
Ġpu ure
Ġpay ar
Ġsamar pit
Ġprag ati
Ġchann el
b ali
y p
Ġs wa
Ġkar aa
av ing
Ġma hav
ma z
Ġse it
Ġda hal
Ġis ra
yam p
se a
ĠR ep
ĠW ednesday
Ġem al
Ġenn at
Ġport al
Ġdup ur
f ull
k ali
an ne
Ġp h
Ġp he
ra ge
Ġj itt
Ġkar avi
Ġpar anera
ish u
ok ar
ĠS am
Ġsar dar
Ġcom i
Ġham eshaa
Ġga zal
Ġpal u
Ġje ma
port s
Ġsand hi
201 4
Ġes av
Ġpro vid
Ġvidy arthi
ppet utti
Ġshu ukrav
Ġprabhut va
Ġaji he
Ġmauj u
Ġmom ent
4 1
n ow
ch h
av ara
ang am
ri ch
Ġpr en
Ġdi ffic
Ġbha wan
vi es
ĠT e
Ġni bha
Ġno ol
Ġdr iving
Ġgal baat
yad hik
Ġmas ik
Ġthik aani
ppet utt
Ġsafal ta
Ġoffic ials
Ġsahay ata
Ġkarmak art
Ġrajin ama
b l
b ars
Ġs qu
Ġs mo
at m
Ġp hen
Ġt wa
Ġv ol
is hal
Ġc ars
av es
Ġr isk
ap atra
Ġpar iman
und ar
Ġon ce
Ġja in
Ġsha v
ĠA lex
Ġhas al
Ġbhan dar
Ġcon st
Ġta alika
ĠH D
Ġprav ak
Ġay ite
Ġmilit ary
p reet
an ako
ar ute
at ive
Ġv ato
it sa
en ru
Ġch u
Ġw hy
Ġto wn
Ġse ra
Ġbha y
Ġbha asha
og e
Ġad hir
ast ra
Ġka hana
ĠS ec
Ġmad he
pp ett
yam ay
uch it
ver u
Ġrak hane
Ġdek hil
Ġbo ti
Ġnet al
Ġpart ner
vas i
Ġniy antr
Ġum er
Ġsamp att
Ġbana ya
Ġinvestig ation
I T
ik am
ik es
Ġsa it
Ġbhan g
Ġle ader
Ġik kad
Ġbol lywood
Ġthak ur
kaar y
Ġgun a
Ġru chi
Ġaaf na
Ġshab da
Ġturn ed
Ġvidhe yak
Ġsru vaat
Ġvishwagianko sh
f o
t ed
v esh
Ġsam or
ast hal
va adi
Ġva ani
man u
Ġkal vi
Ġnam ed
Ġham aari
Ġvir uddh
Ġpl ann
Ġed ud
201 1
Ġres taur
Ġnis hed
Ġtyaan che
Ġjis ase
Ġsamag r
Ġspokes man
E O
ar um
Ġm iku
Ġm urai
Ġj ani
us ang
ang il
sh uk
Ġad ur
Ġya wa
Ġpat ha
Ġpad aa
Ġraj asav
Ġdo or
ep y
Ġvad hi
Ġfo i
Ġgai r
Ġex t
Ġbhag waan
Ġgad ee
Ġpare ekshan
Ġmangal bar
Ġanur odh
T V
l ip
l lo
p hot
r op
Ġp int
Ġp eeche
Ġt ub
Ġg hani
ik r
Ġw adhu
Ġf ak
ab uk
ast o
Ġbhar tee
Ġal o
Ġpo och
ĠB ritain
Ġvish va
Ġjaa un
Ġtya at
Ġapara hn
ayadhi sh
6 9
H er
c us
g en
Ġk eral
Ġk esiar
Ġg opp
Ġkar taat
har o
Ġpra adhik
Ġar iv
Ġen etu
Ġjan ote
Ġnir bhar
Ġsak i
Ġ5 4
hr ul
Ġprak ruti
Ġex per
Ġtal ab
urt her
Ġfl ight
Ġkhul a
Ġing e
Ġsil ver
Ġtik aa
pas oon
Ġparay unnat
ĠPremi er
r t
al le
Ġb angl
ai a
Ġan j
har er
us a
Ġf ark
Ġpa atr
Ġis s
Ġsha yar
rit a
Ġag avai
Ġme yar
ĠP ro
Ġkat han
sam aj
Ġ0 5
Ġ200 5
Ġaak arshak
Ġvart maan
Ġtri al
Ġpav itra
Ġmug ha
Ġghet li
ĠPr ice
Ġvishwavidy alaya
7 4
E W
k hi
w ell
Ġ ere
al and
Ġt hr
ch aran
Ġa in
Ġm ol
Ġn ell
Ġv agar
or ge
Ġha amla
ap et
var ti
Ġsha adi
Ġnat ab
Ġdo cum
Ġchar ges
udi il
Ġdas ha
Ġtaar ikh
Ġjet h
Ġbina as
Ġjanie ven
Ġjy ot
Ġsurg ery
Ġsaamag ree
l s
Ġp aane
Ġn ivar
Ġg ala
Ġr os
Ġpar in
Ġpar ig
Ġche yad
Ġor ig
ala yaka
Ġbe had
Ġva ast
Ġsab ar
she d
Ġdo ub
Ġrak haa
itt al
Ġdek han
ĠL iverpool
Ġtr y
Ġsamay m
Ġshi vas
Ġvic t
Ġsant o
Ġreport s
Ġacc ident
Ġfi eld
ĠGo ogle
Ġsweek aar
Ġhawai i
Ġsalaa h
ha ara
at on
Ġd inde
ak unda
Ġc ivil
Ġpar d
Ġdi an
Ġas soci
Ġcha it
Ġof ten
hin chi
Ġlag aat
Ġsw atah
Ġkha ti
pra y
Ġpur o
Ġshar ad
me raa
Ġtr op
gi um
hav in
Ġnag ari
Ġmik achch
Ġchi z
Ġperson al
Ġpriv ate
Ġinvol ved
m alai
s att
ha ali
ch ani
Ġv ine
Ġv iti
Ġl ives
Ġha ai
ek har
Ġra ho
Ġpar athi
Ġko ot
im b
Ġhi sa
Ġya an
Ġgar den
ala ck
Ġun galuku
Ġam ong
ars hit
Ġvik sit
Ġac id
Ġgan at
Ġvishw er
Ġparis hil
Ġniv edan
Ġkol kata
Ġprast uti
Ġstud ents
Ġjaae gi
Ġbud get
Ġchaudh uri
Ġsarva adhik
a u
l us
ar asht
at ir
Ġt ij
ak ki
or ia
Ġan ok
ur il
Ġkar vu
et o
Ġra f
ud am
Ġho pe
om an
Ġprat yaksh
ĠP ort
Ġrahe te
Ġsp ort
Ġac ount
Ġaad al
Ġtan atu
mi an
Ġfe at
Ġnira patta
Ġhunda in
Ġstate ment
Ġphot os
Ġappe ared
Ġtutang ia
Ġhist ory
Ġbhrasht achar
L ab
f an
i er
y la
Ġj ile
han ik
Ġw hili
re j
Ġst ra
Ġja wal
Ġpad ashe
ĠM il
Ġmar atha
Ġprat y
Ġhan s
Ġmil ia
Ġga urav
Ġkur itu
Ġlad aai
Ġsub ah
vik ip
Ġvidyart his
Ġkui anda
ĠOn line
Ġtain un
j ament
Ġb ritain
Ġb enef
Ġg ela
Ġch ira
Ġr en
Ġr aman
ag in
Ġpra karan
Ġek at
Ġya ho
Ġtir uman
Ġbho g
Ġnepal ale
Ġphay da
r uk
v aari
w i
y ik
Ġp ik
Ġp ote
Ġt es
Ġa ate
Ġa him
aa yak
il t
han gu
Ġkar al
av unn
Ġo unda
ma ins
hal ai
Ġbe hatar
Ġut krisht
ĠC reat
ĠA M
ull i
Ġdo os
Ġban aaya
ayan ti
ras ad
Ġghat e
Ġkad and
Ġapp ro
t ap
an et
Ġs op
Ġm rut
Ġb hatt
ra ha
as ab
Ġj uni
Ġch ip
Ġch una
ur ya
Ġkar chi
Ġr ing
up ad
ri me
Ġap pat
Ġjan ap
se x
Ġprak hya
iya g
Ġcl in
Ġfe es
chch en
Ġpict ure
pre m
Ġinde p
Ġwanti a
Ġlagaat aar
8 8
p rit
Ġa uto
Ġd ise
Ġl eni
Ġbha ari
Ġas oj
ok en
esh th
Ġjan ak
Ġsha shan
Ġvid h
ĠC har
Ġ6 3
Ġpl ant
eng er
Ġim age
Ġbaj aarma
Ġhind us
Ġakk d
Ġbandha ppet
Ġpraband h
Ġsarvas watva
Ġupst hith
ar na
is lam
Ġg r
Ġra hata
Ġy ang
Ġy ani
Ġya var
Ġjan mad
Ġpad ev
Ġmo ul
Ġmad d
pra pth
Ġchal ate
vad aniki
Ġghat naa
Ġ9 5
Ġtra vel
Ġsans krit
Ġang reji
Ġches tu
Ġsc ore
Ġsc ene
Ġvak t
Ġmukhyam antr
Ġfais le
Ġshast ra
Ġelect ron
Ġnivaden uk
S I
w ants
an en
Ġm ura
Ġb ete
Ġch anga
Ġw rit
Ġsa hakar
ali m
Ġek s
Ġba chaa
em e
uv in
ĠA d
Ġdhar ati
Ġchar ged
Ġvad il
Ġfa ctor
Ġpolice ulu
asa heb
land s
Ġpen da
Ġjat he
Ġsent u
jiv an
Ġvie w
Ġdhanya bad
Ġahe ad
Ġkartr uk
Ġhira de
0 9
7 9
j ot
Ġp ushti
Ġd ars
Ġv ers
Ġg und
Ġl ate
ut ra
Ġw alia
ab ho
ma chal
Ġya chi
Ġat in
Ġaap ane
Ġwas te
Ġpo ore
Ġpart hu
Ġdes han
Ġvyav haar
ori al
Ġtas avir
Ġkak unda
Ġcons ider
Ġproper ty
s day
y anga
Ġs oun
Ġk ett
Ġv ekh
Ġch ell
ut àµ½
Ġkar ni
Ġkar wa
Ġw on
Ġte a
Ġsak ine
Ġkha anaa
Ġem plo
Ġkaha ani
Ġter ror
Ġbaat en
ating u
asu chi
Ġcond ition
apas oon
Ġhapp y
Ġnoti ce
Ġgurut v
Ġfut ure
a ct
n du
s um
ak ap
ur ti
av ira
Ġr if
Ġpar iy
Ġe ur
od ay
ip po
iy ama
Ġka il
Ġis amen
ĠT hur
Ġsw ap
Ġ6 1
bad dh
Ġdr ut
Ġvide os
Ġmaj hi
ĠV ie
Ġthir u
Ġkond ar
Ġmur ti
icha el
Ġbon us
Ġila ake
Ġtheriv itt
Ġsrin ivas
U n
p hal
an ani
ha ala
Ġs hit
Ġt il
it chu
Ġc iti
ek aar
Ġo x
Ġpar ann
ang at
Ġpra pth
Ġin a
hak al
Ġar d
Ġmat ap
int on
Ġaad ar
Ġdiv ashi
201 2
Ġnil iil
pl ay
ĠTel ug
Ġaadhaar it
Ġsampra day
Ġdv itiya
A P
P L
S hare
e g
Ġa ve
Ġw al
ab hok
ag ave
ud ai
Ġo s
Ġna ch
ne ra
Ġpa al
Ġvid u
kar am
Ġmo od
Ġraj iv
ĠA rs
Ġsho k
Ġcar ry
Ġ0 1
Ġcr oss
Ġinter view
Ġcomp lex
Ġgho shit
Ġniv esh
Ġlad ki
Ġkahin a
Ġrece ived
Ġbalaat kaar
Ġparikal pana
j ib
s ura
v and
Ġk aid
Ġm ase
Ġb old
ad ekhi
on al
Ġj ata
ik ak
Ġma atra
ol o
Ġsam j
all am
yak de
ank al
Ġab u
Ġmad ak
Ġfor ced
Ġhis aab
Ġcl as
anj ee
Ġex am
Ġvan cha
Ġvishwa cap
Ġaz ad
Ġabhipra yas
waad ee
Ġhapp ened
Ġaushad hi
Ġtom ra
Ġpoo cha
Ġalleged ly
Ġkong ras
Ġperi od
j na
y ale
Ġan ga
id an
Ġne ya
Ġon ge
Ġam ane
Ġab ove
Ġlag an
ĠL a
Ġsp and
pr atin
Ġher n
Ġvad har
hn at
Ġlik ely
Ġmur uvatum
Ġash lil
Ġplay ing
Ġip pat
Ġyas ako
Ġyat ri
Ġreg ister
Ġpuch he
Ġaah van
Ġhoy ni
ĠCreat ive
D ekho
t one
am ader
Ġthe t
ot tar
Ġsa anj
Ġde va
st on
cha du
Ġman oj
ist ondi
Ġva chal
Ġtar ika
Ġkal an
Ġban ya
Ġjaa y
Ġdesh s
san ar
Ġbak t
Ġsav ere
Ġvast av
Ġcoun cil
Ġdaksh ina
Ġconf ir
Ġvishwavid yalyer
p es
Ġk hich
ch uk
Ġa chi
Ġv ati
is garh
Ġj ekar
es c
Ġch en
ir st
Ġf ed
Ġpra sar
Ġne igh
st h
Ġh und
Ġad harma
Ġpa ent
Ġam ara
Ġchha b
Ġprat isthan
Ġban eko
mad er
Ġkan un
Ġbas ne
Ġaad ya
Ġshik ar
po int
Ġtho ugh
Ġaj hai
Ġpich ley
Ġmanus hy
Ġbre aking
Ġproble m
Ġthoun ma
6 7
Ġs end
Ġp hire
Ġc utt
Ġc oll
ul s
Ġsa har
Ġy ut
aan ch
Ġbha ai
Ġbha utik
Ġman aa
are y
Ġvya ba
li ament
char ge
Ġkhar a
Ġtel iv
Ġ12 5
Ġyoj ane
Ġcomp et
res ident
Ġmadhyam tun
pram ukh
lis hed
Ġlar ge
ĠAtt ribution
g ati
Ġj ene
Ġg ana
ho m
uk aya
Ġf re
Ġf urther
Ġra pe
ag n
Ġpar it
Ġe qu
Ġcha uk
ee b
Ġda ure
ast rer
em o
Ġbad l
Ġsab it
Ġsw am
Ġadhik am
ĠH ome
Ġz akh
Ġkhar edi
Ġfa ct
Ġang u
Ġkur ich
Ġswar g
Ġchuk aa
Ġkast yle
Ġvalikitis har
Ġabhivr uddhi
r ata
ch um
har aa
ho or
Ġf av
ab ly
Ġpra adhan
ana at
Ġpa ak
Ġmo bil
Ġpo ti
Ġ5 7
àµ¼ kk
Ġlok tantr
aap as
Ġunn ar
201 3
ci es
Ġthir uv
Ġislam ic
Ġvimaan sthal
ĠThur sday
a o
i ar
v att
Ġa bhaav
it nd
is hay
Ġsam vaad
sh l
ne ws
aj it
Ġas atan
Ġand ine
re ad
Ġte xt
Ġba h
Ġsan ra
var u
Ġpat ta
Ġfor ward
ĠT imes
Ġbhan n
Ġco ff
Ġnet e
Ġaad hyat
Ġex pected
kal am
Ġdil ip
Ġpot u
Ġmu him
ict ed
Ġanum aan
Ġgirl s
Ġpatra kar
tho ugh
Ġtreat ment
Ġbudd hak
Ġsamjha uta
Ġmahe ene
Ġnepat hyalo
Ġdian lod
h da
n on
s ara
at he
Ġa ham
Ġb urn
he st
es haan
Ġch angi
Ġan uk
Ġan sh
har m
um ill
Ġin iti
Ġsa ho
Ġse ite
cha un
Ġvar unn
op s
Ġi e
Ġav aidh
Ġtha ckle
shan a
ĠL icense
Ġac tiv
Ġvyak ta
Ġtya achi
Ġaw khan
Ġpas chim
Ġ200 4
Ġum idwar
Ġjal andhar
Ġuch ith
Ġparam eshwar
Ġmoon h
Ġstadi um
A B
b are
k is
p ok
s hatt
v ideo
Ġs avar
Ġp ata
ul ts
ag ra
od hum
Ġst age
hil am
ĠM an
Ġcom ing
Ġkal ik
Ġban avi
ba hi
pur vak
Ġpe edit
Ġvyak hyal
Ġang an
Ġvim an
Ġaal elya
Ġsahak aar
Ġresp ons
Ġzaro ori
Ġrug n
Ġdiffic ult
A d
b dh
l ar
s es
Ġs mar
Ġs eta
Ġa alan
Ġm ich
ak ai
Ġl y
Ġkar w
Ġo il
Ġpra shna
sh ma
Ġsa wari
Ġand ubat
Ġba hin
ash mir
hut a
Ġmil taa
Ġac tion
Ġga ur
umb h
Ġsi hat
asa hit
Ġiv er
Ġdec ided
Ġca used
Ġtyas ako
aram bha
Al ike
Ġwr ong
Ġblo od
Ġcurr ently
Ġtakhav al
Ġmaaj ha
bang la
T hat
i x
p hic
t ako
an ic
Ġs art
Ġb aran
Ġn ina
ma ya
Ġse vak
ne e
Ġac cept
Ġmaa hit
Ġdesh bhar
Ġsur e
Ġter mp
Ġkhat m
Ġbra zil
Ġaan akhi
Ġkhal sa
Ġpri y
Ġpop ular
kaary kram
Share Alike
ĠAttribution ShareAlike
0 8
A x
b id
ra ku
Ġv o
Ġl adi
ik on
ek al
and hra
Ġas i
Ġpa un
Ġsh w
ow s
ĠB r
Ġ5 3
pra bhu
Ġdis covered
Ġni o
Ġmot t
Ġlab hyam
Ġrasht r
Ġmark in
mail com
Ġven kat
Ġlook ed
Ġkaan oon
Ġvyavsaay ik
ĠChr is
Ġisl ami
Ġsuffer ed
ĠPrice Dekho
p ha
w el
ha g
Ġs le
ai ch
Ġan edi
Ġr antu
Ġf eri
ari an
Ġst an
ig e
ash ya
da u
yan na
had ar
Ġvish nu
pur n
Ġir uvar
kal in
Ġdon hi
Ġparis hodhan
Ġay ushya
Ġmak an
Ġvat akk
Ġvyavas ay
Ġnatatti a
Ġvidhy arthi
Ġchoudhar y
Ġpariy oj
d ak
f ort
av ata
Ġin ti
ach it
ip er
Ġya sta
Ġgar m
Ġaap as
her n
Ġchha on
Ġmad hes
ĠP rin
Ġvis hisht
Ġnahi i
Ġkut ti
Ġqu ick
Ġrec ent
Ġair port
Ġrok an
Ġother s
upat ri
hall um
Ġprar ambh
k ala
p m
al ing
Ġt iya
Ġt yanchi
Ġd ed
ra sh
Ġn akk
ya hi
Ġg er
Ġan sha
Ġh uman
Ġbha ya
ali for
ali ger
Ġek ach
Ġgar bha
Ġam davad
Ġav ite
Ġmar fat
nu hunch
Ġshar m
Ġvit amin
Ġgra ptar
Ġcomm it
Ġmet ro
Ġswar aj
Ġchey andi
Ġcheiy unnat
uvan anthapuram
Ġmiss ing
Ġmudd e
Ġshukra bar
a hile
v aid
y ed
z ine
al is
Ġt var
ch ed
Ġb ath
as hal
Ġar jan
ip at
ind ena
Ġsh wadhin
Ġkare gi
Ġshak h
uri il
Ġmari a
Ġ0 8
Ġjill amaa
Ġach en
Ġaat mahatya
Ġson n
Ġchepp in
Ġled ni
Ġhind ust
Ġpratis par
Ġdharm ic
Ġinst itute
Ġbhat ta
Ġpoint s
ĠAm erican
Ġnaàµ½ k
Ġgira ftaar
haas ik
Post ed
b ani
c tic
n el
r ath
Ġk ed
Ġk oni
Ġk new
Ġt end
Ġa aye
Ġm yan
as al
Ġra vi
Ġma ja
ot er
Ġho mes
sha st
Ġsan y
ess or
she khar
Ġhun chan
Ġshak at
Ġadhik ansh
Ġ6 9
Ġ6 00
mad hya
Ġkan ik
Ġ7 8
Ġsamay am
Ġpram aan
Ġtamil k
Ġmid dle
Ġbanaa e
Ġvell ri
vaa chit
Ġbart aman
Ġsuz av
ĠChel sea
EW S
q i
Ġk und
at l
Ġa ud
Ġa ana
it baar
er am
Ġw et
Ġf ly
Ġma watt
Ġpr arambha
im ay
Ġva ish
Ġmo ved
lo ck
she k
pra d
Ġso or
Ġaad ha
avar un
Ġviv ad
angal uku
Ġshan ibar
Ġinter v
Ġter dal
Ġmun h
Ġabhin andan
Ġavasar maa
Ġbhad on
ukun te
Ġsanrak shan
Ġpravas i
Ġvishl eshan
Ġambed kar
5 7
p am
y A
Ġp ink
Ġd ic
Ġg yani
il ull
Ġl ow
uk in
Ġhe ch
Ġka um
Ġam areeki
Ġsan jha
Ġja atiya
Ġsar ot
Ġag di
ĠP hil
Ġshak ate
Ġrup ye
Ġband han
Ġkan ya
Ġ7 2
Ġmot o
pt anga
Ġim p
Ġgra hak
Ġnas k
Ġantar rashtriya
Ġanum odan
Ġnirdes an
Ġcurr ent
Ġkartr up
Ġvishv avid
cra ft
S o
r og
t hyo
y ya
Ġs une
Ġs ens
Ġp ande
Ġa ya
is es
Ġch ile
ap h
Ġpar yant
ic hal
ani ma
Ġsa chi
Ġcha mak
att al
Ġda am
Ġman ab
Ġpa ad
ile y
Ġhas san
Ġpur va
oun u
Ġtir ank
Ġbi haan
Ġches te
Ġthak ar
Ġnirvach ner
Ġdha war
Ġpro cess
chand igarh
con om
ĠEng lish
ujavaan as
Ġchitran lo
htt p
U N
g nan
p hy
s hata
Ġk ante
Ġv annu
Ġkar vo
Ġma alik
Ġpar kk
ate ch
Ġar my
Ġek da
Ġpa h
ig us
uv i
kar u
ber g
Ġwas nt
ond er
Ġban an
Ġud yam
Ġmil ane
Ġnot hing
Ġmud ra
Ġvach an
Ġer bad
Ġsus p
Ġchah unde
Ġmek hal
Ġgup ta
Ġcompani es
Ġkaaryakar ta
ujj aman
b is
b ur
d uk
k it
s hil
t ene
v ell
v illy
Ġk ivave
al av
ch ho
Ġm ind
Ġn on
Ġn orth
Ġg ru
Ġg rup
Ġl anti
ay er
el er
Ġma atha
ic ally
ant il
ot ha
Ġbha yan
end ari
Ġsak asham
ĠA s
Ġaav ela
Ġlak shaat
inn ing
Ġ9 9
Ġet hra
Ġsi asi
Ġgun t
Ġtu hari
Ġshri mati
Ġyat har
Ġexp la
alt hy
i eko
l ight
m aari
y il
Ġs ath
Ġd ash
ak hand
Ġc ast
av ish
Ġw all
Ġpra chin
Ġsa o
Ġsa un
Ġsa han
Ġche hre
cha le
Ġst ars
Ġat al
Ġsab andh
Ġus noo
Ġaav ata
Ġlak shal
Ġtr iv
Ġsay es
ree y
hed aar
Ġcr edit
Ġpaa ya
Ġmak al
Ġaam daar
Ġjal di
Ġkarm cha
hale el
Ġkend rit
Ġkir an
Ġkeval am
Ġutt ari
Ġkom al
rail ia
Ġsamr udh
Ġarog ya
Ġmaho tsav
ĠEurope an
b ara
t ama
v ag
Ġp ick
Ġp itt
Ġb odh
Ġd aar
es hak
Ġl itre
Ġc ash
Ġr ate
el vi
ir o
Ġra sh
ent at
Ġad esh
Ġun ivers
Ġbad heko
ham an
Ġut patti
ĠC hamp
Ġfor ce
Ġnat inchin
Ġso ur
Ġprak ritik
angal in
Ġkr ushi
Ġkhul e
Ġkaaryak ari
Ġkala at
Ġbin aa
bho ot
Ġsancha alak
Ġmish ra
Ġkaryan vayan
Ġloksab haa
jaya are
Ġtelust ondi
Ġgurutv apurna
m ujhe
p ett
Ġs aara
Ġb ap
Ġw allu
up ol
Ġsam ast
Ġe ma
re y
Ġad utta
Ġya war
va ani
ib aar
Ġraj endra
àµ¼ d
sa int
Ġud al
Ġsp eshal
ĠR es
Ġid enti
Ġach che
Ġmet er
Ġamb ani
Ġpant h
Ġpha guna
istr eshan
Ġupal bdh
Ġpratiyog it
Ġdarshakt vanlo
m eri
y ara
ch ing
ad ed
is u
is am
Ġkar nar
Ġkar avaano
ir unnat
and uku
Ġpr usht
Ġka ala
Ġjan un
ub bu
ĠS w
Ġsak en
Ġprat yak
aran ni
Ġu hi
Ġaf nai
Ġpun ah
Ġlaag at
Ġlaag yo
als i
Ġbar sh
Ġkhar aab
Ġjha alan
Ġmud iyadhu
Ġpaa une
Ġbach chan
Ġtut eni
Ġkak hano
Ġgen er
Ġpha unche
Ġchint aa
Ġshradd ha
d ana
p il
Ġ ia
Ġs ipi
at re
Ġa udyog
Ġv andi
Ġj udi
il ty
Ġl oss
Ġbha in
ank hya
Ġman yata
Ġvar m
Ġsan vaare
Ġja wan
Ġaap ava
uj an
Ġav aaz
ĠC on
Ġprad ar
Ġvis had
Ġir u
ĠD ay
ĠL atest
Ġle va
amb e
Ġbar ab
Ġmot haa
Ġches ukunn
Ġsun a
Ġpati pp
Ġsant ras
Ġnag ad
Ġsuch ana
Ġsach et
Ġreg ular
Ġol ile
Ġjih de
g il
ha va
Ġt ram
Ġn ujavaanas
ai re
ay en
Ġpar yan
ach in
Ġbha ashan
Ġgar epachhi
ind ani
kar m
yat ra
Ġrak shan
Ġrak hana
Ġper for
Ġdek ho
Ġshi va
ll du
Ġbl ag
Ġ0 3
Ġbhag anga
Ġtamil r
Ġdit am
Ġmadhyam ik
Ġing reji
Ġchik itsa
kha bar
Ġvisha yas
Ġuddesh y
Ġfel t
Ġhtt ps
Ġrajk eey
Ġdawit va
Ġtwe et
full y
S S
s up
an c
at ham
as ta
Ġj ib
Ġl amo
Ġch usi
Ġan ip
Ġw apas
Ġf iver
Ġpr ishth
Ġba yaan
iy ana
var sh
ĠS he
ĠM alayalam
Ġcom ent
Ġcom ity
Ġkal p
Ġag ie
Ġag ency
Ġ7 1
Ġaad alat
Ġund ani
Ġpl ane
Ġprati bha
bi en
19 8
Ġ200 3
Ġsahi ta
Ġcomp la
Ġjal d
Ġkarm asuchi
Ġmit r
Ġchhin an
Ġtyaan cha
Ġsaman vay
Ġpos hak
Ġavast han
lin es
Ġparist ate
mesh ur
taw ayan
9 1
b um
e z
l ato
s ikh
ha pur
am eric
Ġb oss
Ġd att
Ġl ash
Ġl ete
Ġha la
Ġr ol
ag ata
Ġpra bh
up ole
Ġho ia
Ġche yu
Ġsak aaratmak
Ġkat hal
ade v
Ġlaag ch
Ġghar i
Ġthek es
Ġfa c
Ġkon etya
Ġmag ron
Ġul ak
dar myaan
Ġsthan ik
Ġstr ugg
muk hyamantri
Ġkend ram
Ġshiv aji
Ġub hi
ganj e
Ġpag el
Ġic cha
Ġfes abuk
Ġvyavsaay ee
Ġsamu hik
Ġmauj ood
Ġduus ari
fas il
Ġ880 17
Ġochi w
O N
o vad
t ikar
v ip
w I
Ġs is
at ho
Ġt yamule
Ġb idd
Ġv ale
as ak
Ġj el
ut hak
ir man
and uk
Ġbha avana
ta il
ill s
Ġor o
Ġup d
hya at
van yaat
Ġlag atar
Ġkat chi
Ġsad han
Ġni ojak
Ġpl at
ĠO r
Ġjaan ava
Ġhat aa
esha ani
Ġpach han
Ġbhat tar
Ġbakh lakh
Ġtann aan
Ġkuf ipp
Ġsaydi gus
Ġhug e
6 2
R e
a ise
b ri
t ana
ar ayan
at yaahi
Ġa ati
Ġa akar
Ġd hul
Ġd ikh
ya han
Ġch utt
um m
ag ami
Ġpra gat
Ġne eti
Ġh ins
og an
Ġek aj
Ġad alat
Ġda h
op an
Ġon n
Ġsan chaar
Ġsan shay
Ġi j
Ġav atari
Ġus h
Ġak hi
Ġkare et
Ġdin am
Ġprak al
Ġsp ot
Ġband i
Ġgur t
Ġdr ive
shak a
Ġid am
Ġmaj aa
Ġmuj ib
Ġvarshan i
Ġpraka ashan
Ġbhit r
Ġtipp anee
Ġbhannu bhayo
b art
d hak
j ekar
v indra
y et
ar in
Ġs ibiai
Ġn ath
Ġn adu
Ġv ia
Ġch ess
ed ekhi
ap aryant
and ha
Ġf iv
Ġf ale
di g
st an
Ġap a
Ġam ai
ub ad
Ġpan el
Ġkha di
pan cha
yat hi
ĠB er
Ġaav ak
ira k
Ġnaal on
Ġle arn
Ġwor th
Ġbat aai
ras s
Ġjaan ate
Ġprati bad
Ġang ikar
Ġcent ra
Ġvach chi
Ġupyog i
Ġgri fat
Ġok ati
Ġbro ught
0 6
al elya
Ġv iya
it as
it tar
Ġg i
il am
ik et
us ar
Ġo m
esh tha
ia h
Ġup yukt
Ġpad dhati
Ġpan ya
Ġshi p
Ġnav al
Ġ0 9
Ġvit tiya
urn al
Ġbank ing
Ġsura j
Ġshil p
lag n
A L
N ow
r Y
Ġs or
as y
Ġch ett
Ġr ank
Ġma f
ant aran
ol ai
Ġun alai
end r
Ġraj i
Ġraj esh
Ġdar ja
Ġgo al
Ġcl os
ĠJ ames
Ġel anti
Ġvibha ger
Ġlik hi
Ġkhabar aan
tyas aile
Ġmatlad utu
Ġmano har
mahar ashtra
Ġbrah man
Ġparanj at
ĠLab our
0 4
i ma
n ish
t her
v alo
w andi
x x
ha ai
Ġs ava
Ġa yat
Ġd hun
Ġn g
ad hin
ai pur
av is
ay ang
Ġr id
Ġf adan
um ari
Ġsa zaa
Ġho vathi
esh ner
att le
Ġba hadur
Ġus ase
Ġvi ak
ĠF rance
akk unn
ĠNe pal
Ġtra ck
Ġbl ues
Ġthak are
Ġoff ice
Ġcap t
Ġvak up
Ġdh oni
Ġabhinay ta
Ġzaro or
Ġaiti haasik
usti ce
ĠCoun ty
Ġupaad hyaksh
v ich
Ġk ans
Ġt ant
ch ur
Ġn ara
Ġg hur
Ġl ic
ho use
ho ld
Ġsam ee
hy atil
Ġst hanian
Ġap lod
Ġun ited
art in
Ġsan yojak
Ġkal at
Ġpo und
Ġhas an
Ġbhan chan
Ġro ti
Ġle gal
Ġji ha
Ġkara wa
Ġpl ans
Ġchit ral
aay i
Ġtya ache
Ġnas ak
Ġgu ilty
Ġpari w
Ġaas aan
ĠSt reet
Ġsag on
Ġkary rat
Ġsel f
Ġther ind
Ġsira f
Ġstud y
ukunt unn
Ġbangab andhu
Ġbaan ki
Ġpolit ical
Ġtakk uv
Ġsaband hat
Ġmauju ud
7 2
j ama
k he
k ang
u it
Ġs co
al ama
Ġt enu
Ġm ini
Ġd aav
as urat
Ġr ik
Ġf ell
cha at
Ġar ti
Ġaap la
Ġbhan aai
utt uk
Ġmil es
Ġla e
Ġsuk hi
ustr ali
Ġshow ed
Ġparist hiti
Ġgamb heer
Ġseyya patt
Ġchara cha
Ġhunu hunch
e ar
p art
Ġ ivar
ar ek
Ġs hala
Ġa abhar
Ġb hinn
ak aar
ik ad
Ġkar ie
Ġkar ange
ay m
ir al
up jela
ta fasil
Ġvar shat
Ġsha path
Ġsha ayad
Ġmar upati
pra k
Ġaav el
Ġcon ference
Ġban ai
Ġnam ee
hay la
ĠG u
Ġpal gon
Ġdev ai
Ġapni a
Ġlik hit
Ġvas tawayan
Ġaas haa
Ġkach inera
Ġpri yanka
Ġweek end
Ġtik at
Ġpraman at
Ġchahi di
Ġranj it
Ġanub hut
w il
Ġk ida
Ġv aka
Ġan no
Ġkar tt
Ġkar por
Ġr ud
Ġpr inc
Ġbha shan
Ġas sa
att s
ank aa
Ġka at
Ġbe ach
ĠM ail
ka aleen
ell ig
Ġjo ine
Ġmuk he
Ġjaa ye
Ġro z
Ġ6 2
Ġkan ak
pe ctor
udh vaar
Ġnas he
Ġchaa he
Ġgarnu bhaeko
Ġlook s
ots av
Ġkhud ak
Ġpass port
Ġpin ne
Ġsamart hak
Ġnirdes hak
Ġvictim s
Ġaarog y
0 5
g ani
g ayat
j aa
k om
m und
z er
ha ya
Ġs ata
Ġs hata
Ġk yan
Ġp ate
Ġd ut
Ġn us
Ġv ark
Ġj ak
Ġf ee
ag s
Ġma ane
Ġsam aro
hal am
Ġy am
ama in
Ġgar irheko
ug i
da in
Ġpat ill
uv anti
Ġnir na
Ġnir yat
ĠM ost
Ġu ha
ĠD ep
Ġta h
Ġti i
Ġsafal ataa
Ġincl ude
Ġchah ta
Ġmash hoor
b hed
g ya
p ash
p her
Ġs one
Ġk ranti
Ġb ord
ra aj
Ġv iniog
ad es
Ġj hat
il able
Ġpr ice
Ġdi m
Ġas aar
Ġen ergy
Ġap ek
Ġchha d
Ġmat oru
Ġnat apati
bar obar
Ġdek har
Ġdin u
Ġbi hibar
Ġim ages
Ġpram uk
Ġpho ol
aksh in
Ġudd in
Ġpahil ya
Ġbach re
za adi
ghat na
Ġtest ro
Ġkali gi
Ġavark alin
Ġaalo ch
Lab els
A S
A ll
h te
j il
j ati
n ati
v et
an ma
Ġp han
Ġt ila
Ġm ist
Ġm ian
Ġd hil
un ako
Ġg h
Ġch hit
Ġc ann
ek aran
Ġkar yak
ay chi
Ġr ick
ap alika
Ġthe riya
Ġpar ich
Ġpra se
di es
Ġcha yan
Ġar m
Ġad ar
Ġman ai
bha at
Ġvar alar
Ġap ra
Ġit t
van o
ers hip
Ġ5 9
ase en
ard er
Ġbas ed
ashi on
Ġpet ali
Ġwork ed
Ġjast is
lek hak
vaan o
Ġste p
Ġmukti yod
Ġchhut i
ĠRo yal
sank hya
Ġnio ose
c amp
m ic
v im
y àµ½
ha yak
Ġg yank
Ġan tah
Ġkar vanu
iv ite
iv idhi
Ġke y
Ġke man
ri pt
Ġy em
Ġas ese
ok t
Ġka itu
Ġbad le
Ġfor um
Ġadhik aria
ĠF er
app u
Ġniy ukt
Ġanus ar
Ġmag an
Ġsaha b
Ġbh ukh
enc ed
vis ion
pin ne
ograp hy
Ġwast enn
Ġbim ari
appat iki
Ġproble ms
Ġposs ible
f es
m ek
t yo
at va
Ġp age
Ġt ula
Ġb ite
Ġg anj
ut r
ap oni
us es
ma ana
up ai
Ġto urn
Ġna hune
ana cha
hy anga
bha ag
Ġsak ali
ĠA ng
Ġaav as
Ġbal bal
pa in
ĠH igh
Ġ6 7
Ġdur g
ikk ayu
ĠE ast
sar v
urt hi
Ġbank s
uki heen
Ġprakas hak
Ġwit hin
Ġrom p
Ġabhiyog e
Ġprashan is
Ġbangab d
Ġeff ect
Ġummed waar
ĠIndi an
Ġbaal ako
r us
z ing
al age
Ġd akk
er ik
Ġg uj
Ġr ally
ab al
Ġin te
Ġsa ja
Ġde h
Ġse min
Ġas emb
Ġko il
Ġhi rol
Ġek atra
Ġba han
Ġbad ali
haa yak
Ġthat a
par may
ett y
Ġmud iy
Ġ200 2
Ġpot y
Ġinter est
Ġdie ven
Ġaat amak
Ġmana ya
Ġmahila on
Ġlaksh m
Ġkhat ra
Ġtri b
Ġvr udd
Ġshat ansh
ĠCom ment
Ġdod ang
Ġkahin de
Ġcinem aku
Ġnile il
sarkaar le
Ġandhra pradesh
6 3
B e
R E
Ġk ana
Ġa is
Ġm im
am atra
Ġd uvai
Ġn antar
en eral
ak ul
Ġj oli
Ġr uj
Ġw aapas
Ġf ichar
Ġra hati
Ġra ste
Ġsa ala
Ġe ast
Ġas hok
ast hiti
Ġpa cha
Ġpat ick
uv en
Ġprat idin
Ġag us
aag ar
Ġhas inar
Ġpun arn
Ġgo ott
air s
ott am
Ġches had
Ġsaha ya
Ġbr ing
Ġapp det
Ġnij i
vis hesh
Ġany thing
Ġvarsha maa
go àµ¾
Ġkast o
con o
Ġdhak ka
Ġsamit iko
Ġuts av
Ġpratibed ak
Ġmukaab ale
g ab
g ht
n enu
Ġs ere
Ġp aka
Ġp enn
il rundhu
ik ip
ap ni
Ġf am
Ġf ati
Ġma jab
Ġpar eshaan
Ġpar meshur
ma uli
Ġvar ge
Ġva yadu
ub b
Ġchha p
Ġmat rama
adi an
Ġkam ent
Ġta ur
Ġsp ec
Ġga utam
Ġkhar idi
Ġim pro
Ġnepal ka
adan iki
ĠNews paper
aksh mi
Ġhayes il
Ġsim ilar
Ġparish kar
Ġmanass il
Ġinvesti gat
Ġudv odhan
Ġa x
Ġa im
Ġm inn
Ġj ange
Ġl icense
Ġch ick
Ġc row
Ġkar anaya
Ġr ich
el ugu
id s
st hit
aj ar
Ġte ble
ank an
Ġaap yo
Ġmad am
Ġlag aaya
Ġak ash
Ġdes hi
ĠO bama
Ġem ne
uko vada
Ġtum hen
Ġkh up
Ġlab hi
Ġmahin ama
Ġwat at
Ġast e
aw j
Ġclai m
Ġmanas aa
Ġread ing
Ġbahum at
Ġannik all
Ġucha aran
b aa
e el
j oke
Ġp heri
am athi
Ġd ong
Ġn ed
ad ak
it her
er ala
Ġj ibi
Ġg end
Ġg anga
or der
Ġkar ato
ho ma
Ġr ip
ed ukk
ap rak
and am
ud in
ol it
ol ic
Ġsa adhik
ark alin
bha al
Ġup abhok
ĠS a
Ġmad hu
Ġraj naitik
Ġbhi m
Ġdek hakar
indi an
Ġtya han
Ġtir igi
Ġet o
Ġvibha ga
Ġpatr ik
Ġnik ali
Ġsap ana
Ġcal vi
Ġdaa wa
Ġvag ere
Ġbis wa
Ġprakar ani
Ġvyat irek
Ġchitran ni
Ġakkuv aga
Ġjaher at
Ġshekhar ich
Ġdav ite
Ġpow der
Ġpahon chi
Ġsmo oh
vikip idia
d ik
j ane
k and
n ational
Ġs umar
Ġp ers
Ġp aai
Ġt ung
Ġd hu
Ġd hyan
Ġv ani
ad hana
Ġg us
ik cook
Ġan uv
ay ane
um poàµ¾
Ġra hit
Ġma un
Ġne wa
Ġand aaj
Ġcha ut
ug ans
bha van
Ġvar saad
em s
Ġup adan
Ġja ha
Ġit ani
sa al
Ġper k
Ġpe hla
Ġnam mal
Ġ8 9
Ġshik aar
Ġbar f
Ġ9 8
Ġniy ant
bd com
Ġbhe je
Ġyan ch
Ġsav aar
Ġkhe la
Ġsukh bir
Ġksham ata
punjab i
Ġjhad ap
Ġpokhar el
Ġcrit ic
Ġindust ry
Ġcheyal ani
Ġcomput ur
a hi
c art
d illi
n inn
s ingh
am aan
Ġd est
Ġv air
Ġj ut
Ġg hay
Ġch ote
ay ela
and aar
Ġra hyan
Ġte ji
Ġar ai
Ġda ha
Ġba chat
Ġre fer
ĠS chool
yan cha
Ġmat hi
Ġkal ag
yam al
Ġsw abha
Ġbhi d
Ġpur ya
Ġrak ta
Ġtat kaal
Ġmul az
hn aa
Ġdesh ko
ato on
Ġpura v
Ġli eko
Ġavar u
do ot
Ġsaa che
Ġdekh ko
Ġash upatri
Ġmahar ashtr
Ġnirvachan amaa
Ġasa fal
Ġprach ur
Ġprot sa
Ġraham aner
Ġprith vi
k hani
n y
o tion
t ele
w ord
Ġk aje
Ġk enter
Ġm unnu
ra ji
un tar
Ġj atil
Ġg ali
ir n
ul kar
Ġf le
Ġra sta
ag ed
Ġdi mag
ane ey
ka ya
Ġsar o
Ġlag ia
Ġprat ikar
yas am
pra kash
ĠN EWS
Ġper uto
eti i
Ġwor ks
Ġkut he
Ġed uti
Ġbhav ana
ont inue
Ġnag ars
Ġari itu
Ġchat ur
Ġsome one
Ġug had
Ġnicks ute
Ġapad et
Ġshren ee
Ġtwa chaa
Ġgyank osh
l ele
Ġp el
ya stai
as ah
en tion
Ġch hed
Ġkar alan
uk oni
ti an
Ġpra jat
na at
Ġad hid
Ġpad ak
ĠM ad
ka ash
th rund
Ġlag da
ĠT ra
Ġme an
hr an
ira j
Ġdek un
Ġjaa enge
ĠD i
Ġta aki
Ġpak k
Ġmil ada
Ġdes hal
Ġdiv ya
Ġgarn uparch
Ġpas he
Ġpura atan
Ġden ge
Ġfilm s
Ġock k
Ġmel um
Ġlaksh ye
Ġvig at
Ġkath or
din to
Ġser nt
tya stai
umay ana
Ġpoor v
Ġsaad haaran
Ġlat sam
Ġtang as
Ġty pe
Ġasiri er
Ġcare er
Ġnaveen atam
Ġjih da
Ġparichal ak
Ġmushk il
Ġdoes nt
Ġkira pa
Ġvent ne
shuk ra
5 2
f y
k ho
l one
p ower
w ars
ch et
hi ta
ra ja
Ġn avar
Ġj h
Ġg ab
ai da
us ands
ic ation
Ġhai raan
Ġst ates
Ġat ine
Ġba ccha
ind ai
Ġam an
Ġab s
Ġbhar ter
ĠM ichael
Ġsar u
Ġmar ana
pa adan
Ġnam ma
Ġbat o
mat ra
Ġtya hi
Ġtya ane
Ġsu var
Ġmantri parishad
val u
rat es
Ġparis ar
Ġay urved
Ġchho ra
ult ure
Ġunt ai
Ġsmart phon
Ġlet ter
ukki har
pram ane
Ġvidha ic
Ġmic ro
ired di
Ġbott le
Ġswabhav ik
Ġtare eke
Ġaadhyat mik
5 8
b it
k im
Ġs ell
Ġk antu
Ġk shat
Ġn ast
Ġl ay
ai es
Ġha kk
ed y
Ġbha shal
re g
Ġcha ali
Ġka ani
ist ed
Ġaap o
Ġre pe
Ġtha pa
uch u
Ġkam jor
Ġbhi di
Ġkat ak
Ġex ecut
pt on
Ġkh us
Ġvyavastha pana
Ġtap aain
Ġmatt er
Ġvaar shik
Ġmile gaa
Ġdaa bi
Ġsahak aari
Ġneed ed
istr ict
Ġinj uries
Ġbatam yansaathi
inter net
Ġprayoj anian
Ġmhat le
osp ital
Ġpartic ular
Ġconta ct
Ġkarwa un
0 7
b hal
j amm
u han
Ġp iv
in na
al ni
Ġb ench
Ġd hum
as ing
Ġkar ut
ay ta
Ġpar amp
up chaar
Ġin tr
Ġho li
Ġad iv
yak u
Ġgar chan
Ġgar oune
ig anj
Ġbe haal
Ġre ady
Ġre hindi
Ġnir mit
Ġmad hur
Ġsak riy
ij a
Ġus ko
ĠP resident
ĠB o
Ġkat ale
Ġkare chi
ĠL ive
Ġsho p
ĠH y
ep h
Ġkon atyaahi
Ġ0 2
Ġshan daar
ashtra pati
Ġer pad
Ġmak es
Ġdha aran
Ġmit ro
Ġqu arter
Ġaas es
ues tion
Ġmahas ang
Ġsamud ra
Ġvet ali
Ġhaf ate
Ġmahen dra
N U
c hata
l ap
v aay
z at
Ġs etting
at hir
Ġm antra
Ġb ant
Ġn ank
it ul
on se
ak ara
Ġj amaa
aa yat
Ġch eti
Ġc endari
Ġkar ad
ti din
ma hila
Ġto mader
Ġy udd
Ġne er
Ġgar a
bha sh
Ġba hubali
Ġun ch
Ġup kar
Ġja akar
Ġnir ma
Ġbad hyat
ub ai
Ġkam ans
Ġkat hith
Ġval art
ĠD elhi
band hu
Ġnam uk
Ġdar un
Ġ6 8
Ġex tra
Ġwho se
Ġkon tr
Ġter u
Ġphir ta
Ġkil aaf
Ġcheit at
Ġshukra baar
Ġlam ba
Ġtiar es
ĠOne india
A C
h ma
k aj
s av
y uk
Ġb ie
Ġd eng
ya che
it ha
en ic
on ald
il es
Ġc igar
um ennu
Ġma che
Ġpra ani
Ġsa c
Ġsa heb
Ġbha en
Ġad yam
Ġya un
ram antri
ĠA P
to ber
Ġu han
Ġro ck
me eru
mad hyam
Ġsur endra
Ġdw ip
Ġpariv ahan
Ġgarnu bhayo
Ġfin an
Ġ198 4
Ġuda haran
A cc
b re
g ane
t is
v umai
at ik
Ġt ond
Ġd idhi
Ġv esi
er ous
Ġch ris
el ves
ing a
up ti
Ġto uch
Ġas ab
Ġam p
os ing
Ġre cover
ĠC amer
Ġpan am
Ġsw ay
Ġsw anta
ust ak
Ġdin ubhayo
Ġpe yar
ĠH ol
Ġang are
Ġnar endar
Ġvand atu
Ġchak ri
Ġmahat vach
Ġkshetra ko
Ġhum esha
son ic
Ġtot al
Ġpud hil
Ġflo or
Ġaust railia
Ġchic int
Ġov voru
budh war
Ġvishwagiankosh vikipidia
alifor nia
Ġpah chaan
u cha
Ġb hik
is he
aa yan
or o
Ġo chhi
Ġsa haayak
Ġho un
Ġek un
Ġst esan
Ġpa int
Ġvar shik
Ġi P
haa z
Ġav ritu
Ġsar van
Ġsang ra
Ġkare gaa
inch andi
Ġtra de
Ġpras ann
Ġthak un
Ġ200 1
Ġfe bru
Ġdhan g
Ġent ry
yank ar
Ġindi ra
Ġpok hara
Ġhosp itale
amen ne
Ġsamud r
Ġbhum i
gra st
Ġchamp ion
Ġhol iday
Ġshahr ukh
Ġkhula asa
E x
Ġt ana
ch un
Ġb ow
ek ad
uk up
Ġpr ots
Ġand u
na e
ark al
Ġda fatar
Ġen c
Ġor gan
Ġap il
Ġnir vaachit
ans ah
pp ar
Ġmuk ho
Ġchar ity
Ġ8 00
Ġla ut
Ġdes haa
Ġex c
Ġil aj
aap nar
aad hi
Ġcap ital
Ġpit ich
Ġfoot age
irik unnat
ker ala
Ġparist hite
vish wa
Ġarr ived
Ġprach ara
vern ment
Ġsaans krit
Ġavash yap
Ġsamaa pt
Ġvigya pan
Ġbea uty
ĠMin ister
Ġdise ase
Ġprase ent
M s
d ars
k ta
o oni
s aar
w and
ar ul
Ġs are
Ġs ong
Ġt ennis
Ġl ave
Ġha q
Ġra bi
Ġe c
Ġe conom
os ari
Ġvid yu
Ġpad m
Ġpad avi
Ġpad hai
Ġav atar
Ġtak aar
ĠT op
Ġsw ayan
ele ct
Ġdo ven
pur ush
Ġro hit
Ġlaag le
Ġlaag ne
Ġmil te
Ġwe ight
pad am
Ġkhan n
je ma
Ġpas te
Ġbhav y
Ġpura ani
Ġmel vi
Ġkhub asurat
Ġchet av
Ġadhya pak
Ġkid ikum
Ġchi hn
Ġsahay ya
Ġmalay ali
Ġsamas yal
Ġfail ed
Ġmeet ing
Ġrelation ship
Ġkatale am
a waadee
b ut
b log
d di
t usin
v ent
ha bar
Ġk hila
at ure
Ġa ctor
Ġb hon
it ta
as in
Ġj yoti
uk alil
uk ashmir
um s
ab er
Ġma ara
Ġpar ichit
up ok
Ġand h
Ġpur ti
Ġshar if
ard aar
shi pt
dhan ya
Ġvir umb
pad u
ikal am
Ġbhe ed
Ġtis ukunn
Ġkend r
prat ik
Ġbu udhvaar
Ġjet hi
Ġsamud aay
ĠSc ot
edd ing
Ġpravid hi
ĠPa ul
Ġanud aan
Ġpravak taa
Ġprots aa
s hir
y pi
Ġs ister
en es
Ġj akh
ik ir
Ġch ori
av ati
ab d
ic chu
Ġpra va
Ġe me
Ġof er
Ġad har
Ġsan shl
Ġit in
ĠM y
Ġmar at
Ġaf f
Ġshar ab
li es
unnat inu
ĠE n
Ġhaj u
abha ve
Ġcomp let
ng àµ¾
ph or
Ġcheiy an
amad hye
Ġmene jament
Ġcontra ct
Ġsaanskrit hik
N o
T ube
k ath
p ri
w ang
Ġs ile
he ne
un ka
it uk
ik kar
Ġkar ud
Ġkar ayla
ul ation
Ġf ra
Ġki mat
Ġki mi
ne ey
Ġdi o
Ġdi wali
esh t
Ġaap li
Ġsha had
Ġfor ces
yam dhye
se va
agar h
Ġso on
Ġshar i
Ġtam mil
Ġpak shi
Ġdis play
Ġ7 6
Ġyaa cha
chal a
Ġbar n
mar ch
Ġjee vit
Ġsans k
Ġtho d
Ġ0 4
ivar um
Ġgun as
Ġkap ade
Ġjag ad
Ġprem ium
Ġanum at
Ġnim n
Ġadhikar ulu
Ġghet ale
Ġca ught
Ġgri fatar
Ġmund uku
Ġthap ale
Ġsati guru
vyav astha
Ġsril anka
Ġbaaj u
Ġtrop hy
Ġvishvavid hyalay
Ġtourn ament
Ġpunarn ir
n avi
y ot
Ġs ijan
Ġp eni
un j
Ġj hun
Ġg eli
Ġkar to
Ġr unning
ag al
Ġma usam
ant er
ug an
Ġis aki
Ġsan man
end ran
ĠM ark
vi ya
ĠA ustralian
Ġprat ist
Ġdar id
Ġwe aring
com ing
vu es
Ġyo uth
bo ard
ll en
Ġroj gaar
Ġur uv
Ġtas k
Ġsom vaar
Ġmangal vaar
Ġgul ab
vay n
Ġkor ik
Ġserv ices
ĠOff ice
pho to
Ġavash yai
Ġcri me
Ġprag ate
Ġtaiya ari
Ġava ilable
Ġamy chare
Ġteach er
Ġpradar shn
a ak
d iv
g uli
p n
Ġ ale
Ġa zaadi
Ġb hin
Ġn inda
Ġn urs
Ġl it
ut und
Ġr ant
Ġra ati
id al
Ġma hit
Ġma his
ot am
Ġy eta
Ġdi pti
aan chya
Ġbha da
Ġbha agaat
ug alil
Ġat yadhik
Ġjan ag
Ġkha de
ba hut
Ġthat s
Ġdek hinch
Ġro ya
inch ya
Ġ6 6
Ġkan uk
Ġish war
Ġghat ak
Ġniy ama
Ġkav its
anglad esher
Ġwa alon
ob ile
Ġrasht ral
Ġvat avaran
Ġtay yar
Ġaat ma
Ġnira vadhi
Ġchun avi
ĠSt ate
Ġsol di
Ġca use
hinch indi
ĠIs lam
Ġvaq ail
Ġtid ipi
C OM
p are
w ama
ar l
ha cha
Ġm es
Ġb ran
Ġd ish
un chan
Ġl abha
ai v
Ġan ant
Ġan atu
Ġkar utu
Ġf lu
Ġor al
ako ok
pat y
Ġal ok
Ġraj yam
Ġmat lab
Ġlag aai
Ġkam giri
ĠI ve
Ġdhar ma
ĠH ospital
Ġbas er
Ġdesh on
Ġjaan e
Ġed udd
air ik
ll ar
Ġim ran
Ġkap il
Ġsanst hal
sk eey
Ġrec ently
Ġcont inue
Ġchey ya
Ġjis ke
Ġcoun t
Ġpub lik
Ġsambandh ma
Ġgood adhu
Ġtwit or
Ġjanie ch
Ġtakhav als
Ġmanor anjan
Ġsamvid hana
Ġmalyal attil
compan y
W hile
d haan
f ale
g av
g ujarati
k ee
p hul
s er
s ut
t or
Ġd etii
it va
Ġo op
ma ha
Ġin qu
Ġde uv
Ġbha are
Ġas lu
Ġcha an
Ġgar irheka
Ġat ishay
op pa
Ġis ai
Ġva ishisht
ka àµ¼
pat ir
Ġus de
Ġus ers
Ġus hup
pan ish
ba zar
ira s
par ak
ĠG ujarat
Ġshik ait
ikk aa
eng ers
sam ay
Ġaj un
Ġ100 00
Ġgre ek
Ġcheiy uk
Ġpos ition
Ġfas al
can ada
Ġlid he
Ġparicha yam
S ome
f s
j A
t ine
Ġ hik
Ġs unn
Ġk ick
al ok
Ġkar yas
Ġkar avaa
ap aya
iv et
sh m
Ġsa ura
Ġde un
ish chit
Ġcha dan
Ġsha anti
haa haran
Ġav kash
Ġraj shahi
pp ati
Ġton ni
Ġbhi de
Ġu c
Ġso o
Ġgo ogle
Ġband ar
Ġvik ri
ĠW hite
Ġgur s
Ġdes k
ĠE l
Ġil anti
Ġkon o
Ġgal ti
Ġnagar palik
atin al
incha d
Ġnab i
Ġass iv
Ġfes ti
ock e
Ġbip akshe
Ġmoon dau
Ġthal eko
Ġauthor ities
Ġshuukrav aar
anjee vi
a hin
k ins
m aran
s os
w est
x um
y it
Ġs ij
Ġp hel
Ġt rak
Ġm uti
Ġb rak
ra ar
ya haan
as her
on line
Ġg k
Ġg uta
ek at
Ġr ut
Ġw ak
ang ane
ri e
sh v
Ġcha alak
hy ana
Ġar am
hu un
Ġya j
Ġam ma
ro up
Ġpad iv
Ġfor e
Ġtha ti
Ġtar aan
Ġshak ashe
Ġpe y
Ġnam pik
Ġkan unn
Ġnas ha
Ġcher ia
fa ce
Ġbait ha
Ġmess age
Ġkhu bi
Ġsaaj ha
tyaan antar
Ġirind hal
Ġchall enge
Ġlyo un
Ġashan ka
Ġkartt ik
d own
e en
g elya
Ġm ikk
Ġb orn
un ke
es ada
Ġkar aave
Ġo w
Ġpar ati
Ġin kaar
Ġas ati
ent u
Ġen s
Ġman mohan
sha stra
ala at
Ġvid d
Ġav er
ib aat
Ġmad hav
pp an
Ġag un
Ġir unnu
Ġprak ria
Ġud avi
Ġrahe la
Ġla ck
Ġkut utàµ½
Ġmud l
Ġbol aa
Ġant unnar
do hi
Ġlaksh yam
vir udh
Ġsom baar
Ġmile gi
Ġjast ai
Ġcor por
Ġshetak ayan
Ġinj ury
Ġgovern or
inchal ani
Ġaash charya
Ġsic ipu
Ġsala h
Ġpadhe in
Ġvab bi
ĠWilli ams
lymp ic
Ġpaad ate
upchaar ik
9 8
M y
Q uestion
g and
Ġk hya
in um
al one
Ġa ach
Ġm ush
Ġd her
ra ib
as ion
Ġj huk
ai àµ½
ek on
Ġkar agar
ir at
ti pp
Ġne hru
re m
ok ke
Ġst ab
Ġst udi
sha ma
end riya
Ġut aar
oj u
Ġkal yaan
Ġu chi
hr ut
Ġval ar
Ġdis ap
rak h
Ġex ne
Ġje vu
ĠNe xt
vach h
Ġim press
Ġvan cho
Ġkot ha
Ġwar ned
Ġtab le
Ġvr utt
Ġkhul aa
Ġrat her
Ġjat isang
rah man
Ġshow ing
Ġevery thing
Ġprer ana
Ġpariwar er
Ġlon ch
urang abad
ĠYou Tube
Ġcheyad aniki
ĠArs enal
L U
k ana
m ura
n ings
u chi
w ich
Ġa ip
Ġm ong
Ġb illion
Ġn annu
ad ay
on esia
Ġl idhi
or um
Ġki ch
aan cha
Ġkaa yad
Ġit aly
Ġva at
Ġpad ma
are et
Ġmar yaada
Ġhan ga
Ġme ans
Ġvish yati
Ġper kon
Ġprati pad
Ġed adi
tic s
ayat ka
Ġpen ichu
Ġraa hul
Ġaag ami
Ġcri minal
Ġchor ee
Ġkui andai
Ġtipp ani
Ġtath ya
ĠFr ench
Ġnivar noo
Ġfadan vis
Ġviak atia
M S
j in
m rit
p arty
r ine
w ap
Ġa asha
ak iya
Ġc it
ho od
uk ai
Ġma uka
Ġpar ava
Ġpra atham
Ġto h
Ġaa hot
ip in
Ġba il
Ġjan adhi
Ġja isi
Ġaap ani
Ġsha il
Ġav o
ĠS ir
ht ine
she tra
ba as
par ed
Ġhar ie
has ik
Ġgo als
chal i
Ġsaf ai
rat ed
Ġbaad hya
Ġaat am
tak shan
Ġbra in
Ġjat hedaar
Ġtol g
Ġraak he
sw ast
Ġcolle ction
Ġvikip edi
ĠQ ue
Ġparaj eet
Ġaust ra
Ġammel ye
Ġpren am
ĠVie ws
g ent
o ft
s ri
Ġp ension
in ir
Ġt ine
ch ary
Ġa hm
Ġb ast
Ġd hakar
Ġv ots
er ve
es am
Ġl ondon
le ge
Ġhe ct
Ġna ak
Ġaa har
Ġad r
ip ati
ala h
ala yas
Ġlag el
Ġsang taan
Ġsw ikari
ĠB l
aran u
Ġadhik she
Ġvir at
Ġ8 4
Ġpl ate
Ġrahi m
shak ar
Ġtho daa
Ġdev yar
Ġkap i
Ġul ag
Ġbank ley
Ġann ad
Ġsub a
Ġmahat ma
Ġany one
Ġyas ri
Ġmahas oos
Ġpaar it
Ġsharu at
pro tidin
Ġhaad asa
Ġjanat ako
Ġjimme vary
Ġpublik esan
I V
O R
c ement
d ad
m ate
Ġk saa
Ġb achi
Ġd arkaar
ak hil
is ah
Ġj angal
Ġch une
av ind
et ha
Ġsam ak
Ġin dhan
hat tu
sh yal
Ġy eman
Ġh oni
hik k
all ed
Ġst ru
Ġpa ath
Ġvar gal
em i
Ġtha va
Ġprat id
Ġhan m
Ġsw im
àµ¼ n
Ġaav d
Ġpur ee
Ġak har
Ġbal an
Ġsat ark
Ġlek ho
Ġher self
bad protidin
Ġvir us
Ġla hir
Ġsc india
ĠIn st
Ġkis m
incha i
Ġash ram
Ġwat ate
Ġsr ust
Ġpahun che
Ġdik haa
Ġsex ual
Ġchik isa
bas ite
Ġmaz ab
Ġbelie ves
Ġsne hit
Ġrach na
Ġchitran iki
Ġaspataal ama
ĠChan nel
Ġaasa ani
Ġzime war
Ġyaho wah
a x
j une
l on
l ete
n ek
r ar
w en
ha h
ha van
Ġt ata
Ġch ed
ap ram
Ġma aro
Ġo undi
ing er
Ġpra vaas
Ġhe thal
Ġho k
Ġe ye
Ġar vind
ip ra
bha ar
ind atu
ham antri
ĠC or
Ġus di
Ġtar at
Ġag ho
Ġkam an
Ġkat ar
Ġkat am
ick le
Ġsat at
Ġsho d
ĠR ed
ive u
Ġga adi
anj ay
Ġmaa ya
Ġdr ushya
mar fat
Ġtra il
Ġsans ari
Ġcar ried
Ġmud al
Ġgan it
Ġwant am
Ġjab aki
Ġqu ality
Ġmay er
Ġpach hillo
Ġpav en
Ġsut ara
irik unn
Ġpict ures
ukun tu
Ġpratinid his
Ġexperi ence
Ġfari yaad
Ġassa ult
k shan
m b
p id
Ġs v
Ġs old
in am
Ġt urai
Ġm ent
ra o
Ġn om
Ġv ote
it ya
Ġj ayanti
il il
Ġsam yer
Ġy ata
Ġse par
Ġdi b
aan on
hy ath
Ġst ores
ark e
Ġgar bh
ĠM umbai
Ġsark kar
Ġbal ak
Ġhis saa
hn s
Ġmal yo
Ġsm riti
kaa hi
rap y
Ġsim it
Ġill amal
Ġmik hat
Ġbanaa eko
Ġbro ad
ĠMar athi
Ġthay ela
Ġcer tain
ĠHo use
Ġmahatt vach
Ġannoun ced
Ġcart oon
Ġvaani jya
0 3
D ownloads
w ada
ha in
ha se
Ġs ave
Ġk ushi
Ġk ripaya
Ġd ura
Ġn y
Ġj ataat
Ġg ift
um und
ant t
Ġpra sh
ri wal
Ġpr it
Ġpr arthi
od ara
ve er
all ah
Ġman nia
Ġre mains
Ġpad ataa
vi et
Ġsak eko
Ġal av
Ġsang ita
ran u
Ġpani ch
Ġrahe ch
Ġsho shan
Ġvir udh
Ġmot hi
Ġnal ugu
Ġcent rian
Ġden ar
Ġbhe ti
Ġner til
Ġgha di
Ġkir tan
Ġsatt am
Ġbatt le
Ġhir oga
Ġjung le
5 6
L ast
k rishna
y right
à §
an ath
Ġs ed
Ġs ede
Ġs ekhane
Ġm aage
ra hi
Ġch ind
Ġr ukh
Ġr eta
ag aar
Ġsa aman
Ġst hana
yak e
Ġya v
op er
Ġka ya
ist ers
Ġpad aad
Ġbhar e
Ġhar m
Ġrahe gi
dhan jali
akar m
Ġpl ot
Ġtel ugu
Ġall a
Ġkad aaya
kal u
Ġsi em
Ġaw k
Ġsthan ak
ric an
Ġvall d
Ġasl ele
Ġsanchal it
Ġlead ing
Ġvyava haar
Ġsoft ware
Ġroman tic
Ġbakt avya
T C
l ekh
Ġs ek
Ġs its
al uku
Ġt aap
am ud
Ġn ikk
Ġv aap
Ġj ite
il ing
Ġkar ar
Ġr ish
ul al
uk qup
and uke
Ġf ung
ab ich
Ġin sp
ri yat
Ġpr ed
Ġpr og
Ġne enru
cha p
art s
Ġab use
Ġav asi
Ġkal atil
ĠT o
Ġve ch
Ġkam un
ĠB log
àµ¼ m
Ġcon ne
yog ya
Ġchal ak
aka at
Ġta hamaa
Ġchar yal
Ġkr ishak
Ġshan ivar
Ġnik aay
Ġpen al
Ġvin amul
Ġqu ite
Ġfl at
Ġcont ent
Ġkach inj
Ġnab he
Ġpav aar
Ġint ellig
Ġkim ba
Ġuni haruko
Ġsansad eey
uvar ai
ugal uku
Ġkes u
Ġsamaaj awaadee
Ġpaksha ma
Ġtumha are
Ġdurghat nama
mangal bar
mut hal
Ġrepor ter
Ġconfir med
1 19
b ud
e ch
k ati
u ff
y ali
Ġ Ø
Ġs vayn
Ġk ra
Ġp attil
Ġb hun
Ġn ama
er ry
aa o
Ġl ie
ik shik
Ġan nu
av adi
av anu
ay lor
us ke
Ġpar liament
Ġde cl
Ġde fe
Ġy atha
ish ti
na yaan
Ġda adi
Ġam uk
ist ant
Ġpat hi
Ġpad at
ile ye
Ġsab ak
ĠC le
Ġmar ried
Ġpan ja
Ġkal andhu
ĠT ho
Ġvic hale
ci ally
rav ati
Ġchho te
Ġprem i
Ġsant aan
Ġkit na
Ġbach an
Ġmunn il
Ġudyog e
uc ed
isk eka
Ġkaan ooni
ĠHe alth
Ġbaithk ma
Ġkdd ur
Ġibb odhu
arasht riya
ukaya irunnu
Ġandubat ulo
7 3
E S
u ya
an at
Ġk ank
Ġp esha
Ġt anku
Ġb aav
Ġn ishi
Ġv ive
Ġan shal
Ġkar el
Ġma atam
Ġhe aring
Ġpr ince
od hit
cha s
Ġaa itbaar
ala ce
Ġam ari
var ta
ver y
Ġmuk iya
Ġsad hin
utt al
shi ch
Ġgur uv
avar ute
Ġdev endra
Ġsup por
Ġnar indra
Ġcol our
Ġbij ali
Ġkol on
Ġkhe le
Ġkil os
Ġbhal ob
Ġgol a
Ġwebs iter
Ġparam par
tya are
Ġcheiy unnu
Ġkir ti
Ġkill ing
Ġdire ct
amad hyam
Ġhero in
Ġcharan ma
Ġky arey
Ġandr iki
ĠInter national
Ġelectron ic
Ġmian mar
badprotidin bdcom
5 9
d is
k ing
m ath
y uv
Ġs asha
Ġs àµ¼k
Ġt haa
Ġha are
ti ch
Ġke pt
Ġde war
hak ti
Ġar asang
ill ed
Ġen pat
Ġam mai
Ġja isaa
uv ann
ub h
kar ani
yan u
Ġal co
Ġag ed
oun ts
Ġper il
Ġaf sar
Ġle aving
Ġtr udo
Ġvad apradhan
Ġpal it
Ġfo uj
chal o
Ġpradhan i
eri al
Ġsu h
Ġnav ya
angal es
Ġkhel ad
Ġaak arshan
bab a
Ġnirn yam
Ġpari har
Ġjas le
enna àµ½
Ġmatram all
Ġrem ov
Ġsug g
Ġghen yat
Ġlid ho
Ġprote in
Ġcongres ka
Ġarab ia
Ġyuktar ashtra
Ġmahis us
g mailcom
s ong
y ull
Ġs ona
Ġk andi
Ġd itt
ra f
Ġn ako
Ġn anu
he ch
ya sh
as ho
en j
Ġg adi
Ġna itik
Ġse ek
ent ed
Ġman avar
Ġpa hari
Ġka alam
Ġva ikk
pat an
Ġpo ho
Ġ5 000
Ġmuk i
Ġbo at
Ġmul y
haar it
Ġbar bar
Ġem it
Ġed up
amil y
Ġshan ibaar
isht ha
Ġsm it
Ġay ina
Ġair craft
Ġmug ham
Ġprasha sonic
Ġbor der
Ġnear ly
Ġreturn ed
gyan ik
Ġmub arak
avira an
NU LL
5 00
I C
b hin
b ody
c is
p inn
s et
in as
Ġg one
Ġw id
ap hal
ti mat
up e
Ġsam uk
sh un
om s
att us
Ġar ch
yak i
Ġda wa
ist ry
var um
Ġi ii
Ġbad hai
are erik
Ġlag ayatka
ke hi
Ġshe t
Ġcl ot
Ġni og
Ġdes hiya
Ġex tre
own er
Ġet ra
Ġsans karan
Ġtho usands
Ġvit ar
Ġkab atti
ĠV ict
uka uddhe
Ġkhat e
Ġsharir ik
Ġkud ia
Ġbu y
Ġdak ut
Ġshra van
Ġopen ing
Ġvek hya
Ġbanaav avaa
Ġprashan sa
Ġelect ric
Ġjy eshtha
Ġimm edi
Ġjig yasa
Ġvahat us
Ġbataai eko
ayang anj
Acc ording
A pp
b ia
Ġs itu
at inu
Ġp eng
am antri
Ġj on
il in
Ġc and
ay ar
et uttu
Ġw ed
uk alk
hat ak
Ġand roid
hik arik
Ġad ya
Ġad ivas
Ġat isthan
Ġap par
os ho
Ġpad an
ĠC hen
ĠA t
Ġtak es
Ġme as
Ġper e
Ġdin amaa
Ġso ok
Ġ7 00
Ġchit hi
Ġdiv sam
Ġbol ya
Ġkh ur
Ġfe ed
achar ya
Ġadhyak shat
kk unn
Ġswat vadhikar
Ġnim itt
mand u
Ġkhed s
Ġshab do
Ġpolic y
ĠAnd roid
Ġkutub a
Ġjamm u
Ġidd ru
Ġacadem y
Ġvict ory
Ġfav our
Ġperkon nar
j illa
n ot
r end
ha ari
Ġp hela
Ġb aag
Ġj ign
Ġg ill
han ga
ik s
Ġc ru
ho la
us lim
ag ulo
Ġma h
ani ya
ri al
Ġbha aven
Ġcha at
Ġhi machal
ip ot
Ġpat n
ĠS har
ib pati
Ġmad an
Ġmad hum
ann o
ber s
ĠA hmed
Ġve chan
Ġme elvi
Ġvis aran
Ġdhar lu
Ġgo or
Ġvir dohi
Ġkaam ma
Ġsaf ety
Ġsaha yak
Ġshan ivaar
gal ya
lic ation
Ġmahat av
Ġcould nt
Ġpahun cha
nat aka
Ġsag al
Ġvag haro
Ġsev aavaan
hic le
Ġste el
ĠAr ch
Ġtang ute
haal anki
Ġparya ay
Ġdiz in
Ġbenef its
Ġfesti val
à§ ·
1 000
5 1
D es
c inema
p ine
p riya
t hak
Ġm og
Ġn uv
it ara
uk aliàµ½
Ġra u
ang le
Ġsam ik
ot oppa
Ġas ian
ug ol
iy atu
Ġpad al
pat hi
Ġsat r
ĠR uss
Ġbas eko
Ġla haan
Ġz amin
Ġdes iya
bhar ata
vid y
Ġshuru yaat
Ġtu hada
Ġkshetra ka
Ġfamil ies
Ġdam age
Ġmi har
Ġshast ri
tyas apachhi
Ġpadd y
Ġcas ino
Ġvigya apan
Ġtarak thi
Ġdhr uv
Ġkeem at
psm l
Ġchuna uti
B I
J AB
g ol
k had
s ud
u ha
ch ok
Ġb akk
Ġv ere
ad ani
or er
Ġw edding
uk yu
Ġf ul
ab handa
Ġra van
Ġthe ms
Ġne ra
Ġte g
Ġat ha
Ġkaa bu
Ġup asthiti
ber t
ell y
ĠP UN
Ġud aya
Ġdhar an
Ġik k
ĠR ob
Ġbat on
Ġpart s
jan ya
tic al
Ġnal ug
Ġyoj na
dd il
Ġbaad ha
Ġmas ala
Ġudd har
gan um
Ġras in
Ġthir umb
Ġhot ya
Ġsap taa
Ġing u
Ġamb ul
Ġsuk ti
Ġsaj aa
gy ik
Ġlen aa
sw am
Ġsum ari
Ġarop an
Ġsul tan
Ġdikha ai
Ġnetrut va
Ġdeta ils
Ġapn ader
kach inera
Ġsampatt ik
ĠCamer on
ĠPUN JAB
k aan
m ere
p us
v ine
ra sa
ra hul
ya whili
Ġj um
Ġg ork
ud iga
hat uk
Ġho vanu
ish ing
aj al
aj ya
Ġar es
Ġgar yo
Ġgar own
Ġap akir
hya vu
Ġpad han
Ġmo o
Ġprat ap
ort un
pa ct
Ġlok ana
Ġji he
Ġgai yr
Ġall u
Ġbhav ikh
antar am
mo uth
Ġmin h
Ġkarn anga
Ġchho t
Ġsaa chi
Ġsund ari
Ġadd ress
Ġkali g
illa e
Ġavast hit
Ġpuch hia
bhi jan
Ġjil hyatil
aba hadur
Ġappe aran
ĠAr tic
Ġact ress
unk hala
Ġinj ured
Ġdir gha
Ġwel ip
Ġraakh ne
Ġkoek ati
Ġiyak k
Ġsachi b
0 2
d ir
j ast
Ġk eti
Ġb amb
is amen
Ġr ama
ti mp
ab et
Ġpar eshaani
te o
Ġbha iskeko
Ġko ch
Ġgar bhav
la ce
Ġjan ana
var ai
end ent
Ġpat hav
kar e
Ġsab sc
Ġnat ati
ĠP revious
pra s
Ġsp es
àµ¾ kk
Ġby re
Ġla ws
Ġkhar ap
Ġvij a
Ġhal an
Ġavar e
patt u
Ġnira iy
Ġgu ard
nat un
Ġker alat
Ġmangal baar
Ġvarshan a
Ġunion er
Ġparip ati
Ġutpaad ane
Ġasalya chi
Ġmaaj he
Ġvais ipi
Ġsanchalan amaa
Ġpratipak sh
mahan agar
Ġfem ale
Ġfees di
ĠDep artment
Ġadhid ptar
B A
W ith
b aaz
k ant
r A
an ural
Ġk riya
Ġp ic
Ġp ali
Ġm una
Ġd rav
Ġd hur
Ġn es
ya ach
Ġv ee
ak de
Ġg ok
han ni
Ġch ivari
har at
ap ari
Ġsa ali
Ġpr anal
Ġne u
Ġand aaz
Ġcha yar
Ġaa yaat
Ġpa heli
iy ani
uv it
ans hil
Ġsar had
Ġwas allam
ada ata
Ġsw ik
pal ya
had yaa
shi ps
Ġchar cha
ĠW ales
Ġex pect
Ġwho le
Ġmed al
Ġsaf ed
Ġmu q
Ġkur itt
Ġmana at
Ġran pur
Ġbet aa
Ġtas aviraan
Ġvidy alay
200 9
Ġpolis ani
Ġmish ran
ukunt unnar
Ġsahabha ag
Ġsiv aay
Ġthems elves
I M
k en
k hat
n ab
s ai
Ġt ethi
ch ina
Ġd aag
Ġd ung
Ġv ick
ak aari
Ġg ane
Ġr ane
ab adi
Ġsam rat
om en
od hat
Ġcha pp
att ai
Ġst opped
ig at
iy am
Ġsha w
Ġav ya
de h
est yle
pp ich
Ġshe vat
Ġaav u
Ġro za
Ġprak ri
Ġshar an
Ġhar aa
Ġpart ika
Ġkav al
Ġsun vai
Ġgat ti
Ġgra ha
Ġay ukta
Ġbank ko
Ġmu àµ»
Ġniv ed
Ġlog o
Ġunder stand
Ġvak il
Ġgro w
Ġmen ok
Ġsuk ha
ret ary
Ġnay ar
Ġaalo chana
Ġtelug ulo
Ġplann ing
b et
k ako
r ud
v ark
v ib
an mdhye
at ile
Ġt ini
Ġa char
Ġb ira
un ne
ad anto
ak ak
ak kar
ir p
Ġf ashion
ab hit
Ġra si
id o
Ġsam ved
ot ati
Ġki qui
Ġhe althy
Ġpr in
Ġy ud
Ġbha jan
Ġbha skar
Ġas li
yak t
ni ra
Ġvar nit
Ġkaa ji
Ġaap yu
ĠM ed
Ġut patt
Ġprad eep
Ġpur at
Ġkare ga
Ġkaran yas
utt om
Ġle v
Ġher nuhos
Ġwe basite
ĠG eneral
Ġvik k
anj eet
Ġem na
Ġdu a
Ġshr iram
Ġgun ha
ĠV ideo
Ġvas te
Ġbet hak
Ġmahat va
era par
Ġhaath on
ition al
Ġgav es
Ġlong er
Ġmanag ed
Ġvidha yak
ikshan ik
Ġshiksharthi der
Ġjok him
Ġlib r
Ġsars aad
Ġmaga zine
Ġnatwat iky
ID EO
Ġkaabu u
1 20
3 00
d ama
f l
s ir
s im
v ala
ha un
Ġk ush
Ġd ro
Ġd air
Ġn ade
as ons
Ġc old
har uka
av àµ¼
et ch
and in
ang han
ol kata
ot o
Ġho le
st al
ig ram
op ic
Ġi es
Ġit r
Ġpat na
Ġpad arth
van ni
Ġhas in
ĠB rown
Ġaav an
Ġsat yam
Ġnam adhu
Ġvi z
Ġco ast
Ġham alaa
unnat umay
ikal in
antr ik
Ġmud iveu
Ġsand hu
Ġsand eh
Ġbho ga
Ġpaa eko
ĠV al
Ġjal ad
Ġmhan taat
Ġsir jana
Ġaas hir
Ġvim arsh
Ġpust ake
Ġrav ivaar
Ġpaas ethi
Ġinst agram
Ġcall s
Ġattack s
Ġbudh baar
Ġriv yu
Ġprabha s
Ġkadhi hi
Ġlaunch ed
Ġcreat ed
chatt agram
baaj i
Ġrestaur ant
Ġsour ce
Ġfam ous
Ġghay al
T o
b us
f ai
m yan
r ub
s ant
y or
Ġk ure
Ġa hi
Ġb ek
Ġd hon
Ġv rut
ad il
er c
en aku
is kaa
Ġl es
um al
Ġpra aan
Ġsam ant
Ġde ra
Ġas ami
esh àµ»
ill ennu
Ġbad ale
Ġve hicle
ĠB lack
Ġmuk ta
int al
Ġbo attu
Ġpak h
Ġlok satt
gi an
Ġmul e
ava ama
Ġsarkaar e
Ġpl us
Ġgai an
ĠJ e
ĠJ an
Ġem b
Ġthek edaar
Ġsank shipt
ins ona
Ġyog yata
cl es
Ġaam ir
adhik ari
Ġshat mana
Ġchaa hati
Ġpre gn
Ġbhad uk
Ġmaz ad
Ġhelp ed
Ġtwit ter
Ġdad apu
Ġchud anta
Ġmedi alo
Ġvahi in
Ġswad eshi
Ġgoot am
Ġnic hay
Ġummid avaar
isl iye
Ġakha baar
Ġcann ot
h na
i el
k ulu
k hub
m unn
p is
u haanle
y k
z or
Ġs ani
Ġk yam
in ti
Ġm ys
Ġb ya
Ġb yan
ya e
Ġg iving
ik ot
Ġc ese
ut en
et ut
Ġma aran
Ġo par
up an
Ġsam aran
Ġy un
Ġbha vi
Ġst ock
ee m
bha gat
em ents
Ġvid ht
ĠM ur
Ġkam ents
yat ine
Ġro chak
Ġrahe va
ĠR am
Ġco ugh
àµ» d
Ġ7 7
Ġgur mati
Ġz im
Ġdu uri
Ġed ukk
Ġaaj ko
ott ed
Ġcar ch
Ġshr idevi
Ġvij eta
Ġjam aan
Ġsaa has
Ġswast h
Ġvidy alaya
Ġtele vision
Ġcricket er
mand al
ukunn ad
Ġjas ta
Ġmahil chi
etti yat
Ġgirl friend
Ġinv est
Ġshas ti
Ġvyava har
utet all
Ġraha u
Ġanyat am
song badprotidinbdcom
5 4
k A
r ink
w or
Ġk avar
Ġt ich
Ġa han
Ġa araam
as ti
Ġg uli
Ġl und
ut undani
Ġan veshan
ap ne
ab hin
Ġma c
ing e
up yog
Ġhi j
Ġman ukhi
Ġba waj
Ġav in
pat ak
Ġnat ant
ĠT ag
Ġhun uparch
ĠB ir
ki heen
Ġbal u
Ġkaar yakram
Ġaf asar
Ġaf ghanistan
Ġso c
Ġud haaharan
Ġtam as
Ġchar itr
Ġgo a
Ġdis at
Ġham ilai
Ġband uk
vad anto
Ġsu ic
Ġsay vatu
bo chch
Ġbl ast
Ġmud e
Ġbaj ar
Ġnak aa
Ġlab hich
Ġiv v
Ġparik shan
Ġson na
Ġsin ha
med ia
Ġsk im
Ġmunn al
Ġdh und
aw er
Ġpug eka
Ġjet ali
hang ute
Ġtaa za
ateg ory
Ġnor mal
Ġscor ed
Ġenjo y
M AI
j ill
k isi
n im
o han
s ay
s ach
ar amb
Ġm rig
Ġv edi
ad hyaksh
as il
ak r
Ġg hor
Ġr ose
ul uga
Ġo es
Ġo vers
Ġin ches
Ġpr ev
Ġat ra
Ġvar sho
Ġis haara
ram e
Ġi hi
Ġnir mal
ĠM on
Ġraj dhan
Ġpan na
Ġag hat
Ġshe et
Ġbhi anak
Ġak shay
Ġro yal
band ha
Ġsat hik
Ġdar myaan
Ġbat il
Ġbat hinda
ĠF lor
bad dal
Ġpart iko
chal an
tan u
Ġem pi
Ġed o
Ġkad ar
bhar ati
Ġmot he
Ġtal at
Ġniy ukti
201 0
its al
Ġaj ay
Ġanek e
Ġenn al
shar ir
Ġsaa h
Ġnira ikh
fe cted
prat yek
ester n
Ġinst ead
Ġchod yam
Ġrab indra
Ġvy ang
Ġrele ase
ĠSc ott
Ġnatakk unn
Ġedut iya
Ġarg ent
Ġaaramb hit
Ġmusal maan
Ġkhya al
C R
g ers
m han
m ara
r d
t it
t yaat
u hanaas
v ane
Ù Ħ
ar pur
Ġs ane
at utt
Ġt iy
Ġt ika
Ġg avaa
Ġr ise
uk ke
id dh
ag u
up id
Ġar dha
Ġvar ud
Ġap ag
art han
Ġup as
Ġja haaz
Ġpat ang
yan iki
Ġmar in
Ġlag ali
yat te
Ġro ak
Ġud ghatna
alo chana
ĠR ich
Ġham ane
Ġvik sho
akk unnat
Ġbar add
Ġdil elya
Ġ0 6
Ġtim i
ins ener
Ġul at
Ġson ia
vir uddh
Ġjad hav
Ġnis haan
Ġwork ers
Ġsit ambar
Ġbig gest
Ġpraman it
Ġkhad ya
Ġtrans fer
nav ad
Ġsug ar
Ġamit abh
mav ish
Ġlend e
Ġpratir odh
Ġdah shat
Ġoop aadhi
d ney
Ġs vachh
Ġp andi
Ġp idd
Ġd hy
he dh
as es
en ta
Ġan th
Ġkar im
Ġkar bahi
av ine
ir it
Ġra in
ag ak
ol low
iv ars
up ari
Ġsam parak
Ġun tar
Ġkaa gaj
Ġbe ch
Ġab ul
uv il
Ġbhar os
ell ed
Ġag er
Ġag ent
Ġprad arshit
Ġme ch
aid ul
Ġdek hie
Ġud on
Ġhar a
Ġnam ak
Ġpak kum
ep ali
Ġco ol
chal ani
ide v
Ġed udhu
age er
Ġmu hur
Ġaak hiya
incha daniki
Ġdet er
put er
Ġnok ri
Ġvitt atu
Ġevery one
Ġkhed ut
Ġparichal ana
Ġky m
Ġsapta hik
Ġdrug s
Ġbeg um
Ġspa ce
Ġkufipp itt
Ġapakir tikar
Ġbawaj ood
a àµ»
c ont
g round
v aaya
w atil
Ġs hyam
Ġa charya
hi chu
Ġn aki
Ġg ayan
es har
Ġl ived
Ġan ar
Ġw ellam
Ġf low
Ġma had
Ġo eram
Ġpar shal
Ġsam aksh
Ġko ipan
og i
Ġcha ma
Ġar avind
Ġman nan
Ġsha ikshik
Ġvid tl
Ġpad ati
vi ir
Ġraj yon
Ġmat he
Ġlag oun
Ġprat amar
Ġme x
ĠB ra
Ġbhi ti
Ġsad hyat
ĠD o
Ġnam odu
Ġdis ple
Ġband ukauddhe
Ġkan na
dh yaksh
ja al
Ġem ni
Ġprashn er
Ġeng lis
Ġniyam virudh
apad ukintu
Ġaadhar it
Ġbanaa er
Ġbadha ane
Ġkalam lo
Ġaval ute
ĠPost ed
Ġhast akshar
Ġtarik he
Ġvistar ma
Ġlikhe ven
Ġphy s
Ġprevious ly
Ġiss ue
Ġaadal te
Ġasemb li
ĠScot land
m iss
r un
t apa
u x
v ille
w ab
y n
y us
Ġs ick
in eni
Ġt inn
am ati
Ġj ur
Ġg has
Ġha ven
ho w
ir und
us hy
Ġma al
Ġpar avaan
iv ad
ari ga
Ġsa cha
Ġh ya
Ġas ve
hu wan
Ġgar eki
Ġman isa
ni ght
op att
Ġka ho
Ġam pik
Ġre v
Ġbad ala
Ġav ag
Ġav àµ¼
ib ility
Ġ3 000
Ġmat el
ith un
ĠP e
ĠP o
ĠI N
Ġmuk ad
Ġdek hia
Ġjaa en
utt on
Ġtam are
ush ka
Ġji hi
Ġ8 6
akk al
Ġghar aat
Ġsu it
Ġvat ini
adhik ar
Ġcoun ter
Ġnit in
angs il
Ġpos itive
osh u
Ġstha ayee
Ġsammel ne
Ġkall h
Ġbacha av
Ġaji hi
Ġprakar am
shr ans
Ġchikits ak
Ġparamar shas
Ġvatakk y
Ġtend ulkar
Ġperfor man
M rs
d it
p hin
t uun
z en
Ġk umb
Ġb ibi
Ġj hul
aa bad
ik el
ut in
Ġkar r
Ġr op
el es
Ġw akil
ap attu
ag ho
Ġho we
Ġe pi
Ġdi et
ach u
Ġas ho
Ġgar inch
Ġpa war
Ġap o
ars i
Ġbad la
Ġsw ayam
Ġjo in
se i
utt am
ĠR ober
Ġlok i
Ġji o
pe cts
ras ion
Ġprati b
Ġsur at
Ġoff er
jo od
Ġaak ars
Ġsap hal
Ġpen ch
Ġpug ne
gy pt
Ġbhak thi
Ġmath lab
Ġnip un
Ġrul es
Ġfig ure
Ġyenn um
Ġsle ep
Ġmulaz am
A na
J o
f il
v ill
x im
al ile
Ġb icha
Ġb angalore
Ġd ap
Ġch enn
Ġc ari
ur b
ul in
um ent
Ġpra pti
Ġin tak
sh ra
Ġhe t
Ġas akti
hin agar
ip e
Ġda w
ni fic
Ġjan amb
Ġup are
Ġu y
Ġvya j
Ġchal o
Ġsad har
Ġso shyal
ĠD em
pr ishth
Ġsur v
Ġsamband hinchi
Ġmut àµ½
ci ous
Ġsid hi
Ġras ayan
Ġyet o
bd unia
apat um
Ġdel iver
Ġved ik
Ġbali od
Ġsent ence
Ġduk hi
Ġbhad uka
Ġtrans port
rip tion
Ġmum my
Ġcele br
Ġlamb i
Ġdir g
Ġref used
Ġcra sh
Ġmushk el
Ġadhin et
Ġaut om
taj aga
Ġallow ed
Ġumed var
Ġpros ecut
Ġaantar ik
ĠSm ith
Ġfak hrul
Ġjanap riya
Ġcrow d
Ġfebru ari
a is
a hir
Ġs ki
am all
he ad
Ġv rid
ay atra
Ġr ig
Ġw ine
ud ha
Ġma athi
Ġma itri
aar thik
Ġpar s
ot he
ri age
hat u
Ġbha ek
Ġor um
Ġvar ini
ala it
ash nal
Ġsh re
ce p
Ġraj mauli
Ġsar vad
ith on
Ġve ga
Ġkat hak
Ġaav ati
Ġthat an
Ġper ug
Ġkaran aare
Ġchar chit
ava cchu
co ma
Ġgur tu
akar ya
ikk y
ĠO f
Ġfa ces
ikar ans
Ġvyav asthit
rat ri
Ġjiv aan
Ġsid he
Ġfilm ma
Ġpradesh ma
Ġnas hik
Ġmaan ya
Ġbij epy
Ġnil am
Ġfir m
Ġgho sh
Ġvin imay
pas un
Ne ws
Ġneed s
Ġuddesh ya
Ġmir za
Ġmess ages
Ġbaithk le
Ġsahayog ita
Ġshivas ena
Ġhindust an
Ġochiw akook
Ġsemin ar
c at
g ai
k alai
k ujh
p ap
s arkari
Ġs udd
al edu
Ġt ree
Ġb ati
Ġb ickle
en kil
on am
is ai
Ġj ump
Ġg or
Ġg ug
Ġch im
Ġan shan
ap ote
Ġf ich
Ġma aru
Ġo ikh
up t
up ur
Ġsam aar
ani il
ent ists
Ġcha dha
hin du
Ġad ug
Ġst hayi
Ġman sa
Ġpa ur
Ġka ik
Ġup an
uj e
Ġnir ikshan
Ġbad houn
Ġbhar taat
ham pton
Ġpan j
Ġtar ai
Ġag g
Ġag ei
Ġak asma
Ġshak taat
Ġta hako
Ġrahe ta
Ġkan shrans
Ġshik h
Ġdes haat
Ġ9 6
raj u
antar gat
Ġsaha ayta
Ġfar id
ec tion
Ġsarkar lai
Ġnick l
Ġing tone
Ġjeevan ma
Ġasal ela
Ġ199 6
Ġoffic ial
Ġjud ge
Ġmrity ur
Ġthought s
Ġtapas ni
Ġsanvadik der
Ġaarop ee
Ġrohing a
Ġsci ence
Ġbhug tan
Ġphe le
Ġtiruman am
Ġsanra chana
bri haspatibar
Ġow ner
Ġsaptaa h
B y
G o
b uke
f ad
f ir
k utt
k utti
m ig
Ġ ig
Ġp ane
Ġt aari
ad min
Ġj hut
Ġg os
av el
ed di
Ġra ay
ag ing
Ġthe va
Ġma ovad
Ġo ra
Ġo ti
Ġsam uh
Ġche ez
Ġcha irman
Ġman er
ug ar
Ġpa is
Ġ20 20
Ġka z
Ġka hile
Ġon es
Ġaap na
Ġre a
Ġre present
ĠM el
Ġraj kot
ke y
Ġnat ural
Ġsw adesh
bar g
Ġban aai
Ġak bar
Ġaf ule
Ġdin di
Ġud aghat
yaan che
Ġsp eech
ĠH am
avar ti
Ġtya sto
bi an
Ġdal ko
Ġdit ia
Ġnak al
wit tu
Ġsim p
Ġket lic
Ġupyog ich
ail ai
Ġwebs it
Ġright s
Ne w
Ġbed e
Ġbed room
Ġq ar
Ġshab ari
Ġirup patu
Ġresp onse
Ġmaarg darshan
Ġvyank er
Ġanai vi
ĠJohn son
Ġspard haa
Ġbeng ali
Ġvidud alai
vyakti parmay
Ġvaast avik
Ġhttps www
Ġsanshl isht
Ġloksatt ache
S a
e ed
i am
j av
k ott
r ans
r ukkum
Ġk ek
Ġk uri
Ġm uriil
Ġb one
it ut
it ir
as ri
Ġj ub
Ġl apt
Ġch uun
Ġin nu
Ġho m
Ġho ur
te ch
cha u
hik eshan
Ġhi ll
Ġar abi
hu i
ind ran
Ġpad ya
yan o
Ġkal ageer
Ġag ni
Ġak as
Ġmuk esh
Ġbal ar
Ġvish vas
Ġhar im
inch enduku
Ġpak ar
Ġkhar ekhar
Ġsur pr
wan ath
ikar n
Ġsid d
avan ya
Ġchho di
Ġudd eshe
Ġnil ich
Ġdit aa
Ġvaa han
Ġran vir
yant ra
incha vacchu
Ġlad ak
Ġlad aki
Ġdh or
Ġdh oran
Ġatt ra
Ġnya ayadhish
Ġnati garh
Ġtur ann
Ġ199 9
200 8
Ġmarket ing
Ġmantralay ale
Ġcas es
bhit r
Ġparamar sh
Ġkarmakart ar
Ġvachal ya
5 3
D r
M g
g ov
m ary
n ara
r od
w ane
z am
Ġ iy
ra ham
Ġn ere
ak ond
Ġl arg
Ġl anch
ing am
ot ar
Ġna ash
Ġy ate
Ġdi ieko
Ġte vu
Ġar ul
Ġman avi
Ġba and
Ġjan ano
Ġup at
Ġsha areerik
kar n
Ġsar bochch
Ġag ali
Ġprad arsh
Ġnat andu
ki ako
Ġbo ys
Ġsp ash
Ġsho wn
Ġbat ti
Ġbat oundai
Ġpal veru
Ġpl ir
Ġviv aram
Ġim arat
Ġpas aar
Ġkr ant
Ġhal ma
Ġbank e
hap ashi
Ġvas ul
Ġvaa hatuk
Ġnira desh
Ġkod di
Ġnis ha
shik sha
Ġtele phone
Ġchala chal
Ġpub lished
Ġcond itions
Ġopp ortun
Ġbook ing
Ġsamit ile
Ġjarug utunn
Ġdiz ine
Ġinas aaf
valo u
Ġmukho mukhi
Ġavo id
Ġalco hol
Ġniyamvirudh vu
M e
k unda
l os
n ari
s el
Ġk ina
al ap
al ato
Ġt itle
ch itt
Ġd ana
Ġd ara
Ġd aay
ik de
Ġc one
Ġan line
Ġkar ia
Ġkar ge
Ġr ishi
ap atr
ag ir
Ġo on
iv ery
ok an
Ġcha v
Ġba z
Ġjan ake
Ġpad yu
ham ukh
ĠC ent
Ġlag ala
adi o
Ġsw agata
Ġkha leel
aid u
ina àµ½
Ġjo ined
Ġak um
Ġpol ise
Ġso ci
Ġji esti
Ġ7 4
Ġno vel
Ġbharat ko
Ġz ia
Ġghat nar
aay ee
maan u
Ġmal yu
Ġprati bandh
Ġli hil
cl us
Ġsal maan
Ġvarsh ma
mer o
Ġmit ti
avid yut
Ġcher ttu
Ġvin anti
Ġsy m
Ġchir anjeevi
red di
Ġkali gin
Ġcham mach
Ġsne h
ivaar y
Ġrahas ya
Ġjawa f
Ġvimars anam
Ġpraramb hin
Ġappro ach
ĠChen nai
d us
j er
l uga
m iti
p aki
z u
al ko
al ele
Ġa udi
Ġb hala
on ment
is er
is ak
Ġj angi
Ġkar up
Ġw an
ab o
Ġo kk
ang la
iv in
Ġho va
Ġne uy
te en
ast h
Ġya chchen
va ine
bha jan
Ġvar d
Ġjan ate
Ġaap ulai
ars an
ct ing
ĠM e
ga um
ira i
ort hern
Ġrak her
Ġ7 9
rak sha
Ġkhar ab
Ġed uc
wan o
Ġjha g
Ġpost s
Ġkon de
Ġmin ister
Ġant y
Ġbhag ya
Ġgat ividhi
Ġtem pl
hatt isgarh
Ġnirvach ni
Ġiv i
min uun
Ġstr iker
Ġtab let
Ġadi g
Ġchir u
Ġpratis hed
Ġcal ele
Ġfat waadi
Ġraak ho
Ġsaad haran
Ġbur ute
viv idh
Ġbrand s
Ġresp ond
Ġrast aa
Ġide a
Ġsain ya
Ġmanju uri
Ġyuktar astrer
Ġgard ach
Ġkhade y
LU SA
ĠPUNJAB MAI
ĠPUNJABMAI LUSA
b ach
e o
l ie
p av
r ole
y um
y anda
Ġs tick
Ġa u
Ġa ja
Ġb oj
aa palya
Ġl op
Ġkar aane
har usang
av ant
Ġo ak
up ama
Ġde press
Ġat ik
bha vi
em es
Ġam ount
ck y
ck ing
ura b
Ġsha shi
Ġbad us
ĠS p
tar gat
ĠP une
Ġkat si
Ġprak aare
Ġkaran ye
Ġpe ed
Ġaar ambh
Ġel se
Ġsun ai
Ġput r
we in
Ġpi es
Ġev ents
Ġbag udiil
Ġsuch na
Ġabhin aya
Ġpariv art
Ġ199 0
sad hya
Ġkendra ka
Ġub har
Ġkhad aa
ukun tar
Ġpinn ite
Ġchus te
Ġputt in
Ġprodu cts
Ġnyaayalay ane
mus lim
Ġemer gency
Ġdasham alav
Ġfactor y
Ġcoff ee
Ġcommit tee
Ġfinan cial
ĠPUNJABMAILUSA COM
N a
i u
r ina
s aran
Ġd ul
as uch
ik in
ab b
Ġpar er
ani m
Ġhe m
Ġde m
Ġdi are
unn an
cha bad
Ġko ine
ok ing
Ġcha dh
im ar
Ġat ti
Ġap eel
Ġka haan
Ġun able
em and
Ġal though
Ġraj yt
Ġkal ji
yas e
yas ah
Ġkat ai
Ġkat ti
Ġfr ench
Ġmil ali
Ġund ak
Ġfo cus
hav atu
jan u
Ġdesh mukh
com m
Ġsi asat
Ġches ar
abha ga
Ġnagar jun
Ġwa àµ¼tt
Ġnar esh
Ġjill alo
Ġhati a
Ġnag pur
Ġsuch an
Ġrav ille
Ġpran ay
Ġsambhav ana
Ġattack ed
Ġkhu je
Ġarj una
Ġanim al
Ġmadd atu
Ġbalbal ika
Ġmalyalattil o
Ġenglis hilo
T M
T elugu
k or
w alu
w here
Ġs oni
Ġa yal
Ġm ee
Ġb uri
is hil
is tic
Ġc os
Ġc lo
av ach
uk ut
Ġh orn
Ġcha ya
Ġek o
Ġad am
os am
Ġva it
lo c
tar apar
ans ar
Ġmat l
Ġlag ati
Ġlag hu
Ġsang am
Ġkam tima
Ġshe d
Ġdo ha
Ġvis phot
Ġjo ardaar
Ġak hand
Ġmuk her
Ġlo ot
Ġbo dies
Ġtr ish
Ġ7 3
Ġtal ama
Ġsaf at
Ġjar aa
Ġfar aar
Ġgan apati
Ġgat hit
Ġdhan navad
Ġkhel adu
Ġnirvach it
Ġbag ha
Ġbr oke
kat ha
Ġtab bal
Ġprast av
Ġnij eder
Ġjad ki
za am
sab ai
Ġswat va
Ġdekha ya
Ġpu uran
Ġins pector
Ġker ani
angs àµ¾
red s
Ġclub s
Ġok tober
Ġsecond s
Ġkrit rim
Ġsaaj an
Ġlang ik
Ġbhej ia
nik ant
Ġtreat ed
Ġhall aa
Ġshubhak amana
Ġutpad an
Ġfight ing
Ġpahi chaan
Ġconv icted
Ġrugn alay
Ġethra g
Ġsao esia
Ġhowe ver
N A
O S
b es
g l
j ibi
p ran
r ate
x y
Ġd araat
un iya
il al
Ġch okk
av inte
Ġr ow
ed ani
ti il
Ġra y
Ġthe res
ang ne
Ġpra ja
Ġar pan
Ġun u
Ġmat eni
Ġsang ram
ĠP rime
Ġud av
Ġkaran mak
Ġsp ikar
Ġlaag ate
Ġdar jan
Ġwich kaar
Ġpal g
pi an
Ġet he
Ġprav àµ¼tt
do or
Ġjab ard
Ġstr ike
yank an
ese arch
Ġarth mantri
Ġtas vir
rish n
Ġsag ale
Ġ199 8
Ġpass engers
Ġmrity ud
Ġshresh tha
Ġsn ow
Ġavish kar
Ġprodu ct
Ġpravid hik
Ġsanto sha
Ġkarw aaye
tele gu
Ġapakirtikar avu
T I
g ujar
u an
z ia
Ġs ight
Ġt ale
Ġd uni
Ġg him
and aa
Ġo hta
Ġpra yan
Ġe arn
ate ek
te j
Ġad aa
Ġad van
Ġsan yog
Ġaap nu
ro vers
Ġbhar prapth
ham ro
ĠC rown
ans heel
pp er
yas ale
ĠI I
ĠI ra
Ġkat halu
par ik
Ġper fect
Ġnam er
Ġtat v
Ġga ik
Ġdesh ka
yaa cha
Ġ12 00
mak al
Ġind ivid
Ġnal kan
Ġsun ishchit
Ġroj ullo
Ġdhan i
Ġmus huwan
Ġkhel kud
Ġter anjeet
ishan kar
Ġaak hir
Ġlad ai
wit aa
Ġrav ibar
Ġnetaa on
Ġpustak an
inar ai
Ġrend o
Ġsandar bh
Ġjaat ir
Ġpair chi
Ġjim med
Ġrashi d
Ġphurti ga
Ġvishwagi anako
Ġfid itt
Ġasad haran
Ġcontinu ed
Ġave rage
Ġpariyoj na
Ġparamp ara
Ġbaav jood
6 1
B O
m ata
s l
an es
Ġs apa
Ġs ujh
Ġp ump
al od
Ġn ana
ad ham
as un
ak ur
Ġj agar
Ġch ek
Ġch uka
or ney
ek hya
av un
uk oll
ti y
Ġf ri
id aar
iv ill
Ġy antra
Ġe at
Ġad vert
Ġya at
Ġpa ul
Ġpa oos
Ġap pa
Ġit ane
ĠC he
ga h
Ġraj nath
Ġmat daar
ell s
Ġsang hati
ĠB ig
àµ¼ g
Ġdin esh
Ġrup a
ĠW il
Ġ10 8
Ġpal at
hav at
ĠJ ul
ĠO p
Ġ9 7
Ġdr y
Ġ15 00
Ġel akar
Ġkho ji
Ġaj ker
Ġudd ane
Ġpatt arkaar
Ġbhe etar
Ġpatr alo
ev r
Ġfl ip
Ġninn ull
ukal ute
Ġgul f
Ġfin ally
Ġprapan cha
cel ona
Ġning to
Ġreported ly
Ġdisc uss
Ġpayanbad utt
Ġtarf abaat
Ġshresht hale
Ġisra el
S e
S pe
h l
m alay
o und
w u
Ġs uman
Ġs uddha
Ġa sht
hi ro
Ġv adi
Ġch ani
Ġan di
av are
et il
Ġw hil
ti di
and hur
Ġra ised
hak h
aj at
Ġas atil
Ġko chi
esh ns
Ġat rib
Ġvar uki
Ġka ame
ind o
Ġpat ho
uv aar
Ġbhar na
Ġsab har
ij hars
Ġsang ai
Ġak asar
oun ter
athi ya
Ġsat ell
Ġnam par
Ġwe ch
20 19
Ġvir tu
Ġgur timp
akar ch
pad an
Ġsank etik
Ġgari bi
Ġind ra
Ġtu ing
Ġpati baddh
Ġkab ir
Ġjill aka
hatt il
dha aran
Ġcompany le
Ġlad ke
Ġcomm on
Ġcomm and
Ġchest undi
Ġsy ria
Ġtik ana
Ġpha ay
Ġshetak ayana
Ġjhan dai
Ġmauj uda
Ġpush pak
gul or
Ġkaj er
Ġkaraa yaa
Ġaham ad
kaarykram ma
Ġng khani
Ġviniog adar
Ġyeta at
Ġfore ign
Ġyata yaat
Ġvinamul ye
Ġvikk ipo
Ġharim ander
H S
k has
l eli
n ut
q ib
x e
Ġ aria
an ad
at ay
Ġa war
am and
Ġb os
Ġv unn
ad hari
Ġj en
Ġg her
Ġg ets
Ġan ves
et ra
uk ud
Ġf ida
ud il
ant ly
Ġke el
Ġde mo
Ġdi iva
Ġas sam
hin o
Ġat mahat
Ġon to
Ġsan lagn
Ġsh une
Ġsha ah
lo y
Ġal one
Ġmar ut
Ġlag er
Ġag en
ond ani
ust on
Ġme hnat
ĠP er
àµ¼ j
Ġu haan
Ġjo urnal
Ġban is
Ġban anaa
pa hil
Ġshar n
ion al
Ġdhar asab
Ġye u
Ġbar ite
Ġare as
ĠJ ack
if u
Ġkad hun
Ġtir up
Ġkav y
Ġsup rin
Ġchand r
Ġull itt
Ġkit ne
Ġjab aabad
Ġpet ti
Ġran ne
yay ute
Ġdus apaya
Ġvisha yanni
Ġayog le
Ġmass er
Ġuts aah
Ġabhy antar
Ġpaud el
Ġprov ide
Ġbhand ari
Ġfig ures
otha o
ugi heen
ĠAhmed abad
Ġhalan agad
9 4
b ela
b angladesher
k os
s ed
Ġt angal
Ġm asa
Ġb ond
Ġd avid
ra vad
Ġn ila
Ġn angas
ad ik
is hali
ai ys
Ġan ivaary
ir ala
ul oni
Ġthe me
Ġke hane
Ġto wards
Ġcha atr
Ġhi d
Ġen k
art ers
Ġsan ni
Ġsan char
ath ya
Ġpat hano
ga ya
ĠA ss
Ġro ute
Ġbo ot
Ġbo ught
Ġnam aku
Ġfr esh
Ġaad at
rak am
Ġsu chak
mar ute
Ġsank al
Ġgun vatt
Ġkap pal
attil ull
gar am
Ġpati ents
Ġsid dha
Ġvat iv
Ġyu varaj
Ġins ur
Ġdam pat
Ġprabhut h
Ġjell h
Ġdeep ika
Ġic on
shas vi
Ġsanghar ush
Ġveg ave
Ġvy arth
Ġthul a
Ġduj a
Ġjaani ye
Ġheth s
Ġmaham ud
Ġej ansi
Ġaab haar
Ġjant ak
Ġdesign ed
Ġvaaj ata
Ġbahi sh
ĠMil ib
M iss
T wo
k ann
m art
p ant
s hith
t ari
ha wan
Ġs hin
Ġk sh
Ġk iss
in ars
ch illen
Ġa kar
Ġd ale
ya ar
Ġv esh
it up
it ite
as lu
en il
ak as
is is
Ġg aay
Ġg ugal
Ġch ij
Ġch ith
or al
Ġan chan
ap ett
iv ely
Ġin iya
Ġto wer
di garh
Ġad v
Ġad hu
ast hi
bha ma
ig al
Ġis land
Ġpad on
kar nataka
Ġhan uman
ĠI PL
Ġdo oji
pra st
Ġrak har
Ġsing apore
ava hik
Ġbas ti
Ġ8 1
sam padak
Ġsank hyama
ott en
Ġtho s
Ġpras idh
Ġnav jot
Ġthak kar
gal in
pak sh
Ġjill ako
Ġbak uti
Ġart hik
Ġball am
Ġuni haru
Ġtol ile
Ġchuk ia
Ġjil hyaat
Ġshish ur
Ġaapan ne
Ġmanag ement
Ġprayat na
Ġpayan am
Ġvastu o
Ġchhel la
Ġzime wari
Ġanim als
Ġdrish y
Ġdharshan er
Ġmahav id
ĠSec retary
Ġvancha va
Ġkartrup aksh
Ġsuic ide
Ġjanamb hum
c ue
j apan
m ill
p aka
r I
w is
an amaa
in ko
in ull
Ġa aba
Ġb hen
ya vu
Ġv ade
Ġv apu
un o
en an
is ti
Ġj er
Ġj ala
Ġj ia
Ġl one
Ġch id
or at
ut um
el t
us an
Ġf ine
Ġto mas
Ġna f
Ġna uk
di as
Ġy esh
Ġe utai
ni yam
bha d
Ġpa ese
Ġap artment
ind ulo
Ġav at
yan ath
wa it
Ġaav ad
par yam
ĠN epali
Ġro cket
Ġham aara
ayan ni
co ura
Ġ8 2
Ġ8 7
vas ana
Ġmed ic
Ġet hr
Ġches uk
Ġmand ala
Ġshr ink
Ġsamp ada
Ġfe ar
Ġgat her
Ġdon as
Ġoff is
Ġul sana
Ġsant ha
Ġjal adi
Ġvas ati
Ġjam ma
apan ar
Ġent engil
Ġcho ok
apra d
Ġnim ti
prat ikarans
Ġsol ar
Ġsabhi achar
Ġraak heko
Ġjail ed
Ġkrit a
Ġtand ri
lik hit
Ġspar dh
Ġcle an
Ġnalk ia
sthan eey
Ġbars hik
Ġkdd urai
Ġskul as
Ġitihas k
Ġvishwavidy alay
Ġhathi ar
Ġahil esamm
E D
m ish
t ti
w ater
y ojan
Ġs ikk
Ġp inch
Ġt avir
ch han
Ġa ade
am ari
Ġd udh
Ġn alu
Ġl aav
or m
Ġo unde
Ġpra haar
ma hesh
Ġin aam
sh ram
Ġy esav
Ġcha han
yak k
Ġba alk
iy utetall
Ġit ttil
Ġav taar
Ġus amen
Ġtar um
Ġtak ne
Ġkha i
Ġta al
Ġmil ian
Ġgur das
Ġabhi shek
Ġkhan du
Ġ9 4
shn al
app ett
Ġmand ali
Ġsand e
Ġsaha char
Ġul agam
Ġsal ma
yant o
tain ed
Ġbhu camp
Ġsuv id
Ġworld s
Ġob aidul
Ġbanaav o
Ġbari e
kap iraight
ĠWe bdunia
Ġjhad pi
Ġcy cl
Ġeurope an
Ġemer ged
Ġkej riwal
Ġanutuk aday
Ġsett ings
pray ukti
Ġashlil avu
ĠHy derabad
Ġvalart unnatumay
Ġasab hyavu
Ġadhikshe pas
Ġnishi dh
vaine arute
Ġjanambhum iyutetall
Ġanutukaday wai
P R
b hil
b bar
l um
l ink
m A
o ff
p ud
p eksha
s wat
t ale
x s
an var
Ġp idi
Ġd ug
he j
is in
Ġg attu
ai on
Ġan em
ek ati
har ub
ul ag
ed s
Ġas u
Ġas ata
Ġand aru
Ġda f
Ġat ani
Ġap ne
ata hi
Ġup r
var d
ck sab
Ġsha ikshanik
Ġpad hen
Ġsab o
tar pur
Ġal ter
ke val
Ġnat apat
Ġkha adya
Ġpur e
ĠD ani
Ġta hab
Ġdis ambar
ĠW hats
Ġji ada
Ġno or
no on
Ġkhar ed
eng th
Ġmal ya
eri es
Ġthan da
Ġmari chch
Ġtho de
Ġid er
Ġjari mana
Ġpot ano
Ġkarn al
Ġgra h
Ġudd hav
Ġcomp lete
Ġuttar v
patt atu
Ġnira pada
Ġmane j
Ġins aan
Ġbu ilt
Ġrav iv
Ġtathy ank
Ġpind s
Ġinclud ed
Ġchang ale
Ġvidhan sab
ĠAm erica
Ġkisaan on
Ġdef end
Ġghen ya
Ġchhar aliger
Ġchini yaan
AT am
Ġdind ai
Ġcarry ing
Ġsmar ak
8 9
j od
k es
k ise
n na
r esh
Ġ ice
ha ul
in ation
Ġt edi
Ġa us
Ġd hal
ad aa
Ġc anto
Ġpar yay
Ġho llen
Ġh ur
ale m
Ġhi l
Ġar ts
all s
ank il
Ġman ivi
Ġka ali
Ġka witaa
Ġbe havi
hit ari
Ġnir i
Ġkha ataa
ĠB y
ĠB re
ĠB ro
Ġdo ct
Ġbal am
sa in
Ġthi in
inch ukunn
Ġnam oon
Ġsp read
ĠR us
ĠF irst
Ġkan akk
Ġbharat na
Ġkhan na
kal Y
Ġpunjab ia
Ġdil en
Ġpura kh
Ġsud nd
Ġgun tav
Ġoff ered
Ġmu yal
Ġkur ip
Ġaam haala
Ġkel eli
Ġsaam ud
Ġbataa unchan
Ġbh up
Ġgu est
Ġsarkar la
Ġghan u
Ġbani gyik
Ġart ist
Ġrog i
cap e
Ġfollow ed
Ġprakar ana
Ġrad hak
Ġbanaav avaama
Ġact ually
Ġpil ot
Ġtw ice
Ġmotor sa
Ġmith va
Ġkarav athi
Ġsuffer ing
Ġgant al
Ġvyavast hi
Ġrob bar
Ġhttp www
Ġdeni ed
Ġchop ra
Ġorig inal
Ġaudyog ic
Ġjaaye gaa
Ġcigar ette
Ġchetav anee
Ġintellig ence
ĠFlor ida
Ġchuun di
d ek
j endra
y ug
ar ashtra
ha ad
Ġp ott
al yer
Ġa er
am ane
Ġb isi
Ġn alan
un gi
is o
Ġch ari
Ġch hup
or ed
Ġan ne
Ġkar lo
ul oki
ap ha
Ġf u
Ġra c
Ġra as
Ġra chn
ud esha
ic hako
hat hi
Ġna amak
Ġpr ana
Ġche yan
Ġad h
Ġst anik
ark i
Ġba hen
Ġon nam
Ġja ate
Ġpat an
ter e
Ġre ason
Ġsar oop
Ġag am
Ġag rani
Ġkam edi
aya di
Ġchal ane
Ġchal ie
Ġdek ar
li f
Ġle vama
Ġye un
Ġvi es
ava ad
Ġz yaada
Ġex act
Ġtya g
Ġbl ad
Ġunn a
Ġmod ern
Ġshuru aat
Ġavar galuku
Ġjal avidyut
Ġday i
Ġaay o
Ġkin ne
Ġnira ash
Ġnik at
Ġvim ana
Ġswat ch
Ġnish kar
Ġpav itara
Ġmer eku
Ġtip ni
Ġeven ing
Ġwit ness
Ġbid eshi
Ġagar wal
Ġnayak ulu
Ġsher bahadur
Ġkale j
Ġlagaa yat
Ġrahan aa
Ġchalach chitra
Ġsanvatsar al
Ġkshet reey
Ġdocum ent
Ġiniti ally
Ġnask eko
Ġkhudak ushi
Ġaavas hyam
Ġcount ries
B Ara
b ddal
d elhi
k n
k endra
l aku
p os
Ġ ess
an in
an ur
Ġs ie
in ary
Ġa bhav
Ġv est
ak ha
ak ia
ho o
et am
Ġw angi
uk shan
uk indena
Ġo unch
Ġpar idhi
Ġsa und
Ġe char
Ġse ye
Ġse val
ta o
Ġcha ap
Ġda ant
Ġis su
Ġsan wat
Ġbe ar
hya a
Ġvid yab
Ġbad han
ib ly
ĠC alifornia
de vi
pp oshu
she sh
Ġpur vi
Ġdek hin
Ġlak han
Ġlak hanu
Ġnam b
Ġtat kaaleen
Ġmil adi
Ġwe ap
Ġbas net
Ġish tan
Ġpal en
Ġund a
po shu
tr ys
ĠJ apan
Ġtan aav
Ġtal uka
Ġsamaj i
ĠK e
Ġang ne
Ġdil ya
raj asthan
Ġches tar
Ġkap iraight
Ġavar uku
do ctor
Ġhota at
idi o
Ġkol ai
Ġkas hu
Ġabhin and
Ġdown alod
Ġaas hay
tain ment
hing a
Ġkary alaya
aaz ama
pet rol
Ġopen ed
Ġgop an
Ġappe al
Ġchang ed
Ġmam ata
Ġbhavish yama
umi yak
Ġshakt ishali
Ġtheri uma
Ġkaryalay le
bra hm
Ġaash wa
Ġutpaad ak
ĠRo ad
ĠChan digarh
Ġadhir chi
Ġsany ukat
Ġremov ed
Ġadivas ee
Des pite
Ġpidd nt
C hr
d ine
f oot
g opal
k t
o tic
p avan
t ena
ar on
Ġs ush
in y
Ġt ati
ch on
Ġa ich
Ġd ikar
it un
er vat
as ik
es ho
Ġch hon
Ġch ody
et ma
ir ia
ag hi
Ġpar maanu
ic as
iv ak
hat o
Ġy antr
Ġte evr
og y
Ġis a
ash ri
os is
Ġsan je
Ġbad hane
Ġav aj
ĠS an
Ġmad hil
Ġmar y
Ġag yat
Ġshe ers
Ġak sar
Ġrak hada
Ġjaa u
Ġdin in
pa at
Ġhar ish
Ġsp oke
ene way
Ġ19 80
pr op
po indi
vat ha
ĠE U
hane ra
vid esh
ĠK olkata
Ġ13 0
Ġaat amaa
Ġock e
Ġdivas ma
Ġyuv at
Ġraa hn
Ġchak k
Ġsuch anaa
Ġshat ru
Ġjod e
Ġmaha g
Ġnall atu
bb b
Ġsik hi
Ġgujarat ma
Ġvet an
angu age
Ġnear by
Ġyar um
Ġrashi fal
Ġkri yat
ask ara
wast u
Ġsaras ari
Ġest ate
Ġinas aan
ĠRep ublic
Ġchauk ashi
M x
b illion
c ons
k hu
w na
ar aa
Ġa upchaarik
Ġb inner
Ġd ini
Ġd aman
he lo
Ġv att
ak er
Ġg ita
es in
Ġl ens
Ġha p
Ġan sw
ay eli
Ġw ari
Ġf ate
ud y
Ġin charge
Ġpr eksh
Ġdi agn
Ġbha sa
Ġst hilo
ug at
Ġor m
Ġup akar
ist ri
Ġmo ok
Ġal ert
Ġmar p
Ġkal o
yas ako
Ġnat akkum
ĠT aylor
Ġkam ai
Ġpo sh
Ġdo van
pra yek
Ġpur ushan
Ġak rant
se vak
Ġdhar ti
Ġsp ark
Ġchar anko
Ġbat ch
Ġcl im
Ġac s
Ġsee ing
Ġaad hikarik
hav aan
Ġviv ah
rak aar
ja han
ĠJ aipur
Ġmari chu
Ġnav u
ĠU k
Ġres idents
Ġend ed
Ġant hat
Ġprav aah
Ġdab aan
Ġchey yan
Ġint lo
Ġmahas achiv
Ġbhak shant
Ġupayog i
Ġmukti y
An other
Ġsanghar she
Ġaayoj ak
Ġdham ki
vya ptanga
Ġbuj haa
Ġtaj aga
Ġsaak har
Ġgum aa
Ġtham b
taj ya
Ġirind hallum
Ġdush man
Ġrahen ge
prakas hak
Ġemal eka
Ġexper ts
Ġeur op
Ġippat ike
Ġpratist ha
Ġpraaan patr
Ġqar aar
Ġtahab iler
a ina
k ura
w ata
ar di
in usaar
Ġm isa
Ġb ona
Ġn are
Ġv yu
as tic
Ġg aaya
ik ana
Ġc othao
Ġkar uti
Ġr ial
Ġo bs
Ġpar ks
Ġsam eep
Ġin ke
hal aya
Ġy us
Ġe vad
Ġse a
ach ib
ent o
Ġcha ah
Ġgar v
Ġman je
Ġba hes
Ġvar at
Ġjan ye
Ġam i
Ġav ut
ĠS out
ham ay
Ġsak shi
she t
Ġme at
Ġmuk a
Ġbal chen
sa f
Ġper ig
ĠD es
ĠD ev
li ed
me ra
Ġhis abe
Ġpak i
chan ar
Ġmul aazama
unnat il
Ġbas i
Ġ8 3
anj h
Ġdur niti
Ġjaan ane
eng land
bhar i
ĠK ing
Ġthak i
Ġpram ad
Ġbhag swam
Ġsid dhi
Ġbij u
Ġavar ai
do sh
Ġsal ana
Ġaat anki
Ġvand hal
Ġmuj hase
sab h
Ġcont ett
Ġast ra
Ġkart ik
Ġhy cort
Ġpos han
Ġpadd atine
Ġjud aa
Ġkash m
Ġchur na
Ġchang es
cti ce
Ġprabha van
Ġdot er
kir es
Ġnird isht
Ġchitr ikar
Ġjamm ukashmir
Ġriti il
Ġasw apn
Ġquick ly
Ġtirank et
bart aman
Ġmuktiyod dha
2 11
Y Y
a isa
d hara
l apur
s war
w ark
y ulu
Ġs waad
Ġt ig
Ġt yat
Ġt pal
Ġd um
un chi
ad on
Ġg ulo
aa hn
il um
ur uv
Ġw ala
ap ril
Ġsam el
Ġin hen
ri f
Ġsa chai
st u
aj u
Ġte es
Ġcha pa
Ġek e
va ala
Ġat ick
Ġpa her
Ġap odhum
ara wal
Ġva cc
Ġbad he
Ġmar pu
Ġlag eka
man ch
pp ichch
Ġsang ari
Ġkam aai
ĠB angalore
Ġkat ann
Ġkat isi
ba it
Ġak her
Ġthat o
Ġbal ika
ĠN CR
Ġrak hiko
Ġchal ata
Ġtam aaro
Ġgo es
Ġpak shan
alay u
ight s
ĠE kta
mar u
Ġsans krut
Ġvit le
Ġbhag am
we V
Ġur im
Ġkur an
Ġvat ine
Ġthir uman
Ġset s
Ġari mug
Ġtas viir
Ġnad andatu
Ġchat enduku
Ġkil ak
Ġnish nal
Ġnish chay
Ġgol f
Ġhosp it
Ġprasha s
Ġvag aire
Ġadhi veshan
Ġinc red
Ġmum m
istunn ai
ĠZ e
Ġshukra var
Ġdep artment
Ġlakshan al
Ġabhy arthi
ĠGo vernment
Ġrajan iti
Ġnann ai
Ġaakh ri
Ġbirth day
Ġvyaba har
Ġexecut ive
Ġmazab oot
Ġpenal ty
Ġimmedi ately
Ġgaves hana
j ur
k od
k ripaya
m enn
n uk
p he
p ass
p hes
Ġk hr
Ġt angs
Ġn asa
ak ud
Ġj ava
Ġj ord
han di
Ġl ij
Ġch hi
Ġc ens
Ġha us
and r
ic am
ol u
ol ution
hak ari
Ġdi er
ich an
und airunnu
hik aran
Ġar dh
Ġda il
bha ga
Ġor ical
Ġap an
Ġsan vidhan
Ġsan jaal
Ġi u
Ġsh uddh
end ram
yan n
Ġsak ar
Ġsak riya
Ġsar d
Ġmar und
Ġkal ypi
Ġag n
she tre
ĠT ex
Ġbhi chare
Ġak al
Ġsp ending
Ġwor ds
hay ane
Ġvad he
uti ful
akk ud
Ġghar aan
Ġz inc
Ġfa x
Ġtra as
Ġkh uran
Ġparis hod
Ġnar am
Ġanu bhava
hur ch
Ġter ms
Ġaat m
Ġyuv an
Ġmur ali
chat e
Ġteam s
Ġaas aar
Ġnaj rul
fi z
fa in
Ġadhikar ile
hing e
Ġsamb odhit
Ġnaan um
Ġadhikari yon
Ġgol ib
Ġnati ja
Ġtag ged
Ġtyas alai
Ġvishe sha
Ġraak hn
Ġkshetr at
Ġmamm las
Ġsn ap
Ġsamr uddhi
Ġsarak aari
sahit ya
tyaan chya
Ġsanvat sara
Ġaiti hasik
Ġpod hm
Ġwai fu
Ġvicha ars
Ġlend en
cr icket
Ġbhani ako
Ġshatab di
Ġexpl os
Ġdic che
Ġavasi um
Ġprev ent
role um
h ti
m ukt
n adu
p adi
w ik
w id
w aja
Ġ à¤
Ġk asar
Ġk ushal
Ġp ukar
Ġd ill
Ġd ila
ra jan
Ġn ayu
on de
Ġj ami
Ġch ota
ay el
Ġr edi
ap bodhu
ol s
Ġsa adh
ana as
di ya
Ġh ong
Ġche patt
Ġand uk
ok at
Ġat hangu
Ġvar he
Ġka isaa
Ġbe ini
uv idha
ĠS erv
ka am
Ġsar an
Ġsar panch
ĠT ur
yat in
ba z
Ġak hada
ukk an
Ġlak hyu
Ġsho bha
Ġye vave
Ġkan chan
akk am
ĠO ld
Ġsu bhash
Ġhat to
Ġniy aman
Ġsi ze
Ġmud iv
Ġ11 0
Ġroj gar
Ġsm rit
Ġgra phic
Ġbag al
Ġhon yachi
mel y
Ġmahin yaat
Ġsav agat
Ġdab b
Ġuni harule
Ġabhipra y
Ġkay ry
Ġprabha va
Ġmess ej
Ġdai v
Ġtax i
Ġlu x
Ġgoli an
Ġgod avari
Ġtali m
Ġsaras wati
Ġbadh ne
Ġshekhar ichit
Ġmanj ur
Ġshahi di
Ġmalyal am
Ġsig nific
Ġhud kale
Ġbiman band
vahi in
Ġincre ase
psm r
Ġdevar akond
Ġmanuk ha
Ġjuni or
onal do
Ġsitu ation
Ġchokk as
a zar
c ard
g aan
g ations
i as
i et
j val
l ot
n A
p ade
w hile
Ġt ate
Ġb ist
Ġg ada
han na
Ġch ill
Ġan ivarum
Ġkar so
Ġw ont
Ġo si
ic om
Ġsa wal
Ġy eti
Ġko irala
Ġcha in
Ġar ek
Ġya whili
Ġen ik
Ġat yar
Ġba hini
Ġap akat
Ġka f
Ġjan alai
Ġaap l
Ġsha hrer
ub le
ib at
are en
Ġsab ako
ĠC hina
sa am
hul a
chan ak
ĠW ashington
Ġpal an
Ġla un
Ġabhi v
ikk ad
Ġdesh na
if a
if ic
Ġprati bhav
Ġbi hari
uko vali
Ġpras asana
Ġpas hapashi
Ġkr ind
Ġshan kaa
Ġgun he
Ġwo und
ci um
Ġchand ek
Ġmaan che
Ġbhe da
Ġnie ch
Ġbak ud
Ġash leel
Ġprast ab
Ġvr ushti
Ġgha zal
apur vak
Ġdel ivery
Ġell avaru
isha alee
Ġekad in
Ġarr est
Ġpond in
Ġparay unn
Ġseem s
Ġtumha ari
Ġmulaa yam
Ġvimars hal
som bar
ĠGerman y
Ġaantar arashtriya
Ġmoul ik
Ġjathe band
Ġconsider ed
Ġansha grahan
Ġbath room
Ġmanab bandhan
Ġnirma ataa
Ġsahabhaag ita
Ġkarr wai
Ġbhaduka fu
9 6
R I
R a
b orn
c ong
l t
r ute
s le
Ġs indhu
at ukond
Ġp inarai
Ġa indi
ak umar
Ġl ila
Ġl ose
ik hal
ik ott
Ġkar mi
ir om
ed o
id ence
ud ge
Ġma it
Ġo ch
ang o
Ġpra athmik
ari ch
Ġde u
Ġe yes
Ġche haraa
ane pal
ill engil
ash ing
Ġam may
Ġup acha
Ġvid a
Ġvid es
kar ni
che et
Ġus hn
Ġhan g
ika àµ»
ba aki
sa ath
Ġsp otted
Ġlek hi
ĠG re
Ġchit rap
Ġbar amad
Ġex ch
so on
mar o
Ġsay d
Ġkon thrund
Ġkon ugol
Ġpura ane
Ġsant usht
Ġent o
Ġkod uk
Ġbhaj pana
Ġcoun trys
Ġpratik sha
Ġkart hik
Ġshiv sen
Ġgroup s
Ġmuthal il
Ġprogram me
nav s
Ġ198 5
Ġmalay sia
Ġsamit ika
ica àµ½
Ġchhan ot
ming ham
Ġpurus ho
Ġvend e
yang hi
Ġsamvid hayak
Ġsig nal
Ġbee maa
Ġchow k
ikip edia
Ġnampik y
ĠArtic le
T ho
W hat
e ya
k sha
n te
o tia
r ome
t hat
t ader
v y
Ġp own
Ġd ada
Ġv eshi
as wami
on j
il uku
Ġl is
Ġl ite
Ġl adan
Ġc ur
Ġc ore
Ġan b
Ġkar ch
ho g
el and
Ġma ani
iv ir
up ayog
sh yam
Ġy uj
Ġas akt
Ġek ab
Ġek hadyaa
Ġst hai
ine m
Ġya shasvi
Ġen coura
Ġat it
la h
Ġjan sankhya
Ġun ase
Ġaap ta
Ġit as
ter y
Ġnir yaat
Ġmo hui
oj it
wa ike
Ġsar ab
Ġtak ht
Ġtak raar
Ġmuk ham
Ġbal at
se c
Ġsad an
Ġval u
Ġlak e
Ġro ut
The se
Ġmil ti
anj hi
Ġchan ti
Ġabhi yane
Ġdr ivers
ĠU pd
Ġdal ka
Ġpura sk
Ġjari ye
Ġbab ar
Ġsabha pat
Ġkod udhu
Ġraaj e
muk hya
Ġkach h
Ġart hayane
Ġdh uk
Ġislam er
Ġprasha st
Ġvip lav
Ġjai pur
Ġkoll am
Ġshuk la
Ġvikas ka
Ġclai ming
athan gu
Ġstha git
Ġsambha al
Ġshir shak
Ġappe ar
Ġappe ars
Ġpark ing
Ġsod un
Ġlead ers
htt ps
Ġbadh dai
Ġchara cter
Ġtutang iya
Ġmega watt
Ġvayas s
Ġcheya bad
Ġdarshakt va
Ġviol ence
ĠQu ami
ĠGe orge
Ġsaham at
Ġhig hest
pratin idhi
Ġbadl aav
ĠChamp ions
Ġniojak varg
Ġphaay de
C o
E T
O ther
a wa
d ukh
d akshin
f ik
k hel
n and
p ind
in at
in ritu
Ġa ans
am ed
Ġd ram
Ġd idi
ya yu
on live
ak es
Ġr are
ir d
Ġo tu
ma unde
le i
om athi
Ġe uro
ate e
im er
Ġad uttu
Ġen kires
ank adun
sha w
ig an
Ġun aam
art he
Ġaap atti
Ġpat te
Ġpad ese
ĠS ha
Ġsak hat
Ġus da
Ġtar bodhu
Ġvich aran
Ġkam it
àµ¼ chch
Ġsad ka
Ġir upp
Ġtam u
Ġtam aru
ĠF ran
ĠF ree
Ġshik aayat
Ġbar ish
tan ni
vas a
sam vidhan
tic on
shak t
Ġbi er
Ġtra v
Ġafter noon
Ġwo od
Ġprab al
Ġkot utt
Ġfir yad
Ġpatt ik
Ġent an
Ġbana akar
Ġapp le
Ġkas ee
muk ta
Ġswar up
bb at
Ġkud um
ĠSt ates
Ġanubhav am
Ġpratisht hit
Ġrem ember
Ġsaad har
Ġjandi as
Ġmalay alm
Ġrupaiy yan
Ġty ati
Ġsiraj live
Ġsiraj onlive
sher eshth
ĠRe al
Ġdost on
Ġboy friend
Ġcre ate
Ġchrist mas
Ġcustom ers
achand ra
Ġexpla ined
Ġsamaro h
Ġkhila adi
Ġmudl ver
Ġsamaar oh
Ġhorn s
b istar
f ti
g urs
j iven
p ole
t alai
Ġk hana
Ġk ori
Ġk achi
Ġp iti
Ġt yar
ya sto
Ġv ile
Ġv anku
as v
Ġj ena
ik anu
Ġw ach
Ġw inning
Ġf aj
up o
Ġsam ach
Ġhe ar
od ha
aan k
Ġas o
Ġcha u
Ġek abar
Ġat a
Ġat lu
Ġvar n
Ġav utunn
ĠC art
Ġ3 50
ans am
Ġnat an
Ġdo ot
Ġlo ved
ĠN et
aaj ak
Ġnaa f
Ġmil ala
inn um
bad al
ĠG old
Ġgur mit
char it
ote a
Ġbar obar
Ġjar up
Ġshr ungar
Ġmut h
Ġshan k
Ġkap ada
Ġid uk
Ġnagar ne
Ġjag ann
Ġpradesh sabha
Ġev valou
ĠV ide
Ġvas ant
Ġvaa ice
ĠĠ ĠĠ
Ġnag gar
Ġtin ti
Ġgu zar
Ġnis hedh
Ġyas ale
Ġadhikar ik
Ġfal ital
Ġins isted
Ġol der
Ġbali al
uvar e
Ġpratisht ha
Ġadhi ap
Ġjaag tik
Ġkathmadon ma
nepal ama
nepal ko
bho g
Ġdhi re
Ġchang la
Ġippo rau
aaye in
Ġah ude
Ġsamsk rut
Ġoper ation
Ġmic ros
Ġpab itra
Ġjama at
Ġcam el
Ġkarmak rt
Ġthirum ani
Ġshubhak aman
Ġtex as
Ġnut han
Ġmantran alyer
Ġsamman it
Ġadit yanath
rita ins
Ġprinc ipal
Ġroz ulu
Ġsoldi ers
E N
O Y
b ada
j and
m ile
n ote
t ul
v ite
Ġs itting
Ġp y
al ale
al oki
Ġd alian
ra in
ad hil
it ako
ak art
il anga
han ai
ai yal
Ġha ste
ap eksha
Ġf ivr
Ġpar da
ri be
Ġsa ita
Ġdi al
te ma
Ġar k
Ġar ind
Ġad vis
ip pi
Ġap maan
Ġjan avya
Ġun chi
ash r
Ġja ine
ko ot
yan var
ham ile
ĠC ontinue
udd hr
oj a
Ġsang athan
Ġme j
ĠB ay
ba hu
par as
had er
ĠL ib
ush n
Ġik ai
Ġfr ans
Ġ19 70
Ġbat an
Ġlok esh
Ġmul ti
aman ya
Ġga z
Ġdiv or
Ġkad d
Ġshi ft
Ġshi bir
Ġvan chi
Ġres ults
Ġkh usi
Ġcol ej
ajan ak
Ġyah ud
Ġanu vaad
aro or
Ġthir un
Ġmodi e
Ġsap ad
Ġmun p
adhik aar
Ġmet al
Ġvai gyanik
Ġyas alai
Ġpaas on
Ġbhasha ma
ou is
Ġmang o
Ġaadhar anga
Ġnirm anka
Ġpash chaat
Ġsahyog i
Ġcond u
Ġtann ai
Ġkaryakram as
Ġmila ale
Ġshakt ishaalee
Ġkaryalay ma
Ġdaud aan
Ġmahanagar apalika
Ġviva ham
Ġjhaal yanantar
Ġbans he
Ġbaap u
ĠPort al
Ġpratispar d
Ġimpro ve
Ġpratinidhis abha
ĠRuss ia
Ġsimp ly
Ġtempl ate
ĠOp tions
Ġsaamud ayik
8 3
8 6
b be
b humi
d eep
i ed
k uti
an idhi
Ġp annu
in it
Ġa het
Ġa ishwar
Ġd ust
ra c
on er
ak istan
Ġj id
Ġch opp
ur ia
Ġr oll
et ic
ed en
ing daniki
Ġpar th
Ġpra av
Ġpra pt
Ġpra ctice
ol ut
Ġke ji
Ġsa hin
ish k
Ġas ali
Ġcha dav
Ġen ge
ug hout
Ġvar il
Ġvar tia
ĠC hil
Ġag al
Ġsang haka
Ġkam iti
Ġkam bin
Ġhas ya
Ġme gh
àµ½ kk
Ġjo hn
ĠN ov
ore a
Ġsp end
Ġchar am
Ġac tive
Ġgur al
Ġabhi vyakti
Ġbar sha
ikk unnat
ja at
hum esha
Ġsur round
Ġvyav harer
Ġtra ilar
Ġkr upa
Ġjag ga
Ġprav ritti
Ġhal ake
Ġsid dhar
Ġsarv ottam
Ġkot a
Ġenn tan
Ġiv an
vin im
vir onment
Ġner it
Ġswar na
Ġmaha dev
Ġpahun chaa
usht hu
Ġrajya pal
Ġpratik shi
Ġmukhya prishth
Ġkahe vu
ĠLe ave
sw ami
Ġkshetr on
jee van
Ġvisha al
Ġprof ile
Ġtelus a
Ġparya apt
Ġchud aai
Ġfeel ing
Ġlyo une
Ġtuj hya
Ġprekshak ul
Ġmanju ur
Ġbayat aku
ĠAf rica
Ġmantran alaya
Ġcompet ition
Ġinterv yu
Ġyathar th
shukra bar
Ġstru ck
Ġviz ha
Ġpushpak mal
b hane
j aan
j inhan
k haleel
k endriya
s arkar
y umai
Ġt elling
Ġb rit
Ġn apar
Ġg ach
ik han
Ġan iy
Ġan anda
Ġr anda
Ġo chhu
Ġsa ang
Ġna far
st ers
Ġko vind
att ak
ve g
ara cha
Ġjan aab
Ġkaa ga
Ġsan jh
Ġi ho
Ġpad hane
Ġbad dal
ĠS er
ij ay
ow al
Ġkal and
uru uvaar
yat oon
ĠI d
pa ce
Ġnam p
Ġdis un
Ġwe ather
Ġsamay t
Ġla h
Ġ9 3
Ġkhar i
Ġtal ash
Ġmari ch
uko vacchu
Ġcar bon
Ġjiv aner
Ġsaha je
Ġvic haaran
Ġpaa eka
Ġbaa zaar
dar ek
15 0
Ġnad ee
Ġich charu
Ġvast ra
Ġpri yank
Ġbhul e
Ġjet la
Ġther indu
Ġkahe vaaya
Ġjhal eli
vish w
Ġkid s
Ġtader ke
Ġkhaas adaar
Ġuj wani
Ġkall u
Ġini u
tel angan
Ġpab andi
cu it
Ġorder ed
Ġkshati grast
Ġdind as
ippat ike
ĠMo vie
Ġstra ight
Ġdoos raa
Ġgunt ata
Ġsava al
Ġparava angi
Ġspash ta
ĠTex as
M ore
d ow
f un
g ud
g od
g ro
h ne
l ela
l ike
s as
y and
Ã ©
Ġp ele
Ġd uty
ra ine
as aan
Ġg ap
Ġg ond
Ġha an
Ġan is
ek um
har t
Ġr oshan
Ġw ild
ri yata
hal aa
Ġy udh
st ri
ta àµ»
Ġcha mat
Ġar uk
Ġman ap
Ġman atil
Ġat war
Ġat ans
sha v
Ġpa han
Ġvar am
Ġvar us
op ar
op hi
Ġkaa fi
Ġsh uddha
ars a
Ġpat in
Ġvid haan
Ġnir dhaaran
Ġav utundi
Ġsab a
Ġsab oot
Ġmar u
Ġmar riage
Ġkal ekshan
Ġsw ant
Ġbhan in
bar er
Ġval ue
ayan iki
Ġaar ad
app ed
Ġvit haran
Ġdon lod
Ġent u
Ġhon ya
Ġwould nt
Ġdig ati
Ġabhin eta
Ġmahar aja
Ġart han
Ġtad ai
Ġ199 7
Ġlav akarch
Ġasl eli
Ġchandra bab
Ġstart ing
Ġkrit i
Ġprer it
Ġparv ati
Ġface book
Ġabhiman ulu
Ġmatap ita
Ġmujib ur
Ġakhar ee
Ġvishwagianako sh
Ġaaba adi
I s
b A
h ro
r oll
t yar
v eshi
ha are
Ġs àµ¼
am em
Ġb angal
Ġd anni
hi pp
as ia
ik ala
Ġha is
Ġw onder
Ġf ab
id es
ag adi
Ġpar ibe
Ġhe n
Ġhe avy
Ġsa jal
Ġho vo
Ġy os
Ġbha ash
Ġvar as
ram ane
Ġup av
ist ani
Ġit ems
ro yad
ĠC op
Ġal uv
wa hi
Ġag reed
Ġpo orn
Ġhun uparne
Ġkat ta
Ġaav eli
Ġdek hav
Ġlak hon
Ġso hi
utt an
Ġ19 60
ĠG reen
Ġga er
jan o
Ġall er
Ġpras aaran
Ġsun i
Ġant ari
Ġnan ber
dd uk
Ġbab uram
Ġwa it
Ġkhel ne
Ġvig yani
Ġmon itor
Ġkaarykram ako
Ġket o
Ġnumber s
Ġsent enced
Ġnirm anko
Ġfais alaa
Ġver ma
Ġdot akam
Ġlif estyle
Ġwaàµ¼ sha
Ġdang erous
Ġspard het
Ġtonn unnu
Ġkabar aan
Ġtapain le
Ġgaa un
wadi as
Ġnashi as
Ġnotific ation
Ġmadhe si
havin ya
Ġfeat ures
Ġjanmad in
Ġvers ion
Ġviya pe
Ġkarad and
Ġshabari mal
Ġanves hay
Ġmahavid hyalay
Ġsheers hak
Q u
d ut
d ini
f ast
g ho
m ada
n icks
p A
s ub
w atech
y alo
Ġ x
Ġk ub
Ġp aga
Ġt ube
Ġa iya
Ġm enu
am ir
am uk
Ġd ond
Ġj eni
Ġg og
aa bar
ik ing
Ġch art
Ġch if
Ġc ement
or ical
ut ia
um ulla
Ġra so
ag ap
Ġo dd
up it
Ġsa ano
Ġh ond
Ġbha yankar
va han
Ġat la
ni ma
Ġpa hayla
Ġvar un
Ġka hata
Ġam dani
Ġbad ikk
Ġbad alan
kar ta
Ġmo ving
ĠS and
che avar
Ġchha ya
Ġsak nu
Ġmar osari
Ġlag ate
Ġlag aya
Ġlag abhaga
Ġprad eshik
Ġhun dia
Ġhun asak
Ġvis hes
Ġu àµ¾
Ġbal che
Ġrak kam
Ġchal ati
Ġsad hyam
Ġper m
Ġish noo
mat es
po o
Ġbar ad
yal ani
Ġ9 1
amp le
Ġthan di
atil le
Ġmag han
Ġsi wal
Ġparis raat
Ġur du
Ġsant haan
Ġnak aaratmak
Ġkit ni
Ġsap ort
Ġchak kar
Ġrashtra vaadi
Ġteen ager
Ġcho up
Ġsr ist
Ġaga u
Ġdh vans
Ġnit im
Ġfound ation
go ing
Ġnati jaa
palika co
Ġjhal ele
Ġjhal ela
Ġdhe ra
Ġduk ha
Ġ207 3
Ġub he
Ġfol o
Ġvisha yam
ownlo ad
Ġvek hy
kr ishi
Ġtit he
Ġsai yad
Ġben che
Ġbes arkari
Ġwalk ing
Ġthirum ana
Ġshrik ant
Ġfur maunde
Ġmula akaat
Ġaikya f
pratin id
Ġie athe
Ġsipi em
Ġmajab oor
ĠIslam ic
aramb hik
Ġparibe han
D o
U T
b hik
d he
k ay
k ark
m ann
o uku
r iv
Ġt iv
Ġt up
Ġt aare
Ġb iti
Ġb low
Ġv eng
Ġv apak
ad ing
er r
Ġg yas
Ġl ungar
ik hi
Ġch ii
Ġc ulture
Ġha vi
Ġkar ang
av ita
el p
ap ana
Ġf ant
ab ela
Ġthe ke
Ġpar m
Ġpar shv
ic hat
Ġsam pr
Ġpr ithi
Ġne ck
Ġad utt
ni e
Ġpa x
Ġjan akari
Ġja hira
hit o
Ġit a
Ġpad yo
ĠS ur
ham aare
ĠC C
ĠC hurch
Ġal bum
Ġmar indi
Ġkam are
Ġbhan eka
Ġkat hana
Ġpur ba
par ya
Ġpol ing
ukk al
Ġdar myan
Ġgur inar
Ġbas n
Ġga am
Ġkhan dan
Ġbar u
Ġz ab
Ġkon tu
raj dhani
Ġnepal iko
Ġpura ano
Ġparis u
Ġur f
Ġann ai
Ġkhabar en
Ġgu ide
Ġcont rovers
Ġmadhya pradesh
Ġast itv
upp am
Ġved uk
Ġekad ash
nir vachan
Ġvann at
Ġrach yit
Ġvyavas ayi
Ġghen aare
Ġchhan goàµ¾
Ġprob ably
Ġintern ashnal
Ġsaab at
Ġsign ed
apatt uldu
Ġevent ually
bhaj pa
Ġkark hana
Ġvyaktam aki
Ġsqu ad
Ġjanak apur
Ġaya àµ¾
Ġuha anko
Ġens ure
Ġpraatham ikta
Ġkambin eshan
Ġchii z
N ot
P e
Y a
d ee
g andhi
n ok
o ctober
v on
y ir
at at
in agar
al yas
Ġm ung
Ġv edan
er an
Ġl ips
ik alai
Ġw illi
id il
aar u
ant ak
Ġpra ant
Ġpr etty
te ak
Ġte chch
hik unn
Ġaa fain
Ġek ikrut
Ġst ori
Ġat ali
ind ni
var shi
Ġtha le
Ġal age
ans ang
Ġlag oune
ĠA tom
Ġcom mer
ers ey
Ġvish ram
Ġper form
Ġso up
Ġdhar ave
Ġpe et
Ġta o
Ġgur ung
Ġdur e
Ġabhi muk
Ġkhan ij
Ġdr op
Ġmal yala
sam bhav
Ġjha ad
Ġkr is
Ġsup rink
Ġres ort
Ġpradesh ko
vin ya
yav astha
Ġlaga ako
Ġgam n
Ġnick t
Ġdid hu
Ġrat na
Ġsy ter
Ġraat re
Ġ199 4
Ġpass ed
Ġele ction
jee v
ukond u
Ġchah unda
Ġaayojan ama
Ġprof ession
Ġcongres na
Ġtechn olog
Ġpher far
Ġbaalak one
Ġnivas ee
Ġwand um
Ġnetrut v
Ġcost s
ivr ukkum
Ġdevelop ment
Ġhold ing
Ġamy char
Ġzakh mi
Ġvaish vik
Ġmudiy ath
Ġjagad ish
Ġambul ance
Ġopportun ity
Ġgunvatt ta
Ġseye um
I A
b ie
f it
g em
h de
j aar
l ama
p han
r ot
r utt
z y
ar up
Ġs low
in st
in apatra
am andi
Ġn ia
Ġn akh
ak hat
aa yaa
es ham
Ġl ena
Ġl ower
ut ed
Ġkar tarpur
Ġw ashington
ir t
ud han
ma hil
Ġpr uthak
hal anki
Ġdi haade
Ġh uda
Ġas ai
Ġas ankhya
Ġgar in
Ġun cha
Ġit e
Ġvid hana
Ġpad art
Ġnir dhar
Ġbhar te
che en
Ġraj doot
man er
ell um
Ġkha y
Ġkha wa
ĠB ill
bar d
Ġjo bs
Ġban yo
hr uma
Ġmuk at
se ptember
ĠN or
Ġro sh
ĠR ec
iya du
Ġmil nar
Ġlok oni
bad u
akk ad
Ġviv ars
po in
Ġdes ai
hum a
Ġim am
oon hi
Ġbl g
Ġgari eka
mo us
Ġkr id
ire ctor
Ġkarn atak
Ġhajaar o
Ġkol la
Ġbaat cheet
Ġraa hil
Ġkarva ana
Ġplay r
Ġtri bhu
Ġvai es
Ġari ya
Ġhind ut
Ġpich hon
Ġatt end
kum aar
Ġmahas achib
Ġhaath ma
Ġ199 5
Ġcall ing
Ġlim it
Ġmor che
shr unkhala
Ġniyantran ama
Ġhapp en
vya pi
Ġsul ab
Ġcut s
Ġnird haarit
Ġdra vid
bari mal
ĠAnd rew
Ġummed wari
Ġavas ani
Ġsem if
Ġrim ek
Ġnakshat ras
cast le
Ġhig her
bour ne
Ġpraadhik aran
Ġpraadhik arn
ĠPrin ce
Ġidenti fied
Ġswabha av
Ġilaj or
Ġpadaad hikari
Ġthaa un
Ġsuh ritt
Ġflip cart
Ġaashwa asan
M ar
c ation
k em
r ane
t ani
u àµ¼
v all
ar und
Ġs eti
Ġk hon
at ives
am am
Ġb saint
Ġd aniki
Ġn urse
ak ku
Ġj and
Ġj avaani
Ġj ustice
Ġc ad
Ġc ategory
Ġha u
Ġw es
Ġw ide
Ġpar lam
up pu
Ġsam rajya
Ġin p
Ġin er
ot tu
Ġto ch
sh ulk
Ġna h
og n
Ġar aji
Ġman aku
Ġap lik
Ġun tak
var am
Ġpad mati
yan s
ĠM att
pat ni
Ġus le
ht aa
Ġkha hira
Ġaav ahan
Ġban eka
Ġpol l
int ak
Ġshar ed
Ġkaran le
me g
band hit
Ġdis cover
ett in
Ġlok sabha
Ġkan ug
Ġtya var
Ġed havatu
Ġsu cha
Ġtir ichu
Ġbol ee
Ġgat an
Ġbij ep
Ġanek as
Ġday er
Ġantar jatiya
Ġkin are
Ġpach and
Ġdab aav
Ġchey ali
vik as
Ġshabd on
Ġshun ya
Ġsamb hali
Ġpratis aad
dhar m
Ġsansad ma
Ġbala ck
Ġphot ol
Ġparivar aan
athan al
Ġkharid an
Ġchang li
ipur na
Ġalle gations
Ġprashik shak
Ġprof essor
inchal i
Ġiste mal
Ġvina yak
Ġtapain ko
Ġjhaal yane
Ġconcern ed
Ġpint un
Ġhund reds
Ġloktantr ik
Ġpalgon nar
Ġbrak ing
Ġhanm esha
Ġsuppor ters
ĠArch ives
Ġperforman ce
S c
g ic
m id
s idi
t ham
t ake
ha ane
al ela
Ġt antr
Ġd usht
Ġv s
es hir
ik ama
or ic
ut ing
Ġha ke
Ġkar l
Ġr ali
el der
um antri
ic ipal
ant ai
Ġpra pati
Ġpra jas
Ġe ither
od hya
ish ri
Ġbha yam
Ġcha di
va ana
Ġpa aki
Ġor upat
Ġka cksab
Ġi ja
Ġsha san
Ġmo un
ĠS ex
ka ani
Ġut hi
Ġut ari
Ġmad rasa
Ġsak nuhunch
Ġal avu
Ġsar war
Ġcom bin
Ġsad hana
Ġrahe li
Ġnam as
Ġham id
Ġband ai
Ġlok ona
Ġlok oe
ĠG od
ĠG lo
Ġvik at
Ġdur it
Ġdur ga
Ġdiv a
Ġyo ure
si il
Ġfa cil
Ġsamaj ha
Ġim pact
Ġdev ast
Ġvan as
Ġes timat
hm ud
Ġnas un
kaa ga
Ġarth vyavastha
Ġtab hi
Ġtis are
Ġdab l
Ġket li
Ġjis kaa
Ġsag alya
Ġprasha sak
Ġass osi
Ġduk aan
Ġasl yaas
Ġkrish n
Ġq arar
àµº s
Ġhos patal
Ġsug gest
apradhan mantri
Ġstand ing
Ġkati pay
Ġtit ill
Ġmem orial
Ġinf lu
Ġsall am
Ġchok he
Ġsoll um
Ġprote ct
Ġnagarpalika co
Ġdra w
Ġpraj n
Ġung ans
Ġprahar ico
Ġbhuk amp
Ġjhat ka
Ġjakh mi
ĠTag ged
Spe aking
Ġgurtimp u
Ġmuyal chi
Ġgaaya b
9 3
P S
d ab
f ra
m aster
s us
t lo
at ani
Ġa ayu
Ġm r
am hi
Ġb le
Ġb iss
Ġd ating
Ġn rit
Ġj ank
Ġg on
Ġl iha
Ġl anguage
av ala
uk ala
Ġra ise
ud ed
Ġma yad
Ġpar h
Ġpar yavar
Ġy ukti
od er
Ġh ing
ane y
Ġas ant
und an
Ġar umay
Ġst h
Ġya ach
Ġgar chhu
op ad
Ġjan en
Ġup karan
ist ing
Ġbe coming
uv id
Ġre ating
ite j
ĠS pe
ĠC enter
Ġal avill
Ġraj e
Ġpan ulu
Ġud ik
li fe
ran o
Ġsat yan
Ġrahe vu
Ġnaa ch
Ġlek hana
Ġvad here
Ġsarkaar ka
Ġbharat va
Ġbar aabar
Ġje vo
Ġdiv sa
Ġed uk
sam et
Ġkad ani
vid hya
Ġet hut
ord s
Ġaw th
mal yal
Ġvach chai
Ġpram ada
Ġmod els
Ġnan bars
Ġparis hade
Ġprav eshi
Ġnil amb
Ġmadhye i
Ġkol hapur
Ġsahit yakar
Ġson th
yank o
Ġvak tav
Ġmark s
apur v
Ġkach inju
Ġing raji
Ġsampark it
Ġadd ing
Ġfal aphal
Ġparam eter
cent re
Ġshu bhar
Ġsudhi ma
Ġbali ud
Ġyadav ale
Ġdand ie
istr ation
ikari an
ared di
Ġcell sum
Ġtheri avilly
Ġmakas ad
Ġmahi ma
Ġsachiv alay
Ġagra ha
avark as
Ġvaag ye
irk ala
Ġaatank waad
Ġdast ave
Ġbahin ir
Ġjign es
abet es
ĠMilib and
D avid
S te
V IDEO
o a
r ation
u is
v ide
at y
Ġt asa
Ġb ish
Ġd utt
hi o
Ġn ation
Ġn attu
Ġv ene
en si
il anti
Ġl idha
Ġch hangute
Ġan am
Ġr ot
ir ikkaa
ap ey
ap rasad
and on
Ġf ot
Ġra ut
ud hum
ic ate
Ġke e
Ġho pes
Ġad arsh
Ġda fa
Ġgar mi
Ġman ma
em p
Ġbad ma
Ġbhar aa
war ik
ĠC ons
Ġmad ras
Ġmad dat
Ġtha ine
Ġtha vani
de c
Ġsar jan
pp ak
yas ka
Ġpo cket
ĠI tal
Ġ5 0000
Ġpur an
du ii
hul e
Ġdhar ana
ĠR os
ary ana
Ġ10 2
Ġdur upyog
Ġpal k
Ġfo ol
pi es
Ġhad is
Ġtel ip
so c
ĠK erala
Ġkav ali
bh ukt
Ġsaf ari
Ġshr ireddi
Ġjag ha
Ġkur ch
Ġkab a
Ġtem per
asht ri
istan ce
Ġkhe te
Ġvichaar o
Ġchala un
Ġpri mary
ipi el
Ġker lam
Ġol k
Ġkart avya
Ġmahil ako
200 7
Ġsl ide
Ġbro w
Ġsaak shaat
Ġabhy art
Ġaushad h
Ġsadas y
Ġthay el
Ġhira asat
Ġpull ed
Ġpaud elle
Ġatya are
Ġpreran atmak
Ġsart hak
Ġprog ress
Ġdakut hal
Ġadhiap ks
d anto
g ana
g re
i hnas
k aari
k het
m aye
n ame
n antar
o in
p ako
t le
t ane
w ill
Ġ 00
Ġk uni
Ġp ement
in ated
al ek
Ġa urangabad
Ġm art
Ġb rid
Ġn eti
ya pad
er ia
Ġg hut
il oni
Ġch eta
Ġha sta
Ġan ura
Ġkar v
Ġkar ish
Ġkar yad
ay irik
ag le
ud t
Ġma ano
Ġo di
ic on
Ġpra vach
ma x
Ġin no
Ġy ekhane
Ġdi un
aj pur
Ġas us
na àµ»
Ġst eshan
Ġgar di
Ġman il
ara e
Ġit el
ĠS al
Ġsab ailai
Ġraj nit
Ġraj marg
Ġlag adi
Ġkal ank
Ġnat istunn
Ġme ant
aya h
àµ¼ nnu
Ġjo sh
Ġprak riy
Ġdhar i
ran ni
alo om
ĠH ill
Ġband s
Ġwe ar
co urt
Ġgur utar
Ġno i
anj e
Ġz ikar
ĠE arth
Ġmal k
qu ot
Ġkad aa
Ġthan ks
uko vadaniki
Ġsi es
Ġcar por
aap ako
pak ad
Ġjari ge
Ġpot anu
Ġer bat
Ġuttar akhand
Ġnak aar
Ġfir ed
Ġvas u
Ġmaam alon
Ġchepp ad
Ġsub ia
Ġdekh bhaal
Ġkod uddha
Ġank hon
Ġtas ave
Ġket la
Ġlaa e
iman ram
Ġnirva hist
Ġland on
Ġchunaav amaa
Ġlin es
Ġksha ma
Ġkaryakram ulo
Ġvyapaar ee
star eey
Ġben ati
Ġticket s
Ġsarvas hesh
Ġnird haran
Ġparya avaran
Ġwad ha
Ġteli aj
Ġnyaayalay at
Ġphotograp her
Ġalong side
Ġedu um
ĠWilli am
Ġocc ur
Ġrasul ullah
ikr yog
Ġjyot ish
Ġnakk ich
Ġpurva adhar
Ġnasak ne
Ġpariw esh
ĠMad rid
Ġdeuv ale
Ġextre mely
Ġchaat ro
Ġmys elf
Ġasho ka
indran ath
b urg
c ell
d alil
i or
m ee
o one
r ya
s ath
v av
v yap
w all
Ġs hy
Ġs ele
Ġk uld
Ġk reed
Ġp hu
Ġp isi
in ne
Ġt us
Ġt ithi
Ġm ote
Ġm anta
Ġb ard
Ġd y
he m
Ġg ugul
Ġc amer
or ry
Ġan ukunn
av ay
el in
el ess
ap rati
Ġra shya
Ġma atar
ma hal
Ġsam me
Ġne hm
re ya
Ġko hi
Ġcha ay
Ġek mek
Ġad ut
ank hyak
Ġman uke
Ġvar ang
ĠS ky
Ġsar b
man y
Ġtar al
Ġkal pan
shan ibar
Ġtak kar
ĠP atr
àµ½ pp
ĠI ts
àµ¼ shan
Ġaav o
Ġlak ho
Ġpun r
ike a
Ġchit rik
Ġbar ishal
Ġmal ti
eri an
Ġmot u
Ġsank hy
Ġtir th
Ġsur jit
Ġtal ams
bo o
Ġ0 18
Ġti ari
Ġunn ayane
Ġvij yap
Ġpura b
Ġsun w
Ġsud hir
Ġres cue
Ġfar am
Ġfar uk
Ġnan us
Ġparis ho
we b
Ġbij li
Ġtamil il
Ġgho ta
Ġindia àµ»
Ġgram er
Ġnij e
Ġgha ti
upp il
Ġatt ention
Ġsit es
Ġlya un
Ġbhu j
Ġreg ion
Ġparam atma
Ġsut ar
Ġfat wadias
Ġdos hia
Ġpuch hatt
Ġadhi apak
Ġsthal am
Ġsandar bhama
Ġkangras i
Ġwast endi
gus on
Ġwaàµ¼ gg
Ġkamish ner
Ġprajal ku
ĠMc C
Ġaand ol
Ġmuluk ako
bag h
bhit ra
Ġjhar khand
Ġshaher ma
Ġbee maari
pach hillo
Ġrepor ters
Ġemplo y
Ġachi e
Ġsahakaar ya
vaid hanik
pancha yat
Ġpound s
otion al
Ġprotsaa han
Ġdefe at
Ġappearan ce
ĠBra zil
Ġarimug ham
A K
I ve
d hya
g àµ¾
k ish
k yon
m all
p all
r her
s ati
u chal
z ens
ha pat
Ġt ender
Ġb ell
Ġv arku
it ho
Ġj avu
aa van
es co
Ġl il
Ġc ist
ap it
Ġf reed
Ġra av
Ġra kaal
ag ues
ud en
ang ans
hat ya
Ġar das
ee ya
va ik
Ġat an
ala zar
os c
Ġi mail
ro z
Ġsha ms
Ġnir up
ĠM er
vi j
ann ga
Ġtha vaan
Ġsar ok
ht hi
ĠI nd
pra v
ĠN a
tra khand
ĠD is
ĠR a
ĠR od
Ġfr and
Ġgo v
Ġsarkaar i
akk unnu
vad hu
Ġmal wa
mar athi
Ġvan ch
Ġpot ential
Ġay yar
Ġmaan vi
Ġnil k
Ġath let
Ġsharir ma
Ġparam pra
Ġutpa ada
Ġkaay da
Ġghet aa
Ġpant hak
Ġhav aman
Ġpoor an
Ġprachar na
Ġsaaj ara
Ġturn ament
Ġaath vad
Ġprote cted
Ġcy cle
Ġsabhy ulu
Ġtelug udesha
Ġnatatti yat
Ġandr ide
Ġbea utiful
Ġsaydi es
Ġkhid aari
Ġboti il
abho om
Ġyut ub
Ġavya hat
ĠRober t
D F
a as
c ular
d om
j em
o ya
p ale
Ġs ons
Ġs erndu
at el
Ġt avan
ch hilam
Ġa hes
Ġa ustrali
am ara
ra him
ik ut
har ek
us hali
ab ari
Ġma cha
Ġpar ad
ic ated
ant in
ant tin
up reme
Ġde gaa
Ġy ekon
hak ya
Ġne end
st ate
Ġbha epani
Ġand a
re port
und airunn
Ġcha vaan
hik aar
Ġst hani
yak um
ee v
ank shal
Ġba is
Ġba hadar
iy s
Ġi maan
da as
ĠS il
udd her
yas ri
Ġnat am
ĠT om
Ġve gat
Ġkam ana
Ġu chal
Ġjo yu
ĠN HS
Ġrak hn
Ġud ya
Ġrup e
Ġpe ak
Ġnet ar
no vember
Ġ9 2
Ġsamaj ase
Ġkr odh
be uro
Ġinter s
Ġvishw akap
Ġlik han
Ġbaa hri
ugh ters
Ġpatt ai
Ġsaa hiti
Ġwar ld
Ġnin ik
Ġdig gaj
Ġwat atan
Ġfl ag
Ġdik hai
Ġmantr is
Ġlya eko
Ġreg ist
Ġsaj iv
Ġpre gnan
Ġthro ughout
Ġasl aa
Ġgate en
Ġpla ces
Ġshast rav
Ġpack et
ikunn av
Ġphul e
Ġpraband han
ĠCo ast
Ġdef ence
Ġlif t
Ġmotor c
Ġmanav ars
Ġpip e
Ġghal un
Ġmhat lan
Ġpratir od
ĠPar is
Ġviol ent
Ġhrid aya
Ġyach ika
Ġchhab ite
Ġrespons ible
Ġshwadhin ota
Ġfly ing
Ġparticular ly
Ġbarn ana
Ġsansk ruti
abhit r
Ġjatheband ia
uddhr uti
Ġpratispard haa
O K
a co
b aan
g ik
g ay
h v
o V
p se
p ote
y Z
ar j
at ors
Ġt ie
Ġb inn
Ġd amak
Ġn une
Ġn rity
ad de
as halu
en jal
aa cha
Ġl unch
Ġch umb
Ġkar dia
Ġr itu
ul ya
ul ia
Ġo chha
Ġpar ung
Ġpra yam
ma h
Ġke va
ot ti
ari ya
Ġho da
Ġpr ost
Ġte mano
na cha
Ġhi cort
Ġar med
Ġst ress
ata il
ham ani
ber y
Ġpo e
ĠB ritains
ĠI S
hr in
Ġdin ik
Ġso y
Ġpun ji
Ġpe en
ene ws
mad u
hn er
je et
vas hesh
Ġmal uku
kal ak
Ġches ukuni
Ġsand ip
Ġjar oor
Ġpas al
Ġbol an
asi an
Ġsamband ha
attil le
Ġes pe
Ġvic itra
Ġbhag wat
Ġbhag amai
Ġchand rak
Ġwa iting
Ġaj h
ĠV an
Ġpatt ark
chak ar
Ġhon ap
Ġbadal te
Ġank hen
Ġkang res
Ġbait hi
our s
Ġkram ank
Ġsus pic
anya chi
Ġchad uv
Ġabd ur
Ġ198 9
asam bandhi
oc ol
Ġmir ch
mark et
Ġrep la
Ġcell s
Ġnote bandi
Ġchem ical
Ġrast yavar
Ġawa as
Ġrag hav
Ġvisit ors
Ġkeral atil
Ġchait anya
Ġganat antr
Ġangare zi
Ġmahatvach ya
ĠTho mas
Ġjamaan at
Ġviksho v
Ġsuchanaa o
4 00
9 2
P ro
R T
b ek
b hum
g ale
j uly
k all
l ul
l uj
ar r
in en
ch inn
Ġa ast
Ġa ota
Ġb right
ra van
Ġn ishan
aa hit
es on
Ġl osing
ut ak
Ġha zaar
ir y
ed in
Ġf air
Ġra z
aar th
up ra
Ġde mon
Ġbha a
ug alin
sha ah
Ġpa uras
em ari
ura j
uv enti
Ġbad hati
Ġav aman
ĠS tar
ĠC inema
Ġchha bir
Ġfor t
Ġraj nikant
ij ing
Ġsar car
Ġmar yad
man it
Ġtar ek
Ġprat ity
yas ama
Ġkam ala
yat tiàµ½
pra bhut
ba zi
Ġmuk har
Ġvik ars
Ġpart n
Ġtya ach
eng u
Ġed ir
bo x
Ġsi i
Ġbol at
ĠU ni
Ġmod at
Ġchand o
Ġbaj at
Ġbaj aiya
Ġul anghan
Ġcol e
Ġpaa han
Ġmaan vadhikar
Ġer ut
Ġbataa eko
Ġvaa chaa
Ġran er
Ġkis im
Ġbh us
Ġpit ishan
fi elder
Ġkang iras
Ġsk ia
Ġaan ch
dr ens
Ġsampad an
Ġprakas han
Ġchir main
rib an
Ġpug n
Ġmangal war
Ġgri hith
Ġkahin da
Ġsri rak
Ġdub e
Ġuplab dhi
Ġbali yo
Ġjanm din
Ġbhad ra
Ġdus raa
Ġgav is
Ġappati e
Ġinclud es
Ġvikip edia
cti v
Ġdai e
Ġghad li
Ġthal eka
Ġprot est
Ġjap ani
Ġuts uk
Ġwatch ed
Ġraakh va
Ġgup t
Ġparas par
Ġcab anit
Ġlaw yer
Ġpech uv
Ġtrad ing
Ġassoci ation
ĠAs soci
Ġgrifat aar
Ġvarshat hi
Ġcomplet ely
Ġkich huta
Ġgrow th
Ġgolib ari
Ġerbat um
A D
A G
E M
b ast
c haka
g hi
j ari
l amb
m uri
n ale
t utr
ch ol
ch had
Ġa cks
Ġm ia
am ill
Ġd rag
Ġd ream
hi ma
Ġv ela
it ivi
as ng
en ya
Ġl aane
Ġch ura
Ġan upp
av att
Ġr atan
Ġw heel
ir ing
ed ike
ap odhu
um ak
ag adhi
Ġto sil
Ġsa ata
hak u
Ġne eru
Ġhi ve
Ġar thi
Ġar ambh
Ġen ak
Ġgar en
Ġat iv
sha bd
Ġap olog
Ġam in
Ġup ek
var shik
Ġi ma
Ġsha hare
ĠS ub
ham en
ib ad
ile an
ĠM ary
ĠM ex
ĠM artin
Ġag enda
Ġnat at
ada at
ĠT hat
ĠP arty
ĠB rit
ba har
Ġchal ana
Ġlak hi
Ġpun j
Ġco ck
Ġcl osed
Ġvir am
ras i
Ġghat an
ĠE s
Ġdiv s
Ġjee p
Ġmud ia
Ġbho li
iri er
isa hit
Ġur uvak
aksh ina
Ġmaan il
Ġhajaar on
Ġer vu
Ġase hi
Ġter m
Ġvil yad
Ġkarm asuch
Ġmuj ic
Ġgu uruuvaar
Ġank ho
Ġswar asht
Ġjit endra
Ġsaman yaat
Ġsharir er
Ġtest s
des her
Ġnati je
Ġaali ger
Ġpass word
Ġcinem all
fic ation
nir vach
Ġkarab o
Ġvyat yast
Ġmaansik ta
Ġshakt may
Ġfel low
Ġama zing
Ġgut ai
Ġprachand le
Ġkuf ibb
sans ad
Ġnasal yane
Ġshahra at
Ġreach ed
Ġmrut ade
Ġrashtr alo
kaya irunnu
Ġvaap asi
Ġsoci ety
Ġdiare ctor
Ġupacha arka
Ġtribhu van
M c
c am
d ho
g att
s ya
t ek
v eli
w aaz
ar is
Ġs na
Ġa enu
Ġb hur
Ġd hia
ra shi
Ġn attil
he y
un s
Ġg om
Ġha ani
Ġr ath
uk hir
ap oll
um at
um all
ag ri
Ġo h
ang ar
ol t
Ġsam rik
ri ma
Ġsa hik
Ġy antran
ich and
re a
Ġko raku
Ġcha hun
Ġst udio
ama at
Ġya i
ind hal
Ġun aku
Ġup mahanagar
Ġit ival
Ġit uvare
Ġsh ukar
ro hi
Ġpat y
Ġpat angas
uv adu
Ġre po
Ġnir od
yan mdhye
ka il
Ġmat ru
Ġmar un
Ġmar ad
Ġlag ada
shan ti
nu bhaeko
yo un
yat o
Ġshe l
Ġshe ti
Ġjo ti
Ġsad kama
Ġaf gan
ĠD istrict
hul ku
Ġik o
ĠH ot
Ġtr end
Ġmul tip
aav ashyak
Ġla o
ĠO lympic
Ġdr opped
Ġet e
Ġsaf t
Ġbho le
Ġunn ati
Ġinter phes
Ġbaj aae
Ġvishw ak
Ġparty ki
Ġmas k
tam od
Ġcompan iko
ov ada
Ġlab hyama
Ġsal es
Ġantar ik
Ġqu ali
Ġtis ukuni
Ġcont et
vis hayi
Ġchey thir
Ġnim na
Ġjin hen
Ġpuj an
Ġcal ela
Ġcal endar
Ġvip arit
Ġca using
Ġtag in
Ġghe ne
Ġdho kaa
Ġnirm iti
Ġbre ath
olog ical
Ġmiss ed
Ġprabhav akaari
ukun enduku
Ġchod icchu
ĠRe view
atte ak
Ġprant all
Ġchunt anima
Ġkahan ia
Ġander on
Ġparaj ay
Ġvidud alan
Ġshock ing
Ġwrit ten
Ġnavar atri
Ġgara eko
Ġswim ming
admin istreshan
Ġinters rasht
8 7
b ub
j on
k rish
k ota
m ast
m are
n ga
o har
p hen
p alli
p edd
s ung
t ur
t antra
t ethi
v ako
Ġ ign
ar asu
ha z
Ġs elling
al ag
Ġa ivu
Ġm ike
Ġv int
Ġv asa
Ġj ade
ik ki
ik rishna
ik kaàµ»
Ġch ita
or ity
ay irunn
ul aku
um n
Ġra ce
id as
up att
Ġsam adhana
Ġy atan
Ġe ating
Ġne war
te a
Ġte jas
hik unnu
Ġaa àµ¼
Ġar ast
all ing
Ġvar ad
Ġka hich
Ġjan ine
Ġis hak
Ġpad itt
ĠM i
Ġmat an
Ġmat vinim
est y
Ġnat app
Ġsw itch
ĠP eter
se y
Ġrak ho
Ġrak hade
sa ade
pur ti
Ġprak athan
Ġsho ts
ĠH oll
Ġwor d
Ġbat s
Ġbat in
Ġvir ud
anj ali
Ġghar on
Ġz e
ĠJ ones
Ġdr ama
vas he
Ġprati maa
Ġsamaj a
ikar aman
Ġtho k
Ġsaf ato
Ġsand es
Ġbho ter
Ġcent ury
Ġid uvarai
Ġes ai
Ġ14 0
Ġsid di
Ġmus a
Ġkur si
Ġfir ing
Ġvarsh on
Ġvaa chak
pu uran
Ġner ate
muk hyanga
Ġdid d
kam al
Ġpok unn
Ġven uk
Ġasal yamule
kh fat
Ġshu bha
Ġjhal ak
Ġway s
Ġbre ast
Ġsanstha apak
Ġsev ai
hang ir
Ġraajnne et
Ġpett in
Ġnayak an
Ġvidhyaart he
Ġnika ali
rail way
tum hi
Ġgold en
Ġnetrut ve
Ġnetritv ko
ĠCar ol
Ġdrusht ikon
Ġchalach chit
rashtra pati
yashi vaay
Ġsurvey kshan
Ġincre asing
Ġted in
inchabad indi
Ġnott le
maz ya
Ġdocum ents
Ġdeshan lo
Ġprusht ha
Ġprakal per
Ġtrib ute
Ġniyant rit
Ġayurved a
Ġrecover y
Ġpregn ant
Ġneuy ork
udil hi
Ġvidyab hyas
Ġnare eder
Ġhake ekat
udhum atra
b od
d ers
h vi
m ol
n ick
p y
s ali
t hen
v ina
y el
Ġ que
Ġp ig
in to
Ġt haru
am ter
Ġn indu
is y
is od
Ġj ande
ut ub
Ġha ali
ho st
Ġw ag
uk uti
us hes
and il
Ġra hil
ud wara
ud elhi
Ġma hap
Ġma wat
Ġpar eko
ic y
ic ian
ang ik
Ġsam muk
Ġin na
ani o
Ġy ara
esh wari
Ġek amatra
Ġad yamai
Ġman ish
Ġvar ga
Ġvar shatt
Ġka hilai
Ġva il
ĠS u
ĠM ag
ka at
Ġut an
udd an
ess ed
Ġus av
Ġtar u
pp oàµ¾
she pan
Ġnat ai
Ġsw eet
Ġve en
yat u
Ġchal de
Ġsad hain
Ġval ai
Ġaf ric
inch wad
Ġsat y
Ġlaag u
ĠH ow
Ġmil ir
Ġbat ing
Ġham ra
ĠG reat
ĠG ood
Ġga il
Ġno tip
Ġkhan e
Ġz ahir
Ġ2018 19
Ġgarn aka
Ġfa cing
Ġsamaj hane
Ġtra ins
uko ol
Ġvij et
Ġgun aso
Ġden da
Ġgat edekhi
Ġnar ayanganj
Ġbaad hit
Ġdas at
ori an
Ġmu z
tam ari
rav ari
Ġkab i
Ġmaj aar
Ġmak alin
ys is
Ġpatt ern
chak o
Ġkin na
Ġhot els
cho ma
Ġdig ho
Ġtin y
Ġgro wing
Ġnall at
Ġvarsha dekhi
Ġnit ish
Ġpri me
Ġvip akshi
Ġbhak shan
Ġavark an
Ġmiss ion
Ġdeath s
Ġsini ma
Ġrad du
Ġvyavas a
Ġjun es
On line
Ġbib isi
ĠCoun cil
Ġdodar pak
Ġsanj hi
Ġzar urat
Ġcop y
Ġpraadhan yam
ĠPrin cess
Ġsamee pan
Ġkarpor eshan
Ġaach aran
IV E
ĠRich ard
Ġupat yak
ĠIra q
Ġtelip indi
Ġsadasy eey
B S
T hen
U P
g ant
g ans
h urt
l ets
m ich
m att
n j
n ava
p ill
p ama
p tt
r att
s akshi
t yanni
Ġ uri
Ġs aagar
Ġk sht
in ad
Ġt annu
Ġd uddh
hi v
ra se
it ek
Ġj aid
il ek
Ġch hid
Ġch otu
ut ee
Ġha w
et ro
ul er
uk ur
ed uk
ab aj
Ġo lim
Ġsam adhi
Ġna anku
Ġpr uth
Ġde put
na am
Ġcha ad
yak ari
Ġya ven
Ġat o
Ġis nt
Ġja hir
Ġit amp
Ġva ikum
Ġsha skeey
ct ure
Ġmad hesh
Ġcom fort
Ġcom pared
Ġag han
Ġsw agat
Ġkam aj
Ġhun thyo
ĠP ra
ĠP age
pra karani
Ġcon tain
Ġsark ars
Ġthat u
Ġper umb
aka as
Ġdhar al
ff s
Ġshik sh
Ġund o
dh ra
Ġex ample
Ġbi he
Ġbl endar
Ġmand iki
Ġdal il
Ġsc ript
Ġvit ark
Ġsamp avam
Ġchand pur
Ġul tra
Ġhal aka
Ġkab ool
hap it
Ġmak han
Ġkel yas
Ġhim mat
Ġiv arkas
Ġdha wan
Ġaay og
Ġpet roleum
Ġbag h
Ġvaa par
Ġash ra
Ġsim ana
lab h
Ġcont est
Ġaan and
Ġsaman va
Ġast ha
Ġshun ani
14 48
Ġadhikari es
Ġsik ichi
Ġdam dama
Ġint jaar
Ġrel is
Ġghe u
Ġlink s
Ġmans u
Ġrem ark
Ġdol ai
eek shak
Ġmother s
poor v
Ġelect r
Ġmanon inapatra
Ġtave er
Ġjawa har
ĠComm ission
Ġspa in
Ġscor ing
Ġcheb utunnar
Ġjanas en
Ġdoub le
Ġyang hi
Ġsaho ol
Ġrepe ated
Ġprash no
Jo hn
Ġvikkipo di
Ġjabaabad ari
Ġbehavi our
Ġsaund arya
Ġespe cially
D S
E very
j han
n is
r est
y v
Ġ uru
Ġs ta
Ġs ast
Ġs ushthu
Ġk hali
Ġb hikar
ra w
ra pan
un hen
ad he
ad iv
it ival
on k
Ġj ed
Ġj attu
Ġj uthe
es angai
ho to
ir ang
Ġf ay
Ġf if
Ġf ance
Ġo ly
aar ak
ang er
Ġpr ateek
Ġy ane
und ane
Ġad ik
Ġad ukk
Ġda at
Ġya stai
Ġen em
Ġen khan
Ġgar oun
bha le
Ġba cter
Ġon nan
ist ai
Ġja ck
Ġi z
ro ad
uv u
Ġpad vi
ib har
ib bodhu
hir unnu
Ġlag ni
ht areen
Ġsw arth
Ġpo un
ĠP H
ĠP ress
yo une
Ġbhi shan
àµ¼ pp
Ġban aye
Ġvya ya
par av
ukk intu
Ġshak u
Ġprak hyat
Ġud y
Ġud esh
Ġsat hyan
Ġsat yi
Ġpe ra
Ġta ala
aaj i
ĠL ove
ĠR yan
Ġchar chama
Ġkan isan
bad d
haan che
Ġtr ush
Ġac com
Ġga eka
Ġga amma
vad an
dh pti
ila as
Ġdu ut
Ġnot is
ott le
Ġpas a
Ġbol iv
Ġti wari
Ġind onesia
Ġsun aav
Ġput u
Ġ18 0
Ġcompan yo
Ġcomp anie
Ġer and
Ġnil em
ipp ol
Ġkel yanantar
Ġanu waad
til aai
Ġstr ing
Ġchepp y
Ġvak at
Ġcomm ander
Ġip pati
Ġpit ch
Ġ100 000
Ġkhul ana
ĠY es
Ġatt ended
Ġins aiy
Ġkarod ani
Ġsut re
Ġhy dr
Ġrel ij
Ġpre val
kad and
Ġib nu
Ġib band
Ġpla ced
Ġjay ga
Ġhelp ing
Ġghatn as
Ġfase book
Ġreturn ing
Ġfit ness
Ġling ik
Ġwind ow
Ġbrah ma
uvak ot
ateg ori
Ġparid arshan
Ġsci entists
aksha p
Ġnatwat ik
Ġmab bbb
Ġiss ues
Ġpatibaddh ta
ATam Ad
Ġlux ury
1 10
I P
b ana
b halo
f essor
g ras
p ie
r ikar
t yana
y un
z on
Ġs ene
Ġk ent
Ġk ulu
Ġk eta
in ath
Ġt eti
Ġa alu
Ġa chanak
Ġm esh
Ġb indu
hi al
he che
ad atar
it ary
as ad
ak hali
Ġj hon
Ġkar ja
ay yar
Ġw inter
ab are
id ekhi
Ġo ts
Ġsa il
Ġho us
Ġy isu
st y
cha ti
Ġcha atra
Ġda ughters
va il
Ġvar utt
Ġap as
Ġap ur
em ai
Ġaap ya
Ġpat iv
Ġre view
Ġal ada
Ġraj akiya
wa cha
Ġsar in
pp itchu
Ġnat es
Ġpo oj
ĠP hot
sa hi
ĠD ar
Ġhar sh
Ġle ague
iya d
ĠW el
Ġz ae
ĠE vans
Ġed i
bi har
Ġsank raman
Ġsamaj han
Ġthak en
Ġgal le
Ġ14 24
Ġpot um
Ġsm aran
Ġkur amaa
Ġjill ama
Ġvat sap
Ġjab ab
asha hi
Ġkhabar on
Ġarth naitik
Ġnag n
hie f
Ġner ch
Ġmid fielder
shik shan
Ġpratik ul
Ġhum aki
Ġmani ur
Ġdho ka
Ġshra d
Ġbanaa ve
apak she
Ġsangit alan
Ġspe ak
Ġbakh sha
Ġghatn asthal
Ġthink ing
ekk ing
Ġmem u
Ġtali od
Ġbudd him
Ġsamjha ut
Ġlikh te
Ġcer em
Ġbott om
ĠSy ria
ĠSy dney
Ġack ad
Ġvaaj apey
Ġchh ori
aprat ham
Ġtama am
Ġbaandh kam
Ġphen k
Ġbhandar ile
Ġekat rit
Ġvyaba h
Ġkarmcha are
Ġadhyakshat ama
ĠRus sian
Ġsaahiti yik
C l
I F
c it
e van
k ong
k etik
l alo
m ider
s r
ar ag
Ġs aap
Ġt hali
ch is
Ġm ars
Ġb illi
it z
as p
as pad
on ia
Ġg ym
han iki
Ġl eta
Ġha alaat
Ġw andi
ap hi
ap athi
ab andhu
ab ility
Ġo ta
Ġpar yav
ic ond
ma it
ari yon
sh ur
Ġna ate
Ġna akaa
ent y
Ġko àµº
im ir
Ġar una
Ġen j
Ġen um
Ġjan ay
ist rat
Ġsan vad
Ġpad hari
ĠM id
pat rer
Ġsak chan
Ġlag aav
Ġpan chat
ers e
Ġshe s
Ġ5 50
aran ya
Ġpur og
Ġpur indu
Ġsing er
ard y
Ġsat sang
Ġsp oon
Ġwor st
ett le
Ġkan att
Ġtr ol
Ġcl ip
ary l
ĠW alk
Ġpart il
Ġla u
ja am
Ġkhar ej
Ġsur face
Ġtal ak
Ġhat ha
Ġaw are
Ġdal al
Ġkr indi
Ġsun ne
Ġgan amadhyam
tam ara
Ġbij dhpti
Ġmrit i
Ġgad akari
Ġson nar
Ġcher nn
Ġkura kani
Ġvarsha at
Ġrupee ue
Ġjis ane
Ġkend ras
Ġru us
Ġmantr alayaka
ester s
Ġjas ho
Ġsaj ilo
Ġkir daar
Ġca uke
Ġbed ese
Ġraashtra pat
Ġpag ale
Ġbacha un
Ġbid abi
ghar ma
Ġact ing
ĠAm eric
Ġmauke y
Ġnalk unn
ĠWe b
Ġprashasan ar
Ġputt ing
Ġchhar alig
Ġmaut aan
Ġtour ist
bhak t
pich ley
Ġdevelop ed
saat hai
Ġpave ga
Ġsanmaan it
alal ita
Ġsambh w
Ġbhayan ak
Ġchess intt
ĠiP hone
Ġtiy ati
Ġaruk hil
O W
P M
c s
c oni
d ari
k eral
m ine
o ze
s ch
s ul
t op
v ini
y anta
an usaar
Ġp anku
Ġt ase
ch he
ch hat
es tic
Ġc ro
Ġha pt
ho li
ap ada
us he
and o
ud ay
aar is
ant rit
Ġin ak
Ġna ukar
hal f
aan var
ta al
Ġas hans
Ġar gu
ni ya
sha ala
Ġpa ati
Ġpa atal
Ġvar unnat
em en
em on
chi ma
Ġja andaa
Ġbe y
war oop
Ġut ag
ĠC amb
udd u
Ġsar ikott
Ġcom antri
Ġsw akarya
Ġkam ar
pan ar
Ġjo ra
Ġbal o
hen ge
ukk ass
Ġir ik
Ġso ya
Ġrup aye
Ġta f
Ġbo ost
Ġpak kan
Ġbat chn
Ġbas a
Ġbas ket
Ġghar ib
bhav ish
ĠE ver
bi ai
Ġet u
Ġpras chan
Ġnav v
Ġvan ade
Ġcine mato
Ġvij ai
abha van
Ġfe ars
Ġbhag an
we ek
Ġkhel n
Ġaj oonhi
Ġudd haar
ipp ed
Ġrang att
hiti v
Ġjab ita
Ġgay ika
Ġbr oken
Ġkis mat
Ġsahit ak
Ġsahib an
Ġcomm ishan
Ġpro ud
Ġank hil
Ġip ug
Ġfl ite
Ġrakh vama
yap asoon
Ġudyog ast
25 211
Ġhum lo
Ġmer amat
Ġsol kir
Ġkarod ana
Ġpuj e
Ġkes ulo
Ġhospital er
Ġtari hi
Ġ207 2
Ġyak shan
Ġok att
Ġbacha pan
igh ters
sat he
Ġpus atak
Ġvill age
Ġavak ashalu
Ġkata ul
shad hin
Ġaank hon
Ġsomet imes
Ġest ab
Ġconcern s
Ġtram p
Ġaustra ilean
Ġpanich est
Ġudaya pan
Ġparavaan agi
Ġudaghat an
Ġmrityud and
Ġnishkar sh
Ġsth git
Ġhonap hya
Ġmawat am
D e
E n
K a
d ing
d os
g anga
l un
l ist
o chan
o dia
y ard
Ġk rej
al ante
Ġt oll
Ġt arkari
ch ara
Ġm ort
Ġb aidh
Ġn abhai
he chya
ak alam
Ġg oth
ik ale
ik hel
Ġha ale
Ġha aki
Ġan ivrukkum
ap ot
ap rap
ud ra
Ġo karu
ic ur
ol in
Ġsa waike
Ġbha m
Ġbha eki
att ap
ip un
ug atai
Ġba hek
Ġpa ataa
ig ner
Ġun us
ram in
Ġja adu
Ġsha ikh
Ġpat shah
Ġvid yalyer
ko ti
ĠM idd
tar ee
Ġtar apar
Ġkal akar
Ġag at
Ġnat chat
Ġme h
ĠB ank
Ġban er
Ġmuk hyalay
Ġrak un
Ġvish d
ukk uch
Ġro ads
pa z
Ġnam askara
hut i
Ġchar ans
ave z
Ġ19 50
Ġvad hai
Ġmul aga
Ġ10 5
Ġaad hare
Ġpal pad
hav u
enn y
Ġmaa pd
Ġdes per
ĠJ ord
Ġex erc
je cted
so o
Ġall engiàµ½
Ġsank ram
Ġbol ne
aad ee
gal ag
Ġprav riti
san sthan
Ġsid haa
Ġkur l
Ġvaa chan
15 1448
Ġson nal
Ġbet han
alp as
Ġvim aa
Ġvim ant
Ġchat ri
Ġmunn am
ppet tu
Ġsaar war
Ġunt undani
Ġbali wood
Ġlink ed
Ġpuch hattu
Ġkid ney
Ġpack n
Ġcor ner
Ġpadd ati
amay m
Ġob ama
Ġfes buk
Ġtapp akunda
mes ure
Ġwast u
Ġdee pa
Ġmillion s
Ġippo àµ¾
Ġame jan
Ġrep ublic
Ġhost ing
Ġuthe se
Ġwatch ing
Ġwww shadhin
Ġmall chum
Ġtour ism
Ġengine ering
Ġcre w
Ġpratinid hitiv
Ġcompani yon
Ġpravart ana
Ġlight s
Ġaras in
For mer
Ġrohing ader
Ġneet im
Ġbadhaa une
Ġnished haj
SI S
Ġsaanj he
sup reme
Ġ88017 119
Ġ88017 151448
Ġkyan cer
Ġprajat antra
Ġdisap pe
Ġsasha str
Ġfavour ite
pine bab
Ġmuq ab
Ġlev els
Ġningto àµ¾
Ġdharasab hy
Ġcist um
Ġwwwshadhin bangla
Ġ88017119 25211
Ġ88017151448 15
D uring
J ust
b om
f in
m ayu
m enne
s ee
s ark
s aare
ha ate
Ġk app
at hak
Ġp hira
Ġt vak
Ġa ib
un il
ad it
ak ali
Ġg iri
Ġha aa
ir es
ed ing
ag ane
Ġpar yo
ic cha
Ġpra vachan
Ġke ele
ot ing
Ġki bhave
Ġy yani
Ġe àµ»
ne ys
Ġand ap
Ġand ulo
esh ne
Ġad ol
Ġgar ami
Ġat anu
la w
op ati
Ġka innu
Ġjan agan
chi e
Ġaap il
hil l
Ġva asi
Ġsh or
Ġpad u
Ġpad aanchya
Ġmo j
Ġmo unt
ĠS ports
ga it
rit ies
Ġprat ha
Ġkam re
Ġhun g
Ġshe k
Ġbal il
Ġrak shak
Ġud ahar
ĠD en
Ġdhar pakad
Ġrup ees
Ġsat ikar
ue ach
ĠH all
alay an
Ġher ne
Ġkhan da
ĠO ffic
Ġkon a
Ġang al
Ġnav te
rat ing
Ġsc re
Ġgal ati
Ġsud khfat
Ġtum cha
Ġbhag ati
Ġdas am
Ġchho ti
Ġkur ipp
Ġkit ab
Ġdha ir
Ġmahila o
Ġvart aman
Ġnij ek
Ġvyakt ine
Ġnis k
Ġdab bu
Ġyu es
Ġkul karni
Ġjis aki
Ġnirmaan ma
Ġsex i
mand ir
Ġrav ada
Ġtul si
Ġbhu ucha
Ġkart en
Ġlav kar
Ġadhi bar
Ġic ch
Ġfer k
Ġspar sh
Ġarop ama
Ġpahunch ane
Ġsamas yar
Ġstand s
Ġjhan da
Ġpes ane
Ġsaak shat
Ġakram ant
Ġaid u
ĠCl ub
Ġveer ar
Ġummed war
Ġtank s
pich le
Ġdrink ing
ukir ars
Ġparav arty
Ġkuianda ikas
Ġsoor ya
http ste
Ġsath sath
ĠChamp ion
Ġapek shit
Ġtammil ull
Ġappar ently
mhan un
Ġlarg est
kn own
prop ri
saam aajik
ĠItal y
a isi
c ul
h li
p ustak
r ari
s ukh
z ab
Ġk yak
Ġk no
at uku
Ġt ada
Ġt ick
Ġt angi
ch id
ch ot
ch hin
Ġa kaash
Ġm ett
Ġm ont
am ata
Ġb attu
Ġb ible
Ġd war
er um
en uchu
ak sher
Ġg hi
Ġch uttu
ut paadan
Ġr ichar
el ia
et r
uk ha
Ġf ish
Ġma hmud
ing ham
hat aa
Ġche pt
cha ap
ok er
Ġad hina
Ġst y
Ġst hale
yak umar
Ġya ba
Ġor uvan
Ġvar uman
Ġvar sham
Ġap d
Ġap at
Ġap art
Ġup pu
Ġbe htareen
Ġsha aid
Ġsha shik
Ġsha shakt
Ġvid t
Ġbad hak
Ġmo fat
Ġav aga
Ġmar ok
Ġnat annu
Ġme en
yat an
Ġbhan ai
ĠI rel
Ġban ch
du i
Ġvya ptanga
se qu
Ġchal oun
Ġpol a
band hak
ĠL anc
Ġlaag to
Ġye cono
Ġfr uit
Ġac re
Ġbas is
Ġund airunnu
Ġabhi she
Ġ9 00
ĠE du
Ġed aina
Ġkav ir
Ġsans kaar
Ġgari yo
Ġput in
Ġvach charu
Ġgan avan
Ġinter nal
Ġgat kal
Ġsid hant
edi es
hap s
Ġsant an
unt ai
Ġvil ichu
Ġbag air
kan na
Ġash vin
Ġmaha ul
Ġsom vaari
apra desh
Ġchaa hin
Ġkram ulo
Ġ199 2
Ġkoll alam
Ġdho k
Ġsuper star
Ġshish uder
Ġopp os
Ġbro wn
Ġtayari ma
Ġwast end
Ġprasid dhi
Ġprakat incharu
Ġsammelan amaa
Ġsign ing
ekhan iya
etar ma
Ġvyas a
mod el
Ġclear ly
Ġtuj e
Ġanug aman
Ġaarog ya
Ġparicha alan
Ġcover ed
Ġsaham na
Ġtweet ed
Ġjaha aj
Ġsepar ate
Ġreta il
Ġclot hes
ĠVict oria
Ġmeelvi xpatt
Ġsamved ansheel
wor ks
olut ely
I S
J P
f ont
g ru
h ute
i ai
i eld
j ul
k anti
m ia
m oon
y antar
ar jun
Ġs ve
at ane
Ġt hit
ch or
Ġm ina
Ġb utton
Ġn ali
Ġn aidu
it ter
Ġj avaa
il it
es en
ut ive
Ġha b
Ġkar esil
av avama
ay ati
Ġw atak
ab humi
ang ia
ol ku
Ġin shrunkhala
Ġki maan
Ġde vat
Ġy es
Ġ2 20
Ġne ur
esh ma
Ġcha f
Ġcha ha
Ġcha ud
Ġar uke
Ġad chan
Ġad wani
ee per
Ġat bhut
Ġat uvanti
Ġpa hir
iy ojan
Ġka ccha
ath um
Ġi al
uv anu
Ġpad y
Ġpad mav
ub i
Ġbhar ne
Ġav àµ¾
are z
war an
ĠC M
Ġ3 60
Ġmat ena
she el
yam lo
Ġve ve
pan j
Ġkat u
Ġrak hata
Ġchal chitra
Ġaf fected
Ġro y
Ġnam ana
ĠL ife
ĠH er
ett s
ĠG ar
hel u
Ġkara un
anj am
Ġviv ahan
Ġmaa f
Ġmaa y
ĠO pen
Ġem p
ru ction
Ġram ayan
Ġsamaj hada
Ġcar yakar
Ġbol tana
Ġthak ale
Ġel idi
Ġtum ne
Ġmod ini
Ġnan yath
Ġnan aies
Ġ14 40
dd ha
Ġtu i
Ġkhel te
Ġras ik
hatt in
Ġvil ich
Ġaat hawan
Ġaak ank
Ġvr ath
Ġvyakt ile
vis esh
Ġsamasya on
Ġyat rak
Ġnab har
Ġjast in
anya ayadhish
avin ku
Ġtol a
Ġkes iko
Ġpratisht ale
Ġvikas ma
Ġjaag i
Ġjil had
Ġland ing
jas v
Ġrecord ed
Ġabd ullah
far m
Ġkann ada
Ġhigh ly
Ġsadasya der
Ġ197 1
Ġmig havinya
Ġvivar angàµ¾
Ġmahi ies
Ġvot ing
Ġbatoun u
Ġrajk iy
Ġist ri
sen j
opat hy
Ġkarma chari
Ġnotific ations
Ġnaho ti
tap aain
Ġfed eral
pok hara
Ġsantras i
itas ku
Ġadar sha
Ġashupatri il
Ġsac dan
Ġvrut ti
Ġinsur ance
Ġmanje ch
Pe ople
Ġkanug on
Ġhasta antaran
Ġkreed aa
abhoom ivar
Ġshastrav ett
Ġarthi c
Ġnotip hikeshan
C on
a ama
c ond
h di
l k
o unda
p ata
p ete
p aanch
s ama
s akal
u o
w orth
Ġs ekar
Ġk ro
Ġp ore
in ho
Ġt ukar
Ġm urt
am et
it iv
as hik
ak ana
Ġj ol
Ġg aav
Ġg lam
Ġch ivar
av et
ap or
Ġra chit
Ġra itul
ic ham
Ġin ta
Ġsa as
Ġho vani
unn adi
im i
im athi
im adhye
ale y
Ġek ar
yak al
Ġen patal
Ġat ah
sha hr
Ġba hr
Ġvar ik
Ġvar na
Ġ20 000
Ġi q
Ġsha uchal
Ġbad ho
ĠM ic
Ġsab aile
ĠA waaz
Ġve par
aran o
Ġvis ham
ye es
Ġak s
Ġ4 000
ira y
Ġbal ayya
Ġchal be
pur us
Ġta il
Ġsho ote
Ġgo ver
Ġ19 47
haan aa
Ġga ura
Ġno tic
Ġsarkaar chya
ven tion
Ġghat t
Ġkhar e
sar vat
Ġmal ika
Ġsank alit
Ġmag hi
raj it
mo ti
Ġsun akar
Ġsid es
Ġpi aare
unnar ani
Ġcol or
Ġdha w
Ġbhe ja
Ġsap sht
Ġsap tah
Ġdivas o
amak um
jal andhar
Ġsav al
Ġpres id
Ġnall aa
Ġkaahi hi
Ġchaa hat
Ġjat aan
Ġdik ari
Ġmantr alaya
Ġnya yam
Ġnish chal
ppet unnu
Ġkary attil
Ġsaj j
Ġkott aga
Ġib bandi
Ġkum ari
Ġsambhav it
Ġshikshak o
olog ist
Ġjay are
Ġsen se
Ġrend u
Ġcor te
Ġsos hial
Ġkall uri
Ġrom ance
Ġlin c
Ġsystem s
Ġtai ak
Ġchhod kar
Ġlid hu
Ġsampra d
Ġsamsk rit
Ġflo od
thir uvananthapuram
Ġdeta il
Ġadbhut amin
Ġprod uc
Ġchall eng
Ġgall en
Ġfun eral
Ġara itu
Ġjip agadi
Ġstre ets
Ġlalit pur
Ġorig in
Ġaadal ter
Ġkuianda ikal
Ġprakhya p
Ġtherivitt llar
Ġlic ens
ĠFer guson
Ġupabhok ta
Ġeme il
pinn ite
Ġrugnalay at
Ġshrink halaa
arawal ok
Ġzae ami
2 000
I L
M ost
T hats
b ans
b ull
d hari
g t
j y
m ulu
n Y
s ik
v ia
x pat
y in
am ulak
Ġv ras
it har
ak ho
Ġj inda
Ġch arter
ut ho
Ġan uti
Ġkar s
Ġkar aka
Ġr uch
Ġf ai
Ġf att
Ġsam ir
Ġsam ap
Ġsam gr
Ġin pho
om er
Ġe asy
Ġne em
ish ram
Ġdi bhijan
aj o
te am
Ġas wast
Ġaa haar
Ġhi z
Ġek ikaran
hu v
ee f
ast ers
va cch
Ġba his
Ġap ari
Ġap rat
ia àµ»
Ġun ve
Ġsan mel
Ġsan vaidhanik
Ġja han
var sha
Ġi angsil
Ġva ise
Ġnir dosh
ĠS im
ĠS ea
ĠC hap
oj im
de al
Ġus es
Ġpan ni
adi as
Ġnat ap
Ġnat ick
Ġpur ind
Ġbal m
Ġsad hu
Ġlai a
Ġshak ata
pa hilo
Ġprak atin
Ġud ai
Ġshar d
Ġpani ches
Ġher da
ĠF A
pe hle
Ġpal ru
Ġla ung
Ġz one
Ġsur ve
Ġches ukunnar
Ġunn ad
Ġth up
Ġsup per
Ġthey re
Ġmod e
Ġid he
Ġid har
Ġbaj va
Ġkarn aara
yad o
Ġay ya
Ġmu ha
tam ai
Ġcomp ane
Ġnak hi
Ġpatt inch
alat ho
Ġvil yir
Ġpet te
Ġmel ke
ĠĠ Ġ
Ġbel ow
Ġadi e
Ġnaj re
lim ent
Ġjit na
Ġvarsha pachhi
Ġrat es
Ġkhal asa
ged y
Ġrok ane
Ġchet ana
Ġpand ey
Ġhand ed
Ġol iko
Ġdos ti
Ġca fe
put ia
Ġartic les
Ġghe ere
Ġnid ra
af no
Ġnirva hinchin
Ġrecord s
upat ik
Ġsanrak shi
Ġbul aare
Ġmir pur
Ġstand ard
Ġpill l
Ġaval amb
any ya
Ġlang he
Ġah waal
Ġmass ive
Ġswatantra aa
Ġpush p
Ġsas ta
Ġbaalak rishna
Ġmukhi aman
bij epi
Ġunnayan er
Ġupst hit
kun ai
Ġresearch ers
Ġpow ers
iba zar
osa hit
Ġnirvahin charu
Ġcapt ured
ĠQue ens
ĠInst agram
Ġsàµ¼k kaàµ¼
Ġnuv vu
Ġlund on
cep tion
ĠBre aking
Ġraahn aar
Ġsanskrut hik
Ġcens or
Ġasakt ikar
Ġbaazaar aat
dec ember
ĠUni on
Ġsafato yar
9 7
C C
d od
d og
d uje
k avi
l ig
l ia
m inton
p ond
r dhan
r eta
v ic
w ans
an us
Ġs ok
Ġs ort
Ġk asha
Ġk yamp
Ġp hi
in ke
Ġt ing
Ġt etu
Ġn eshnal
is hes
Ġha ch
Ġan atm
ur ich
ho sp
Ġr iver
Ġw ake
ul or
Ġra hu
Ġsam y
Ġsam ba
Ġsam az
ri j
Ġsa um
om ar
om adhye
ana chi
Ġe em
Ġbha dr
Ġad hra
yak eey
Ġen vironment
Ġman idan
Ġba hiri
Ġvar gi
Ġka hitari
Ġjan abha
Ġis da
Ġsan ram
Ġaap ela
Ġva cha
Ġab hil
uv inte
uv ennu
Ġnir ik
Ġbhar un
ĠM edia
Ġut sah
Ġraj yama
Ġmat amat
Ġsar vach
to y
ini oga
aran lo
Ġban yu
Ġvya dhi
par d
Ġrak esh
sa as
Ġper it
Ġdin ako
Ġro ot
ĠL os
Ġle vani
Ġlaag anar
Ġtr ue
àµ» re
Ġvyak hy
akar ma
Ġpal pposhu
Ġund ali
Ġund la
char ider
jan m
Ġmaa haul
ĠO ct
Ġex amin
Ġem i
tt in
shak ti
Ġsamaj had
Ġmin im
Ġshan ka
Ġfar aj
uni harule
Ġgra du
Ġbank u
Ġpatt u
Ġloc ation
Ġdha ava
aro op
Ġbach ia
dha ma
Ġshri mant
Ġkya arek
abad dh
Ġdivas iy
vir odhat
Ġsub st
Ġdig darshak
Ġvijay am
ii àµ½
Ġsuch ipp
Ġtap ai
Ġghan tar
Ġpari bha
Ġkshetra il
sab hi
Ġjod ne
Ġswast hyak
ghat ana
Ġich che
Ġich chha
inda in
pl ant
Ġsol vat
Ġkary palikaco
Ġpre par
Ġkoll um
bas ed
Ġgujarat na
Ġkid iyadhu
Ġpasand gi
Ġsamar m
ĠNew castle
Ġaal eli
mul ak
Ġic che
Ġsini or
Ġseri al
Ġproject s
Ġbul and
Ġadde htine
Ġmok al
Ġnirdesh na
Ġpill o
Ġinf ection
apo àµ¾
Ġmach ine
Ġdog s
Ar A
Ġsampra da
hune ch
Ġmaho ts
Ġpadh nuhos
Ġcer ti
Ġrug by
Ġtalk ing
ĠMP s
namm ute
Ġnatab enuchu
Ġvine og
Ġbold ai
pash chim
Ġgoott ani
Ġalav uku
Ġvalld incharu
ĠBir mingham
Ġbharos aa
Ġkrant ikari
Ġvegave galya
Ġgurdas pur
Ġpraav dhaan
Ġestimat ed
Ġpattark ars
Ġsamaz ik
V M
b ritish
h ud
s hala
t ol
u M
w ashington
x ing
à ¦
an chal
ar og
Ġk hen
Ġk inn
at en
in th
al eli
Ġt ashi
Ġa indhu
am rit
Ġd ikk
ra ani
Ġn ane
ya ab
ad ari
ad yam
er ved
Ġj antu
Ġj oke
Ġl athi
ik hit
Ġch iller
Ġch hattisgarh
Ġha chchen
Ġan war
Ġkar ay
av adhi
ag iri
Ġpar yam
Ġpra arambhik
Ġsam raj
Ġin jh
le ct
le ction
ari wal
Ġho sh
Ġe pa
Ġte man
Ġad he
Ġad hini
va cha
Ġgar l
Ġman ase
Ġman ov
Ġpa har
Ġpa wan
Ġun if
Ġam ravati
Ġja hangir
Ġaap she
Ġit il
Ġvid yaman
her es
Ġbhar ia
ĠS ch
ĠC ap
udd har
Ġraj put
Ġsar watech
Ġcom me
pp uram
ond ar
Ġdin ni
Ġud bhav
Ġnam ani
Ġnam aay
Ġle ann
Ġvir iv
ĠW ood
Ġabhi bhav
Ġghat ado
Ġkhar che
alan ti
qu id
nar ayan
Ġsans hod
Ġpras av
Ġsaf are
Ġkr om
Ġkr ida
Ġum eed
Ġkho je
Ġbaj a
Ġul le
Ġnas el
uth uk
Ġpatt in
Ġvat achit
Ġaat mahat
rap h
Ġran bir
Ġcher r
Ġnij asv
Ġsy ri
aji he
Ġkud rati
Ġanya ay
ron ter
bat ai
Ġhel met
Ġtur annu
ubha i
kh s
Ġsamav esha
Ġjay ant
Ġub ho
Ġsanghat an
Ġjud o
Ġbacha ane
Ġsod a
Ġfin ish
Ġmant av
Ġob vious
Ġpraka ushal
Ġpraka ushali
Ġbuj hn
Ġlamb e
Ġmanch idi
Ġapar aahn
Ġsall ah
Ġdep art
Ġnatatt unn
Ġshas ans
Ġniyamit apane
Ġsarak hya
Ġtek nal
Ġeff ec
Ġrajk iyal
Ġques tions
Ġfull y
Ġsever e
Ġsala am
Ġadan pu
Ġpadh ne
Ġsann id
Ġbichaar pati
Ġshubhak ankshal
Ġbalaat kar
opa her
ĠHar ry
Ġdodar pana
Ġahmed abad
Ġavadhi ma
Ġmukaab le
Ġsuccess ful
Ġswe ekar
Ġtantra gyan
Ġpog um
Ġina indhu
Ġsharm ale
Ġhech char
Ġbarab arko
Ġbhattar ai
Ġdhyan ma
Ġmaharashtr at
Ġmean ing
Ġabs olutely
Ġeconom ic
pn jab
Ġbran ch
Ġvalar chi
Ġannu al
Ġcand id
janu ary
Ġranne eti
Ġdiagn osed
Ġdeput y
6 00
8 1
G B
O ffic
S ince
b asi
c os
e uta
j ena
l le
m ont
n mal
n avin
o ver
t v
t ut
t hy
t eni
w ag
y iàµ½
à ®
Ġs iber
at ures
al er
al alit
ch el
Ġn eshan
Ġv und
Ġv ash
Ġv aare
un ha
ad ill
ad uku
as l
as as
ak unn
Ġg il
Ġch hen
Ġha yat
Ġkar eli
Ġr y
Ġr ide
et re
Ġw inner
ir irs
and ra
Ġf uj
Ġma aloom
Ġpar an
Ġpar int
ic ar
ic er
Ġsam prati
hat in
Ġde ven
Ġde uva
Ġbha av
Ġbha gal
ent in
Ġaa o
Ġad ha
Ġda hi
ug ulu
Ġat li
Ġba hul
Ġvar uv
Ġvar unnu
em ale
Ġup endra
Ġi zat
Ġit at
Ġab ility
Ġpat ishan
Ġpad hi
kar ea
ĠS pain
ĠM ich
ĠC hin
Ġal um
Ġal anti
Ġal uval
Ġal galag
Ġmat dan
Ġmat adaata
ĠA ug
Ġkal ug
ht ha
Ġprad ars
Ġtak ar
Ġtak ie
ĠP alace
Ġjo ur
Ġpur nat
ĠN irp
Ġsad athir
Ġjaa v
Ġud ane
Ġdhar avahik
Ġsho dhan
Ġnaa yab
Ġdis miss
Ġvyak han
Ġaad h
Ġdur d
Ġund airunn
Ġghat eche
pt y
Ġhat yak
ĠK han
Ġanus uchit
Ġnav ta
Ġches ukundi
Ġjar it
Ġcr y
Ġind yayute
Ġres ign
Ġres erve
Ġmas ale
Ġli eka
Ġ16 0
Ġkel yane
Ġrang at
Ġdha irya
Ġvand an
Ġsec tion
Ġpen iru
Ġeng in
Ġkun j
Ġnick shulk
Ġchest ondi
Ġkhul la
Ġart hat
Ġkani yu
Ġpahun chan
Ġtanne er
Ġpakistan er
Ġmangal avara
Ġbhul i
Ġkir at
Ġsambhav ya
pas chim
ates amaym
Ġnok ari
Ġsamar at
Ġvira ivill
99 9
Ġbon kal
Ġtand ai
Ġvari es
àµ¼t tan
Ġjim maa
kon ni
Ġbri ef
Ġmudi avilly
stha pan
Ġvot ers
Ġprayoj nal
Ġcheyarman er
Ġasalya achan
Ġnatann at
Ġtani ar
Ġcust ody
Ġjig yas
Ġupadesh ta
Ġvishl esh
Ġtro ops
Ġrajyas abha
Ġsiri es
Ġkej ariwal
Ġremain ed
pate a
bien pir
Ġminn enjal
phor nia
Ġasati fa
Ġjanadhi pati
Ġsugg ested
Ġsabsc rib
Ġsamrat han
Ġdeter min
Ġbhaek ole
ĠZe aland
Ġdiun so
ĠNirp akh
C A
E ng
b engal
b ury
c ia
e vak
f ia
f revious
m ith
m int
n um
n alo
r unth
t hu
u cch
an agar
Ġp hat
Ġt anke
ch int
Ġm akar
Ġm ujh
Ġb ujh
it l
it ane
as m
as ani
as le
ak athmadon
is al
Ġj ham
Ġj ayam
Ġg anda
han k
ut ch
ut te
Ġha cort
Ġan un
Ġan ushk
Ġkar ela
Ġw if
ir hat
ed ari
ap ura
Ġf ake
um airunnu
ab ala
ag h
ag ement
Ġma ul
Ġo ke
Ġpar vey
ma ane
Ġto ddil
Ġhe ri
Ġsa uda
Ġe gg
Ġse mi
Ġne gat
im edia
hin che
Ġhi ch
Ġar an
ip pa
Ġen ea
art hath
Ġam ifu
Ġsan vardhan
var ga
Ġsha pe
Ġpad ukon
Ġut sa
Ġsar garam
man am
ute i
uch es
ĠT er
ame in
ba ith
Ġ4 50
Ġmuk nmal
Ġsad hinchin
Ġsat ish
Ġpe eda
Ġdar mian
bad ar
gi àµ½
Ġga han
akar mi
akk adu
Ġabhi yukt
hav ama
yar aj
chu i
ru it
aari warik
Ġnot es
Ġfa ced
Ġtal ukàµ¾
app ettu
Ġim ag
mo h
Ġvit ara
Ġres pect
Ġ14 4
Ġsid h
Ġay indi
Ġpi ara
Ġann adi
Ġprem ear
Ġ25 00
ov voru
10 2017
Ġmhan t
jal as
him ani
Ġkura hru
Ġvyakt itv
Ġfl ash
sang heey
Ġsr usht
Ġser ved
Ġmer amter
Ġsus pect
Ġnati gy
Ġca itra
Ġther ivit
Ġinst all
Ġdub aara
Ġsamud ri
led ge
chn ology
Ġbanaa ye
onn ati
Ġpack age
Ġstha pat
Ġbaith ke
Ġkant h
Ġfes book
Ġchhut ak
Ġprashan th
Ġprabha vi
Ġseem ed
Ġdai va
Ġcri mes
Ġjarug utondi
Ġswad hin
Ġkaj al
Ġsweek rut
Ġvaruk ikum
Ġkaarob aari
Ġawa z
Ġsif aaris
Ġvidhyalay ama
Ġimm ig
Ġduh kh
Ġadit ya
Ġbata ate
Ġkaarya vahi
Ġconv iction
hrul aai
ĠChar les
Ġmich il
Ġkutti ute
Ġdhawar u
Ġgork ha
Ġbyan r
uruv aari
ĠServ ice
Ġkudum pat
Ġshubhakaman aayen
Ġvaajapey i
ĠIrel and
8 2
M any
c ot
d ale
l ati
l end
o hi
s agar
v A
y ari
Ġs aiy
Ġk her
Ġk indi
at ka
Ġp achi
al uman
Ġm av
Ġb udhi
Ġn ang
Ġv ana
Ġv ala
er hat
en etu
Ġj ury
ik athmadon
Ġch hor
ai j
ek hak
Ġkar ki
av avaa
Ġr on
ir ukkum
ul one
uk ondi
ap ras
Ġra an
Ġma yak
Ġo sh
Ġpar ade
Ġin k
Ġho ping
Ġe f
unn y
ich er
ta ako
og en
na h
Ġcha dai
Ġhi ts
all oki
Ġst ories
ip a
Ġda akh
Ġya babat
Ġgar aje
Ġor uv
Ġor gani
Ġjan an
Ġjan atha
Ġon lin
Ġja cket
da it
uj any
ck u
Ġnir min
Ġbad itu
ĠS uper
ann an
Ġmar unn
Ġus ually
man ir
ĠA ct
ht o
pp il
Ġshe id
Ġjo int
Ġdin ner
Ġlak shith
Ġso chaa
pa ck
Ġud ayog
ion i
Ġpe chu
Ġpe ace
Ġle vi
Ġpak di
ji o
ĠG all
Ġbas ant
Ġpal ika
Ġviv ada
Ġmaa h
dh yak
ĠO l
Ġem bar
mar at
Ġkaam ana
Ġsay antra
Ġdil an
Ġim aar
Ġdev ice
Ġcr isis
aab le
Ġden yachi
Ġvibha jan
Ġur ims
Ġay ukt
Ġras ia
Ġvat av
Ġjab ar
Ġkond uvar
Ġbak s
Ġvak upp
avaan u
Ġbh ushan
Ġcont eti
bb ed
Ġkud in
Ġast hir
Ġfal it
Ġdak hil
Ġdak shata
uc oni
Ġnetaa hrule
Ġkary alayaka
tya han
Ġkart aar
Ġdaa vi
ots ava
ĠLe wis
Ġpay ankar
Ġpash up
Ġsanstha gat
Ġsum aru
Ġstha apan
Ġbor otam
Ġtaa qat
Ġdef ender
Ġprasid hikari
Ġbri j
Ġsoll u
Ġkilomet er
Ġbars hiki
37 4
cle ar
Ġlagaa er
Ġgurut va
Ġrag hu
Ġwai f
Ġkus hanera
Ġcab inet
Ġrul ed
Ġshahr anmdhye
org w
Ġvirod hat
Ġpahon ch
Ġchaudh ur
Ġattempt ed
Ġaramb hik
Ġniruvan um
Ġstat us
Ġmugha u
Ġmanushy ane
ukin ritu
Ġbarab ari
Ġshekharich ot
Ġpokharel ale
Ġcritic ism
angales ow
Ġvisaran ai
Ġmuna fa
Ġrea ction
Ġagen cies
Ġdoter pu
Ġnitim ala
Ġsemif inal
Ġshubhar ambh
Ġoccur red
Ġcerem ony
Ġmaapd and
Ġbhuucha al
Ġadhini um
D A
R L
b angl
d ekh
f ire
g ga
g had
m uch
m ore
n ical
t ang
u che
z im
Ù ĩ
ha f
Ġs antr
Ġk ini
Ġk ushan
at us
Ġp ist
Ġp hut
Ġp onn
al aku
Ġt vit
Ġm rid
Ġb em
ra bi
Ġn og
he cha
er ut
is ta
Ġj hak
Ġl iver
Ġch yamp
Ġc amb
Ġc kan
Ġha van
Ġan bu
Ġr al
Ġr anko
ul il
ap un
ap eet
ap atak
ap alik
ag ab
ag rast
Ġma fat
Ġma ange
ang oàµ¾
ri er
Ġto bhil
Ġsa ikal
hal ay
Ġdi abetes
Ġas aner
ok u
yak at
Ġya che
Ġman chu
Ġat ta
Ġam alu
Ġit ie
lo ok
Ġlag wad
Ġprad o
Ġsang av
Ġpo on
Ġpo unda
ini um
ĠI ll
Ġshar ik
Ġhar kat
Ġta alik
Ġnam una
Ġsp hot
Ġsp ring
Ġsho dhanya
ĠR adio
Ġpak ro
Ġwor se
Ġvi et
Ġkan atay
ĠG roup
Ġmul ana
uti il
Ġ10 1
Ġbharat aa
Ġmaa àµ¼
Ġghat ad
Ġkhar ar
Ġkut uru
bo urs
Ġkav an
rut h
Ġdev ama
19 84
Ġsc an
Ġsc ale
Ġsaha ara
Ġsaha yam
ous ly
Ġes pi
Ġsm ruti
eta hi
Ġmaj akur
Ġfir oz
Ġnirvach anko
Ġsanst havaan
Ġsabha ma
Ġmit hi
Ġnik shep
Ġmun bu
res ion
Ġpro ced
Ġrec ogn
Ġraaj karan
sang ai
Ġsr inu
Ġast it
Ġjin hone
Ġtul anamaa
Ġbhal ai
Ġsamachar o
Ġjai vik
Ġbir d
Ġdho op
Ġnid arshan
Ġkes hav
Ġbanaa en
Ġcolle agues
Ġasan aar
Ġvell ie
Ġbook s
Ġprop hile
Ġnanj hak
iz ed
Ġtelis in
Ġves in
wast hy
Ġsign s
Ġphil ist
Ġrakt adan
Ġshort ly
Ġthev un
Ġmove ment
col ate
Ġandol aner
xpatt uldu
Ġtrad itional
Ġjavaan u
Ġtatkal ik
Ġplann ed
Ġactiv ity
Ġdhil on
Ġsile ct
Ġfra ud
Ġaver iki
NULL This
Ġaropan le
Ġroza ana
Ġlibr ary
othe rapy
ervat ive
ĠSout hampton
Ġkaryad arshi
Ġpregnan cy
Ġshukar war
A uthor
B oth
b ik
g jand
m ma
n or
n yaat
p ons
r ini
s aay
v ang
w oon
an ama
ar p
Ġp apa
Ġp aajak
Ġt usi
Ġm angi
Ġb un
Ġb ind
Ġb ula
Ġn ura
Ġn ayan
Ġv ank
Ġv ita
un ay
as hil
Ġj att
Ġj iti
han chi
Ġl ank
Ġl umb
Ġch idam
Ġc la
ai ma
Ġan s
ek aa
av yo
el low
et ri
uk ana
uk alam
us le
and hit
Ġra gat
Ġpar en
Ġpar mesure
Ġpra p
Ġpra cheen
up un
unn ati
Ġh ub
Ġas ann
Ġaa haat
Ġar p
Ġar ms
ig yan
Ġka uthuk
ro h
Ġsha mil
Ġav id
ĠS ci
yan che
ib ir
ĠM ike
Ġsak an
pp o
Ġag ava
Ġnat abe
ĠT ips
ull at
Ġhas i
ĠB ol
Ġdo ya
Ġdo shas
Ġban o
Ġvya d
itt il
ge et
ran lo
ard an
Ġsp andan
Ġdar waja
Ġchar h
mad hu
ĠG ala
ĠW atch
unnat an
Ġchan bin
Ġchit wan
Ġram ava
Ġram dev
so or
sam prati
wan iki
Ġthan k
ĠK a
raj kot
Ġaw aj
Ġsaf sht
iri an
Ġnepal alai
Ġvit ti
eshi ya
Ġnas alya
Ġsaal on
Ġdha ara
Ġent ire
aro ma
Ġparik sh
Ġchepp indi
Ġvig to
Ġchin na
Ġshat ak
Ġadi pp
Ġvast avik
upp ugans
Ġsus th
Ġpand ya
Ġvip ar
Ġ199 3
attin ull
Ġkum illa
Ġspe aking
Ġbakh ra
Ġdol vi
Ġfer ry
Ġsanchal ana
Ġutt ara
Ġaayojan ako
istr ate
sc ar
Ġcat ch
Ġfind ing
bij i
Ġthay eli
Ġrece ive
Ġdeve ga
hop yright
Ġsars ketik
Ġnun atam
Ġdark hast
Ġvalikitis haru
Ġahil eko
Ġdhama ake
bib isi
Ġnivadenuk it
Ġdaar u
Ġdut avas
Ġsaro var
jamm u
Ġshahad at
Ġpadiv ues
Ġpey aryl
Ġcertain ly
Ġguruv ara
Ġaakars hith
clus ive
Ġjabard ast
Ġmaatar aa
Ġsunw aayee
Ġprado oshan
M C
T ags
V ra
j ethi
k hana
m ali
m one
m andi
p la
v s
x m
y are
Ġs ust
Ġk asa
Ġk ings
Ġt ike
ch indi
Ġm akk
Ġm use
Ġv od
Ġv undi
ad haar
ad haran
ak han
ak ri
is ation
Ġg ag
Ġg lic
Ġg ula
aa vi
il ay
han al
Ġc k
Ġc oney
Ġr ati
Ġr ush
Ġw ing
ul ed
uk it
ed hire
Ġf aida
Ġra am
Ġra ag
id el
ud ev
Ġo jan
Ġpra gaya
Ġsam ano
Ġto ot
sh udhu
Ġpr eet
hal ma
hak aa
Ġe as
Ġne hami
Ġdi ye
Ġh urt
Ġh ukum
Ġar umayana
Ġad yatte
ast le
Ġat ul
Ġat ikaraman
Ġba alo
Ġor ukk
Ġap arat
iy eshan
ind ep
Ġun ic
ram aa
var in
var it
Ġaap avani
Ġva itr
ro ma
Ġsha andaar
Ġvid um
Ġpad ayatra
Ġnir k
Ġnir dd
ham o
ĠM ac
Ġsab ask
Ġtha g
ans hip
shan to
Ġsang len
yas ang
pan is
Ġcon che
pal am
ba ani
Ġrak hine
Ġdin aank
Ġdhar ne
ard ar
Ġta alim
Ġlaag ya
alo chan
ĠR iver
Ġchar ti
ĠF ire
haan cha
ĠG aal
Ġvik asa
Ġni àµ¼tt
Ġpal am
enn o
Ġghat a
ja ise
ja haan
ĠJ im
Ġkhar cha
Ġsu inn
Ġtir u
Ġbho j
Ġti u
Ġshr idhar
eshan s
Ġbaj ula
Ġlik es
Ġjill ana
gan ave
Ġ13 5
Ġwar ning
Ġaay udh
Ġkond an
Ġmhan ala
Ġmit an
Ġnik aa
Ġnik ale
Ġlaga un
Ġwork er
Ġop his
Ġmunn ari
bhag ya
Ġchet ti
tya cha
Ġsukh dev
Ġib rahim
Ġinn uru
Ġpratyek anga
chha bi
hs il
lik eshan
Ġpancha m
Ġtwit er
Ġnirman er
Ġsaak shakar
Ġtapa iko
Ġask ing
tel ug
Ġkaryan oàµ¾
Ġprant alo
Ġoper ating
Ġeff ort
Ġgira vat
Ġwalk ed
imp ri
Ġkase il
Ġphy d
Ġbull et
Ġkhid aria
Ġkag al
Ġkanti pur
Ġpae ven
Ġfakir ndu
Ġrij ar
Ġshuukrav aari
andhra pradesh
Ġupd ates
Ġadalat ale
Ġeffect s
Ġkhup ach
Ġdeng ue
sos hal
Ġniog er
Ġmuhur te
Ġphys ical
Ġupare ekshak
Ġautom atic
Ġsudd en
TM L
Ġmatdaar asang
Ġdasat avez
Ġpreval ent
Ġnishedhaj na
Ġavaga han
b bu
d el
d wara
f ase
g ets
h ree
l aj
l ass
m aid
m airunnu
t yaacha
w art
y attil
y uktar
ar un
Ġs utt
Ġs unnat
Ġk akk
Ġm yach
Ġb angi
Ġd aj
Ġn od
it hia
as er
ak in
ak ka
Ġj es
Ġch uri
Ġc od
Ġan veshi
Ġkar ina
ul it
ap har
ab has
Ġra vat
Ġthe rik
Ġthe atre
Ġpar ant
ol f
ol en
ani ch
Ġsa ud
Ġy anda
Ġche yak
ali od
Ġcha c
Ġcha du
Ġcha patt
att ote
Ġad ay
Ġad rav
Ġst one
Ġman idhar
bha aj
bha gal
Ġba hus
Ġpa udi
Ġvar a
ara c
var il
Ġva in
Ġva hin
Ġsha uk
Ġpat ik
uv all
Ġpad ha
Ġpad akshap
Ġbad hir
Ġav ante
ĠS ingh
ako sh
Ġsab hamukh
ĠC amp
Ġchha ati
tu es
Ġraj at
Ġraj ini
Ġsar daar
Ġtar ch
ht psml
Ġprat ish
Ġsang e
Ġsang hako
uch ana
ĠT oday
ini u
Ġcon vin
Ġvya par
Ġper uku
ukk oll
Ġud i
Ġud hyam
me ga
Ġdhar man
inch ukuni
Ġpun a
hun a
hun i
Ġsp ir
Ġdar al
pr int
Ġbat aane
ĠG a
ĠG rant
Ġvik ra
Ġmul akat
Ġ10 9
Ġbas eka
Ġdur anga
Ġbharat pur
Ġem otional
tt am
sam achar
Ġanus aran
Ġmand l
Ġsand hyak
Ġvit al
Ġsamband hich
ins on
Ġnar ak
Ġaak hi
Ġapp udu
Ġmahin ia
Ġkhat ri
Ġkhat arna
Ġchak odar
Ġvin ay
sk y
atar f
Ġfl or
Ġtad itr
Ġair tel
Ġprakas her
Ġmantr al
Ġker ir
Ġever o
Ġsil hate
Ġpade gaa
Ġsel utt
rin agar
lan tic
Ġchhil o
isha bh
Ġkaaryak rama
Ġyen athiya
Ġsen ava
Ġsamar p
avir uddh
abhar at
ukun tan
Ġvidesh ma
Ġgel lo
uvad angu
Ġgoun ma
ĠAn dhra
Ġmanass ilak
Ġrun s
Ġthal ak
Ġama ind
Ġjanat ale
Ġjanat alai
Ġkeep ing
Ġprom pt
Ġett ptt
Ġasam bhav
Ġapad ete
Ġenni war
Ġple aded
Ġradi allahu
Ġnirv aah
Ġchiz s
Ġcoll ap
Ġpatrakar ita
Ġtvar alo
Ġlash kar
Ġnimn likhit
Ġpunarnir maan
Ġjanag aner
Ġaip hone
Ġsamik shal
Ġkeralat ile
Ġakasma at
ĠMel bourne
Ġeduc ation
Ġadvan ce
Ġissu ed
Ġjord ar
Ġfivr anga
Ġkuld eep
Ġnehm ich
Ġsarok aar
Ġadhina yak
I I
M o
S ec
b inner
c ip
d ot
d ivas
f akt
g ang
g ia
i ent
j p
j agat
n ani
n alu
p aid
r usht
u z
w ate
â Ģ
ar pan
ha pp
Ġs alam
Ġk achhi
al ine
Ġm ull
Ġm aku
Ġb hel
Ġb ose
ra ashtrapati
Ġn um
Ġv aan
Ġg hee
Ġc ub
Ġan it
ay un
uk as
ab led
Ġpar ap
ma ithun
Ġsam ad
Ġsam ip
Ġke en
ot ra
hat il
hat han
Ġsa ina
Ġpr iti
Ġse ve
Ġdi ar
aan ee
cha e
re es
hy ane
att ul
Ġda alaa
Ġgar dan
Ġpa c
ala hi
Ġis de
Ġup adhi
os hik
Ġaap urti
Ġit iv
hya pi
ĠM un
Ġsab asma
Ġchha die
Ġsak ses
Ġal ele
Ġmar r
Ġlag ave
yam u
yas i
uch ar
Ġkam ko
Ġpo ora
ĠP olit
ĠP DF
Ġpur van
Ġak sha
Ġmuk alil
Ġdek hnaa
Ġir on
Ġud har
Ġdhar avata
ĠL ord
Ġgo otia
Ġdis ate
ĠG rand
ĠG ames
Ġac senj
Ġbas ic
ff ord
hav id
aay ojan
Ġmal ta
Ġprati mantri
ikal ute
Ġaar am
Ġkad on
Ġthan d
app etutt
Ġmag aj
Ġbho ot
Ġind ustr
201 80
Ġkho la
Ġid ul
Ġfilm on
avan yaat
Ġter dalil
kk um
Ġits elf
Ġvaa fat
Ġbhe la
Ġmel vo
Ġbak ki
Ġvak ubbu
Ġcomm itted
Ġset ings
Ġ23 0
Ġkach in
Ġvarsha cha
Ġsari yana
Ġpu àµ¼
Ġmantr ale
Ġnish ulk
Ġtul anet
Ġkim taan
put iya
attin ai
Ġjaag ir
Ġver ute
Ġpraman ma
ac y
Ġvitt ik
Ġpadd na
Ġpoor ve
Ġvaid eshik
Ġschool s
Ġshab ada
Ġnib andh
Ġbim aria
Ġyuvak er
Ġbann ed
Ġtelus u
Ġcongres ane
Ġcoup les
Ġbay opic
Ġsadas yon
ros oft
Ġtom ake
Ġdress ed
Ġkheti bari
Ġmuluk ama
Ġsapta he
ĠInter net
ĠAf ghanistan
Ġpie ce
Ġzar ur
Ġgatt lo
Ġnash ta
Ġrestaur ants
Ġvine p
Ġvimaansthal ma
ĠAng eles
Ġprotsa han
Ġinqu est
Ġdisap point
chary attil
Ġadr v
Ġswik ruti
Ġdair y
Ġaashir vad
akr mider
Ġapag haat
Ġradhak rishna
Ġexact ly
Ġvanas pati
Ġvaktav y
5 000
b aare
c up
d uku
h uri
k sh
k kar
n aku
p on
s aid
t aka
w ir
Ġs ti
Ġs alla
Ġk ddi
Ġp sy
in ote
Ġt rit
ch em
Ġm ell
Ġb rut
Ġd op
ra han
en el
is ia
aa ga
aa bi
Ġkar za
Ġkar iyar
av s
av ate
Ġr iyal
et or
et ter
Ġw ata
Ġf ag
ab en
Ġra p
Ġra pra
Ġra shed
ag g
Ġma hay
Ġpar ungs
Ġpar arashtra
Ġsam ya
hal yaahi
hak aran
Ġbha aga
Ġar ik
Ġar indu
Ġek ek
Ġad op
Ġda in
Ġman iku
Ġor ung
Ġka wn
Ġon llum
os y
Ġsan yam
var uk
ura an
ter m
Ġvid o
Ġpad ato
Ġnir bha
Ġnir san
Ġnir eekshak
ĠS ter
vi bhag
Ġsab ji
Ġchha vi
ann al
Ġtha iland
Ġal u
wa higuru
Ġsar n
ĠA sh
ĠA ustrali
ĠT est
Ġkha at
ĠB ow
pra sar
pra vart
Ġu u
Ġpur cha
Ġak ad
Ġak ele
pa cha
utt il
The ir
Ġpe ras
Ġpe eth
ĠL IVE
Ġadhik tam
ĠH TML
Ġgo enda
Ġdis i
Ġdis an
inn ilil
ĠG iz
amb i
Ġac tions
aman o
pe ra
Ġpal uru
Ġla har
Ġund edi
Ġviv stha
Ġbar hi
isi ai
gat kal
Ġfa ili
Ġtal wandi
Ġil air
Ġniy at
Ġkav ach
Ġpas ar
aap ke
aru urat
ĠU N
Ġsun am
Ġjanya i
Ġroj gari
Ġkarn ali
Ġprav artan
Ġpaa chha
Ġbij y
anti ar
Ġiv valu
Ġjam ayat
Ġter ang
Ġparik shal
esha b
Ġsim ple
chat u
Ġset ing
Ġmet hi
Ġjod ayela
Ġdun iyama
Ġnit ya
Ġjin is
Ġred u
prat ikarian
Ġkim ati
Ġdaa yar
Ġwhat s
Ġpre ma
Ġmadad athi
Ġvibhaag ane
Ġsite var
rig ade
Ġgav eshan
elf are
Ġfil ter
Ġ198 6
shr omani
sat ta
Ġbahu jan
Ġmem ory
Ġduj an
Ġnetrit vama
arshi p
Ġlead ership
Ġnird hari
Ġpriv et
Ġmaham arg
Ġubha y
fas al
Ġbhraman ma
Ġalam gir
bhaj p
Ġbazar ma
Ġdist rib
Ġkanoon ee
Ġrus hed
Ġgave er
esc ription
bur gh
Ġpratiyogit ama
Ġbidd y
dig ital
Ġtheriya dhu
Ġvyatirek anga
Ġchaut ho
Ġtathya prayukti
Ġsv aagat
Ġketi ar
Ġbicha ma
ĠDani el
Ġbisi es
Ġswatch ta
Ġsignific ant
Ġraso i
propri ate
aluman ow
Ġkhatarna ak
A c
c ategori
e u
e rai
f ed
g ali
j ie
j asto
l uk
l ong
m agar
r alo
r ike
s ol
t est
t hod
v or
y alai
y antr
ar luku
Ġp app
in ca
Ġa ki
am on
am airunnu
Ġb oll
Ġb rat
Ġn inte
Ġn edu
Ġj ara
Ġg ham
aa en
Ġl ava
ut aru
ek ee
Ġkar ani
av umai
el si
ir vach
us u
us alem
and ip
ab hra
Ġthe vat
Ġo en
Ġo ct
Ġpar esh
Ġpra ivet
ma hi
Ġsam pratik
Ġsa ukar
hal ya
Ġy uk
Ġy ork
Ġy oth
Ġse van
cha ai
Ġas soc
Ġko od
Ġko shi
Ġcha iye
att at
Ġda yaa
Ġman ik
Ġat ke
Ġvar udam
ara ina
art o
Ġup ach
Ġsha hari
ka un
Ġsak enge
Ġraj niti
Ġmar mat
àµ½ hi
ĠB al
ĠB el
Ġshe ll
àµ¼ chcha
Ġjo y
Ġban avaa
Ġbal aar
sa ha
Ġdin amum
Ġshak asho
Ġud yaman
ĠD own
ĠD ownload
Ġshar aab
hun g
ĠL ouis
Ġsp id
Ġnaa ve
Ġchar phil
Ġ6 000
mad he
Ġtr up
Ġcl imb
Ġvad odara
ĠW ind
ĠW enger
Ġmul i
Ġga hro
Ġviv r
so hi
Ġed it
sam aaj
Ġsamaj un
Ġ12 8
bo hut
ĠK habar
Ġkon n
Ġkav ada
Ġkav adanto
Ġaw amil
Ġtim ro
Ġbhav ama
Ġbol isar
ashi sh
Ġgat esamm
Ġoff ers
Ġnas ate
rav ya
Ġrasht irya
Ġsanst hana
Ġkol patea
Ġpatr al
Ġnira int
Ġyan cheavar
Ġkas ale
Ġraa huun
Ġmay eder
Ġaag aman
Ġkach ra
Ġchun tic
Ġpahun chi
Ġser nd
Ġvishesh gy
Ġbait ke
Ġatt orney
Ġsol vatu
opp ing
bhaav en
Ġcal cium
Ġmi hnat
umay ull
Ġjet u
Ġkahe vaa
Ġsadak as
ban ne
Ġpash chatt
Ġpravesh pett
Ġbakh ri
Ġnay i
Ġchint an
Al though
Ġfil ed
Ġserv ing
Ġanup aat
Ġvidhyaart hyana
andar bhaat
Ġcas oti
Ġjih di
Ġcaralay er
Ġbam ojim
Ġhud kal
Ġchul in
Ġfall ing
Ġanubhut ha
Ġniryat han
bre ak
Ġnes nal
Ġyus uf
cong res
Ġprofession al
categori zed
b odh
b indu
c ele
d ol
d hav
i yak
j ant
k ars
m ers
n tu
o es
o om
w ade
y enn
at ul
at la
Ġp up
Ġp aay
am ritsar
Ġd aria
Ġv arkar
Ġj hi
Ġj us
Ġg ed
aa che
Ġl uc
Ġch enna
Ġch angalesow
Ġan mal
har ik
av ato
Ġr ann
Ġr amb
ul der
us ki
us ion
ud ia
Ġma heen
Ġma angi
Ġo bhar
ic nam
Ġpra vad
up adi
Ġsam al
Ġto y
Ġsa je
Ġna chch
Ġho v
ana e
Ġe ph
Ġdi a
Ġdi am
Ġbha s
und hara
att er
ill ance
ip patu
Ġya p
Ġen no
Ġman ak
Ġat ut
Ġap r
Ġis kat
Ġup kram
os it
var gal
Ġre asons
Ġnir utt
Ġbad ia
kar o
kar un
haa h
Ġbhar tail
Ġtha an
Ġal unar
Ġmar anam
Ġtar l
yu va
she tak
Ġvich ard
ond s
aya am
bar am
Ġak shan
sa udi
Ġkare chillen
ly n
ĠD ef
aka cha
Ġle aves
Ġik kar
Ġmil k
Ġmil ade
Ġnet ader
Ġvik san
Ġ10 4
Ġga u
ff e
Ġz aruurat
rak shak
Ġtya ag
pi x
Ġhad ataal
Ġed ai
Ġkaam yaab
Ġkon thr
Ġmag al
raj na
Ġbho pal
rat ic
Ġbhav nagar
Ġunn ti
Ġthak aven
Ġnal ku
Ġvach un
Ġbab ies
Ġkarn an
Ġev ite
Ġcap s
Ġpatt mi
mp asoon
ec ution
asha st
Ġsub ject
Ġmahin ako
Ġnij an
amar sh
Ġnick olk
muk ti
Ġsk y
Ġpich ho
Ġrok n
Ġmile ga
hich t
angan um
Ġlav un
sad ak
Ġvell um
Ġbon k
Ġghatn ama
Ġbudh vaari
Ġtann t
àµ¼t tu
Ġvyat yas
urr ent
Ġlu cky
Ġtw in
Ġchennai il
Ġbangab andhur
Ġgaj ipur
Ġdisc ount
Ġjivit alo
Ġupad hya
Ġpis kar
ĠBar celona
Ġbeng ar
Ġakh baar
ĠAf rican
ukir ar
Ġshur ute
ici ans
Ġparim it
Ġdoos are
Ġplat form
Ġgi ant
zer land
Ġadiv ara
AC E
chun aav
nek apa
Ġsugg ests
ĠScott ish
Ġteranjeet up
Ġnah undaa
f rance
g aja
j ug
k oni
k anu
k ichu
k shep
m em
n iv
p engal
r ite
s ata
s pe
t ante
v ivar
w ide
an vin
ar asi
Ġs panish
Ġk ueach
al yane
al akshmi
ch aria
Ġa alay
Ġa epachhi
Ġm unda
Ġb unde
as w
on ar
is ir
Ġg ras
han n
Ġl avi
Ġc elle
Ġha tt
Ġha val
uk am
uk ali
Ġf et
Ġf and
ab y
ab and
ud as
Ġo unu
Ġpar abhar
iv ate
ri z
Ġpr ec
Ġ1 19
hal il
Ġte zi
ent an
ip id
yak am
Ġya der
Ġgar iskeko
ank ail
Ġman ni
Ġman age
Ġman ishi
Ġat mas
Ġpa haar
Ġpa alak
Ġvar dhan
Ġvar gat
Ġab b
Ġpad la
ĠS panish
ann ik
Ġal ps
ij na
Ġmar ik
man us
adi um
ull ekhya
Ġsw iss
Ġpo unu
Ġir upat
Ġro ope
Ġshar es
inch ina
shi chu
Ġtam ku
Ġlaag n
ĠR aj
Ġchar man
Ġdis hama
ett es
Ġkan unnat
ĠW ill
Ġvyak tilaai
avar g
avar na
Ġfo uji
umb hu
Ġdes igner
Ġdesh ti
pi el
mar atha
Ġmot aa
uda har
Ġmed ha
Ġmed havi
Ġtra vell
uko val
Ġang re
Ġmag il
chit anga
Ġaw aaz
Ġsaf a
Ġim e
Ġvan sha
Ġbhav ani
antar jatik
Ġbut ter
Ġpram od
Ġpot ane
Ġsm ith
Ġmus hak
Ġur ud
Ġkhel ar
Ġmas ti
Ġameric ama
Ġsthan aion
Ġnak li
Ġvand ho
chak al
Ġaak hade
Ġsir sa
kan chi
Ġvijay vad
uma àµ¼
Ġtaar aka
vak ank
Ġbh or
ande z
Ġghan an
Ġbra ke
arn ak
Ġbel gium
Ġvr iksh
din iki
Ġmadhya varti
sang rher
Ġsom war
Ġtele ani
Ġchey yu
Ġatt ak
Ġmahas us
Ġtyas apachhi
sad haran
rund atu
Ġadhi vesh
Ġpha ido
gra de
Ġdus ron
Ġkhad ka
Ġvet ra
hs aan
Ġnay ika
Ġsaad he
Ġfes buke
Ġnaagarik ta
ikas il
ikunnat in
Ġvyat ha
mon irhat
nak aar
Ġreal ity
Ġkarudd ukkass
Ġseyya ppatt
Ġaid s
Ġranj an
cop patt
rukk intu
Ġmanj uri
sm art
Ġaasar aa
Ġvahat tues
ĠApp le
Ġmaidan ama
Ġsch eme
Ġsril ank
Ġvisar jan
vate e
Ġprovid es
Ġjani eko
Ġpooch hyu
Ġpratyak ash
Ġapa haran
amaan ya
Ġbhidi osahit
Ġassiv ipu
mura su
ĠQue en
Ġtaap maana
Ġmarut uv
Ġraviv aari
Ġrachn avaan
ĠVide os
Ġmanap sand
Ġthup rai
Ġbaithke et
E ar
b ane
c ase
f ing
i en
j im
l apai
m is
m ab
n aval
p har
an is
Ġk rut
at chi
at li
Ġp agar
in il
ch chi
am sar
Ġb oun
Ġv atu
Ġv ice
Ġv icket
it ne
it ve
it ull
ak ut
Ġj hil
Ġj uta
Ġg agan
or ate
Ġha ati
Ġan chu
Ġr att
et he
Ġw ish
ir maan
uk ay
ag ers
Ġpar na
ang ers
Ġpra udyog
Ġpra veen
iv aare
sh or
Ġsa hya
Ġpr ices
Ġdi ha
ich h
ich in
te va
Ġte ar
ent h
ok h
ok har
Ġcha so
im dhye
yak tik
Ġen heen
Ġen for
Ġgar on
ug ram
Ġpa hu
Ġpa àµ¼
Ġap anaa
Ġap point
Ġka hu
ash was
ram p
os al
Ġja al
Ġi àµ»
Ġit inte
Ġva ikal
Ġsh udd
Ġsh udhumatra
Ġsha sh
Ġmo ham
ĠS tr
ham in
ĠM ass
vi ra
Ġ3 0000
Ġal as
wa f
wa as
Ġmar am
Ġmar um
ĠA mar
shan s
Ġsang hale
Ġsw ine
ĠB JP
Ġmuk ha
Ġmuk abala
Ġbal ad
Ġud ar
Ġud pat
Ġhar ji
inch ints
shi d
Ġsho dhi
Ġsho cked
Ġsho lapur
Ġdar av
Ġfr ant
ĠF ACE
Ġkan uni
chan u
Ġga ut
Ġkhan al
Ġkhan ni
Ġmot abha
si ze
Ġtir n
Ġsamaj ala
bh ushan
19 80
Ġjiv ant
aad hunik
Ġgun s
Ġmod h
Ġroj a
Ġpati ent
Ġul t
Ġaj ib
Ġsarv shereshth
Ġchho ta
Ġli quid
ĠV ir
Ġras ate
patt uldu
arn du
Ġmon soon
shik shak
Ġjana ya
Ġkud rat
Ġcoun sil
Ġair lines
Ġdh wani
Ġpug er
naa o
Ġprasha sana
Ġvip aksh
Ġved a
kad aayak
Ġnirm ala
amat te
Ġvyavs aaye
Ġbin im
Ġgav er
Ġshetak ayani
Ġgrahan er
Ġuddesh yle
Ġkale ct
Ġvapar akart
can cer
Ġsarvat ra
Ġkull chu
Ġsoll ung
Ġpej ilo
ĠRe g
Ġaah vaan
Ġpedd aga
Ġroom s
phon es
Ġbatoun ubhaeko
Ġsadas yer
Ġjav abad
Ġedutt asher
Ġnirmat s
ĠFr ank
Ġmanuk han
Ġmumba it
Ġniyantr ana
Ġbenef it
Ġchip h
Ġumidwar aan
Ġmyan mar
Ġsoor ath
Ġpratiyogit ako
Ġrik t
Ġlabhi an
Ġnagars evak
kim mat
Ġbehaal ama
Ġaustra ili
Ġpratid band
Ġseek ing
Ġmahatav puuran
Ġinvest ment
Ġatik rama
Ġincred ible
bistar it
Ġmuth bhed
ĠCC TV
Ġsaakshaat kaar
Ġcheta wani
Ġastha ayee
arawalok ane
Ġnegat ive
I R
a ugust
h A
n us
r ont
s undar
Ġ àµ½
ha sh
Ġs ali
Ġs ine
Ġs ash
Ġk hut
at anto
in ak
al en
Ġt sun
Ġb use
Ġd andi
Ġd ental
Ġn int
Ġn ikh
Ġn illen
ya vi
it te
is ma
is aki
Ġj als
Ġg odh
il itre
Ġl iv
ik ku
Ġch him
Ġan in
Ġan jali
ho y
ho le
Ġr ib
et un
Ġw ars
ap tr
ap puram
id ing
ag aa
ud es
Ġma are
Ġo àµº
Ġsa jan
Ġpr et
Ġ2 10
Ġe gypt
st yle
Ġko vil
ok ia
att uga
ve ment
Ġek adhik
all er
yak ti
ark an
Ġda waan
Ġvar dd
op atak
Ġka aka
Ġkaa ya
Ġsan ved
Ġja z
hya ay
Ġab ed
Ġsha d
Ġsha ping
Ġpat ras
ann y
Ġsak hi
Ġraj pa
Ġmat erial
Ġsar ve
Ġmar it
Ġtar ha
Ġtak riban
Ġkha ata
ĠP O
ĠB or
Ġcon vers
Ġsad hus
hen kil
Ġdin ajpur
Ġhar akat
Ġsat kar
Ġpe àµ¼
Ġta ha
Ġle gs
Ġadhik amak
ĠH amp
Ġpak e
Ġwe ve
bad utt
ĠW al
akk d
als inde
Ġbar baad
pi em
je eta
Ġsu city
antr y
vid eshi
Ġwho m
Ġil akki
Ġil zaam
Ġnav aj
Ġbho ku
rat ine
Ġgarne ch
Ġchand an
Ġnaahi ye
Ġhal samm
Ġbij o
Ġbij ness
hap ana
Ġvat ak
Ġgad h
Ġter min
Ġthir ug
Ġstr oke
Ġmana un
Ġmana jit
Ġkas an
Ġmane jar
Ġtap e
nam u
ern andez
Ġchin ako
Ġraaj kaaran
Ġnick nera
Ġadi ppati
Ġcont ettiyat
Ġcho di
Ġvel iv
Ġmunn ot
vie ws
ĠSt ory
Ġchir ugatai
Ġcongress le
Ġgir ish
go ti
Ġdet o
Ġada akara
Ġvibhag aka
ĠUn categorized
Ġakk di
Ġchandra shekhar
Ġmans il
kha as
Ġfour th
cap atan
Ġdol phin
Ġfin ance
ĠAr my
Ġten athi
Ġkann ikàµ¾
Ġown ers
gur ubani
lok an
Ġpower ful
Ġshradd hik
Ġlang h
Ġmach h
Ġmass age
Ġnagarpalika ca
Ġraju at
sur esh
Ġparichal ith
don on
Ġteli adu
Ġdeb ut
Ġbahum ati
ĠIs ra
ĠBe ach
ĠYork shire
Ġjhaalya var
Ġakh tar
Ġjos aph
chada o
Ġpahi chan
Ġjeet ne
ĠAll en
Ġrequ ired
Ġbrother s
Ġocc asion
Ġvadha un
ĠCan ada
Ġganat antra
Ġterror ist
http st
Ġregular ly
Ġjhadap athi
aak hir
Ġrajyam antri
Ġshetakayan chya
vib hinn
Ġopar ation
Ġdap tar
Ġtasvir en
BO OK
Ġsantha ako
Ġmotorsa ikel
Ġmarp ulu
Ġrout ine
Ġdram atic
koot ate
Ġagal agi
Ġnafar at
Ġlah ore
Ġpurba hn
Ġcommer cial
Ġasus th
Ġswarasht ramantri
Ġchahun di
Ġmultip le
aprap th
gait ka
E L
E ven
H O
P ress
T H
a athi
g hu
n id
ha pad
Ġs aga
Ġs apan
Ġk anda
at it
Ġp ori
Ġt ito
Ġm end
Ġm yag
Ġb hir
Ġd aavo
Ġd istrict
he ta
he da
ya chan
Ġv ra
it ani
ak ulam
Ġl eti
Ġch ikk
ut han
Ġan try
av ite
Ġr ome
Ġr isht
us er
ti d
ti i
ti er
Ġf ill
Ġf unk
Ġra ver
Ġra val
Ġthe rapy
Ġo kar
ri fic
hat an
hat te
Ġho vu
Ġe ward
ish d
unn ti
aan as
ta ins
Ġas en
Ġand us
im ent
hin ar
Ġar ya
hu a
ill u
Ġda ulat
va is
va ise
va àµ»
ni j
Ġba hya
Ġor up
Ġap ang
Ġka ale
Ġjan avi
Ġun mo
em ar
Ġsan aa
Ġpat houn
Ġpad s
Ġmo vi
ĠS qu
ham e
ham ane
ann ai
Ġtha pp
Ġkal ar
Ġprat yashi
Ġag re
Ġtak ali
ĠT ory
Ġkha war
ĠP ol
yat ha
ĠB usiness
ĠI ran
ĠI SIS
ika il
Ġkat utt
Ġkat idam
Ġaav ine
Ġvya y
se h
ĠN at
Ġchal ia
Ġir ani
Ġso ot
pa ani
inch arani
Ġsp in
Ġmul gi
ava ana
Ġbas o
po on
Ġmaa zan
Ġmaa fee
umb u
Ġgai m
ja in
je cts
ikal ku
Ġfa as
Ġ12 6
Ġil akaas
Ġkav alsin
bh uk
Ġmag as
Ġnav nir
Ġvan chit
Ġbhav uk
Ġjiv i
Ġmin etma
Ġ11 1
Ġunn ay
Ġthak che
Ġnal val
Ġfar ithi
Ġes ia
Ġmu hurt
Ġpaa en
Ġpahil yanda
umar ch
ump onu
Ġkit chen
Ġsanst har
Ġniv aran
Ġsaa cha
Ġaat lu
Ġprashn khs
Ġcong ree
Ġnik uti
ost a
Ġmet ric
Ġshat r
uli et
Ġmaha palika
Ġrakh ven
Ġdab aab
Ġill ness
Ġvarsha ant
jit he
Ġpich ha
Ġjana ale
Ġdaura a
Ġmunn er
aiy lai
Ġrav itej
Ġsuk had
Ġdam pati
Ġmahas hak
Ġprakaar chya
Ġass istant
Ġpaid al
tyas agari
Ġexp ensive
Ġopp am
Ġvari ous
Ġknow s
Ġjanaay eka
Ġshanti purna
Ġgoun palik
Ġchok ri
pul ish
Ġshas nae
Ġpid at
44 3
Ġsweek ruti
Ġnatakk unnat
Ġpell n
inchan unnar
Ġswatantr ata
Ġmanor anj
Ġmahen ath
Ġtaluk yatil
Ġstor m
Ġcir cum
Ġpartic ip
Ġchhatra pati
Ġdhama aka
Ġadmin istrat
Ġvo ice
Ġsonn atu
Ġpurva hn
Ġstrugg ling
Ġkendram aa
anduk ante
raaj nne
Ġedudd uk
apram ukh
Ġtrail or
Ġgarbhav ati
Me an
Ġghim ir
niyam it
Ġjagann ath
kyon ki
Ġfreed om
Ġtosil nut
ĠWalk er
Ġiq bal
Ġhiz aable
Ġaadh var
Ġnatabe antu
aaga amee
H es
I l
P a
b hr
d ach
e va
j ner
n aj
n anjhi
p ij
r g
r ek
s ini
z es
ar A
ar ne
Ġs oj
Ġs aai
Ġp halo
Ġt apar
Ġt ichaa
Ġb aper
ra de
Ġn ene
Ġn edia
Ġv eri
un ge
un alai
as hit
Ġj ute
Ġj ong
Ġg rin
aa hat
Ġl ying
Ġch anda
or ter
Ġha id
Ġkar ant
ho ra
Ġr ural
el ing
et um
ed ukan
Ġf on
Ġra id
Ġra hina
id en
Ġpar ab
ant an
up al
ati e
ati yak
Ġin aiya
Ġin come
Ġna uka
Ġpr ame
Ġpr alo
Ġy ati
Ġse hat
unn tan
aj h
te mani
Ġche p
Ġaa ya
Ġst amp
Ġst ora
Ġda ad
Ġat chi
Ġat ikram
Ġba ins
Ġpa unche
Ġvar te
Ġam man
Ġi um
Ġva hana
Ġsh ing
Ġpat u
uv ari
ub handa
Ġmo vies
Ġbhar osa
ĠS MS
ĠC hief
ce ed
Ġmat s
Ġpan is
ĠA maz
Ġkal ashal
Ġag yaat
she s
Ġtak un
Ġshe tt
ĠI f
ika ute
Ġaav ashya
Ġlo an
par ason
itt ik
Ġir ukkihar
Ġsp lit
Ġsho dha
ene gro
ĠH or
Ġmil u
ji hda
Ġband ob
Ġcl ash
Ġvad aa
ĠW ord
Ġmul t
Ġpart hen
Ġbas la
Ġsamay thi
Ġsamay dekhi
Ġabhi jeeta
Ġkhan er
ven ue
Ġkhar chu
vu ess
Ġram ak
sam park
Ġshi m
Ġshi varaj
Ġsu ha
Ġhat hiya
Ġet ti
ĠK elly
Ġang il
Ġsand eep
Ġshr uti
Ġcan adian
yad hyapi
Ġtem nu
Ġer port
Ġyet il
Ġgho lam
Ġsanst haa
Ġvil ak
Ġprashn ottar
Ġmahila as
rant o
Ġparik rama
Ġkol pat
12 15
Ġhon our
Ġmun ne
Ġvin iyojan
ĠThe re
Ġlaga akar
Ġbel ong
Ġvr ik
Ġvyakt iko
Ġill aiya
Ġyas ama
Ġast hma
Ġyat hest
Ġjeevan amaa
Ġuni que
Ġgri p
Ġtyas aile
Ġkahe vama
Ġlav ali
ugal um
Ġtari f
Ġvikas ko
200 4
Ġq atar
Ġvitt ite
Ġrem ove
Ġsos ayadi
Ġsambha wana
mana je
Ġuj uri
Ġkant at
amo di
Ġbid aa
prati yog
Ġcons um
oc al
Ġmalay si
Ġjaga at
Ġanup i
Ġshil pi
Ġnib and
Ġchada o
Ġpetrol di
Ġreal ised
Ġnond ani
chik its
ivu ess
Ġkutt is
Ġakram ak
Ġsangeet kaar
hyal yako
Ġvaruk insener
ĠOne indi
Ġfans i
Ġkitaab s
Ġpell um
Ġpolit ics
Ġkarai che
Ġvaik it
ukaa irunnu
Ġzind agi
adhya apak
waa o
shiv aji
ĠIt alian
Ġkuk ur
Ġkoot ate
Ġgru hamantri
Ġkarmcha ariyon
kom al
Ġkaryak art
Ġchris ti
Ġpaint ing
[...]
