{"<s>":0,"<pad>":1,"</s>":2,"<unk>":3,"!":4,"\"":5,"#":6,"$":7,"%":8,"&":9,"'":10,"(":11,")":12,"*":13,"+":14,",":15,"-":16,".":17,"/":18,"0":19,"1":20,"2":21,"3":22,"4":23,"5":24,"6":25,"7":26,"8":27,"9":28,":":29,";":30,"<":31,"=":32,">":33,"?":34,"@":35,"A":36,"B":37,"C":38,"D":39,"E":40,"F":41,"G":42,"H":43,"I":44,"J":45,"K":46,"L":47,"M":48,"N":49,"O":50,"P":51,"Q":52,"R":53,"S":54,"T":55,"U":56,"V":57,"W":58,"X":59,"Y":60,"Z":61,"[":62,"\\":63,"]":64,"^":65,"_":66,"`":67,"a":68,"b":69,"c":70,"d":71,"e":72,"f":73,"g":74,"h":75,"i":76,"j":77,"k":78,"l":79,"m":80,"n":81,"o":82,"p":83,"q":84,"r":85,"s":86,"t":87,"u":88,"v":89,"w":90,"x":91,"y":92,"z":93,"{":94,"|":95,"}":96,"~":97,"¡":98,"¢":99,"£":100,"¤":101,"¥":102,"¦":103,"§":104,"¨":105,"©":106,"ª":107,"«":108,"¬":109,"®":110,"¯":111,"°":112,"±":113,"²":114,"³":115,"´":116,"µ":117,"¶":118,"·":119,"¸":120,"¹":121,"º":122,"»":123,"¼":124,"½":125,"¾":126,"¿":127,"À":128,"Á":129,"Â":130,"Ã":131,"Ä":132,"Å":133,"Æ":134,"Ç":135,"È":136,"É":137,"Ê":138,"Ë":139,"Ì":140,"Í":141,"Î":142,"Ï":143,"Ð":144,"Ñ":145,"Ò":146,"Ó":147,"Ô":148,"Õ":149,"Ö":150,"×":151,"Ø":152,"Ù":153,"Ú":154,"Û":155,"Ü":156,"Ý":157,"Þ":158,"ß":159,"à":160,"á":161,"â":162,"ã":163,"ä":164,"å":165,"æ":166,"ç":167,"è":168,"é":169,"ê":170,"ë":171,"ì":172,"í":173,"î":174,"ï":175,"ð":176,"ñ":177,"ò":178,"ó":179,"ô":180,"õ":181,"ö":182,"÷":183,"ø":184,"ù":185,"ú":186,"û":187,"ü":188,"ý":189,"þ":190,"ÿ":191,"Ā":192,"ā":193,"Ă":194,"ă":195,"Ą":196,"ą":197,"Ć":198,"ć":199,"Ĉ":200,"ĉ":201,"Ċ":202,"ċ":203,"Č":204,"č":205,"Ď":206,"ď":207,"Đ":208,"đ":209,"Ē":210,"ē":211,"Ĕ":212,"ĕ":213,"Ė":214,"ė":215,"Ę":216,"ę":217,"Ě":218,"ě":219,"Ĝ":220,"ĝ":221,"Ğ":222,"ğ":223,"Ġ":224,"ġ":225,"Ģ":226,"ģ":227,"Ĥ":228,"ĥ":229,"Ħ":230,"ħ":231,"Ĩ":232,"ĩ":233,"Ī":234,"ī":235,"Ĭ":236,"ĭ":237,"Į":238,"į":239,"İ":240,"ı":241,"Ĳ":242,"ĳ":243,"Ĵ":244,"ĵ":245,"Ķ":246,"ķ":247,"ĸ":248,"Ĺ":249,"ĺ":250,"Ļ":251,"ļ":252,"Ľ":253,"ľ":254,"Ŀ":255,"ŀ":256,"Ł":257,"ł":258,"Ń":259,"an":260,"ar":261,"ha":262,"Ġs":263,"Ġk":264,"at":265,"Ġp":266,"in":267,"al":268,"Ġt":269,"ch":270,"čĊ":271,"Ġa":272,"Ġm":273,"am":274,"Ġb":275,"Ġd":276,"hi":277,"ra":278,"Ġn":279,"he":280,"ya":281,"Ġv":282,"un":283,"ad":284,"it":285,"er":286,"as":287,"en":288,"on":289,"ak":290,"is":291,"Ġj":292,"Ġg":293,"aa":294,"il":295,"es":296,"han":297,"Ġl":298,"ik":299,"Ġch":300,"Ġc":301,"or":302,"ut":303,"ai":304,"Ġha":305,"Ġan":306,"ur":307,"ek":308,"Ġkar":309,"har":310,"ho":311,"av":312,"ay":313,"Ġr":314,"el":315,"et":316,"Ġw":317,"ir":318,"ul":319,"uk":320,"ed":321,"ap":322,"us":323,"ti":324,"and":325,"Ġf":326,"um":327,"ab":328,"Ġra":329,"id":330,"ag":331,"Ġthe":332,"ud":333,"Ġma":334,"Ġo":335,"ing":336,"aar":337,"Ġpar":338,"ic":339,"ant":340,"ang":341,"Ġpra":342,"ol":343,"iv":344,"ma":345,"up":346,"ati":347,"Ġsam":348,"Ġke":349,"Ġin":350,"ani":351,"ot":352,"ri":353,"le":354,"hat":355,"ari":356,"Ġto":357,"Ġki":358,"sh":359,"Ġhe":360,"Ġsa":361,"Ġna":362,"Ġho":363,"Ġpr":364,"om":365,"ana":366,"Ġ1":367,"Ġde":368,"di":369,"hal":370,"Ġy":371,"Ġ2":372,"hak":373,"Ġe":374,"Ġse":375,"Ġne":376,"ne":377,"od":378,"ate":379,"ish":380,"Ġdi":381,"st":382,"unn":383,"aan":384,"ach":385,"aj":386,"ich":387,"te":388,"Ġh":389,"Ġche":390,"Ġhai":391,"Ġbha":392,"àµ":393,"ane":394,"cha":395,"ta":396,"Ġas":397,"Ġand":398,"re":399,"Ġte":400,"und":401,"ent":402,"Ġko":403,"og":404,"na":405,"ali":406,"ok":407,"esh":408,"Ġcha":409,"hik":410,"im":411,"ale":412,"Ġof":413,"hin":414,"Ġaa":415,"Ġhi":416,"hy":417,"att":418,"Ġar":419,"ve":420,"Ġek":421,"Ġad":422,"all":423,"Ġst":424,"hu":425,"ill":426,"ip":427,"Ġmain":428,"yak":429,"ee":430,"ama":431,"ine":432,"ark":433,"Ġda":434,"ast":435,"Ġya":436,"Ġen":437,"va":438,"Ġgar":439,"ank":440,"Ġman":441,"ug":442,"Ġat":443,"ni":444,"bha":445,"sha":446,"Ġba":447,"Ġpa":448,"Ġor":449,"Ġvar":450,"ig":451,"Ġap":452,"Ġ20":453,"ara":454,"ala":455,"ata":456,"ia":457,"uun":458,"iy":459,"la":460,"op":461,"Ġka":462,"Ġkii":463,"ind":464,"Ġjan":465,"Ġis":466,"Ġon":467,"Ġun":468,"em":469,"ash":470,"ram":471,"art":472,"Ġam":473,"Ġkaa":474,"Ġup":475,"os":476,"Ġnuun":477,"ist":478,"Ġsan":479,"ath":480,"chi":481,"eko":482,"Ġja":483,"Ġbe":484,"var":485,"hit":486,"Ġaap":487,"Ġi":488,"da":489,"Ġit":490,"hya":491,"uj":492,"hil":493,"Ġva":494,"ck":495,"Ġab":496,"ura":497,"Ġsh":498,"end":499,"ars":500,"ro":501,"Ġsha":502,"Ġpat":503,"ter":504,"Ġvid":505,"uv":506,"Ġre":507,"Ġpad":508,"her":509,"Ġnir":510,"ko":511,"Ġbad":512,"ub":513,"kar":514,"haa":515,"Ġmo":516,"Ġbhar":517,"ite":518,"Ġav":519,"ĠS":520,"yan":521,"ham":522,"lo":523,"ib":524,"are":525,"00":526,"ile":527,"ct":528,"ĠM":529,"ka":530,"che":531,"Ġ201":532,"ako":533,"vi":534,"Ġaahe":535,"Ġsab":536,"war":537,"Ġut":538,"ĠC":539,"ga":540,"ce":541,"Ġchha":542,"rit":543,"Ġmad":544,"tu":545,"udd":546,"pat":547,"van":548,"th":549,"one":550,"Ġfor":551,"hir":552,"ann":553,"oj":554,"Ġtha":555,"Ġsak":556,"tar":557,"Ġ3":558,"Ġal":559,"ans":560,"ess":561,"Ġraj":562,"Ġmat":563,"de":564,"ber":565,"ij":566,"wa":567,"Ġsar":568,"Ġmar":569,"Ġus":570,"Ġlag":571,"man":572,"ell":573,"Ġpan":574,"Ġtar":575,"ith":576,"ke":577,"ow":578,"adi":579,"ĠA":580,"Ġcom":581,"Ġkal":582,"ers":583,"est":584,"ht":585,"pp":586,"Ġwas":587,"Ġprat":588,"yu":589,"shan":590,"ie":591,"Ġhan":592,"Ġag":593,"ute":594,"Ġprad":595,"she":596,"yam":597,"Ġsang":598,"yas":599,"Ġnat":600,"Ġvich":601,"Ġane":602,"Ġtak":603,"uch":604,"aag":605,"ada":606,"ond":607,"ĠT":608,"ull":609,"Ġsw":610,"Ġve":611,"ust":612,"Ġate":613,"nu":614,"Ġkha":615,"Ġkam":616,"Ġpo":617,"iti":618,"Ġhas":619,"Ġme":620,"Ġhun":621,"ĠP":622,"antri":623,"to":624,"ini":625,"aid":626,"yo":627,"pan":628,"aya":629,"uru":630,"ame":631,"Ġton":632,"àµ½":633,"yat":634,"ĠB":635,"Ġshe":636,"Ġbhan":637,"ĠI":638,"ika":639,"Ġbhi":640,"ki":641,"Ġkat":642,"Ġ5":643,"ele":644,"Ġdo":645,"bar":646,"àµ¼":647,"ver":648,"aran":649,"Ġvis":650,"ye":651,"pra":652,"ina":653,"Ġhave":654,"Ġu":655,"Ġaav":656,"Ġjo":657,"Ġcon":658,"Ġban":659,"Ġpur":660,"pal":661,"Ġsark":662,"hr":663,"ba":664,"Ġak":665,"Ġ4":666,"ira":667,"du":668,"Ġthat":669,"Ġmuk":670,"Ġlo":671,"Ġbal":672,"Ġvya":673,"se":674,"ort":675,"ise":676,"par":677,"ita":678,"had":679,"ase":680,"ĠN":681,"Ġani":682,"yog":683,"ore":684,"Ġrak":685,"Ġkaar":686,"oun":687,"Ġchal":688,"Ġsad":689,"sa":690,"Ġkare":691,"Ġvish":692,"Ġper":693,"Ġpol":694,"ick":695,"hen":696,"itt":697,"ge":698,"Ġval":699,"tra":700,"Ġsing":701,"ation":702,"Ġaf":703,"Ġdek":704,"Ġjaa":705,"pur":706,"ukk":707,"Ġlai":708,"Ġir":709,"Ġdin":710,"Ġshak":711,"int":712,"ly":713,"Ġlak":714,"athi":715,"Ġthi":716,"Ġnahi":717,"agar":718,"Ġro":719,"Ġso":720,"pa":721,"Ġprak":722,"Ġud":723,"ĠD":724,"Ġshar":725,"ion":726,"indi":727,"Ġkaran":728,"ami":729,"li":730,"Ġhar":731,"me":732,"yaan":733,"Ġnaal":734,"aka":735,"band":736,"Ġwith":737,"hul":738,"Ġdhar":739,"utt":740,"ran":741,"iye":742,"inch":743,"Ġrup":744,"ard":745,"The":746,"atu":747,"eka":748,"Ġpun":749,"Ġpani":750,"Ġsat":751,"Ġpe":752,"Ġta":753,"Ġrahe":754,"hun":755,"ice":756,"Ġbo":757,"shi":758,"Ġhis":759,"Ġnam":760,"ade":761,"uku":762,"ws":763,"aaj":764,"ela":765,"ĠL":766,"Ġtam":767,"hut":768,"Ġsingh":769,"ity":770,"Ġle":771,"ere":772,"Ġsp":773,"ush":774,"Ġsho":775,"Ġik":776,"Ġtat":777,"Ġlaag":778,"ene":779,"Ġye":780,"ue":781,"has":782,"alo":783,"Ġnaa":784,"ukh":785,"Ġadhik":786,"ĠH":787,"ĠR":788,"iya":789,"Ġdar":790,"Ġfr":791,"Ġchar":792,"ku":793,"Ġgo":794,"ike":795,"Ġpak":796,"ep":797,"Ġ6":798,"eti":799,"jab":800,"ave":801,"iki":802,"Ġmil":803,"Ġdis":804,"Ġwor":805,"unnu":806,"Ġlek":807,"Ġ19":808,"ji":809,"Ġvi":810,"àµ¾":811,"Ġco":812,"Ġliye":813,"ett":814,"alay":815,"pr":816,"chya":817,"inn":818,"Ġher":819,"mad":820,"Ġbat":821,"Ġham":822,"Ġwich":823,"Ġband":824,"ĠF":825,"hay":826,"Ġlok":827,"Ġwe":828,"Ġkan":829,"bad":830,"haan":831,"Ġnahin":832,"ayan":833,"aye":834,"dhan":835,"Ġtr":836,"Ġcl":837,"gi":838,"ĠG":839,"Ġnet":840,"anga":841,"amb":842,"Ġvad":843,"ake":844,"Ġvik":845,"20":846,"chan":847,"Ġac":848,"Ġni":849,"Ġvir":850,"hye":851,"Ġsee":852,"ary":853,"ĠW":854,"àµ»":855,"oni":856,"Ġji":857,"Ġmul":858,"hana":859,"ive":860,"ava":861,"Ġby":862,"alai":863,"sht":864,"Ġsaid":865,"uti":866,"Ġvyak":867,"Ġ7":868,"hel":869,"aman":870,"co":871,"Ġ10":872,"Ġyaa":873,"pati":874,"unnat":875,"Ġpart":876,"Ġgur":877,"Ġbas":878,"Ġga":879,"Ġish":880,"Ġno":881,"aav":882,"Ġsamay":883,"Ġ8":884,"akar":885,"Ġsarkaar":886,"pe":887,"ulu":888,"ff":889,"Ġaad":890,"avar":891,"Ġkara":892,"hyam":893,"hn":894,"akk":895,"anj":896,"pad":897,"als":898,"une":899,"Ġmate":900,"Ġdur":901,"eli":902,"haar":903,"ras":904,"Ġghar":905,"Ġpal":906,"aki":907,"Ġla":908,"Ġshik":909,"Ġund":910,"Ġpl":911,"Ġfo":912,"Ġchan":913,"Ġabhi":914,"chal":915,"ment":916,"hav":917,"Ġbharat":918,"char":919,"Ġviv":920,"bhav":921,"mat":922,"po":923,"Ġkhan":924,"enn":925,"Ġchit":926,"andi":927,"yar":928,"ote":929,"Ġkoi":930,"oll":931,"chu":932,"Ġbar":933,"Ġfrom":934,"avi":935,"vad":936,"old":937,"ven":938,"jan":939,"tan":940,"Ġpradhan":941,"Ġmaa":942,"Ġare":943,"Ġz":944,"umb":945,"Ġdes":946,"Ġgai":947,"Ġ2018":948,"tr":949,"Ġghat":950,"aga":951,"tion":952,"dh":953,"ikh":954,"der":955,"vat":956,"ight":957,"isi":958,"yal":959,"rak":960,"ikk":961,"ja":962,"aare":963,"udi":964,"Ġdesh":965,"ĠJ":966,"ĠO":967,"Ġrahi":968,"aay":969,"no":970,"Ġjaan":971,"Ġex":972,"if":973,"ule":974,"ong":975,"ila":976,"Ġtya":977,"Ġje":978,"Ġ9":979,"ĠE":980,"riya":981,"Ġtan":982,"Ġkhar":983,"eng":984,"pi":985,"ass":986,"Ġkut":987,"je":988,"maan":989,"aku":990,"alan":991,"Ġhad":992,"ide":993,"Ġdr":994,"com":995,"Ġdiv":996,"Ġem":997,"sar":998,"Ġhay":999,"ru":1000,"Ġtel":1001,"aari":1002,"vu":1003,"aai":1004,"Ġdu":1005,"vas":1006,"Ġmal":1007,"Ġprati":1008,"Ġram":1009,"ung":1010,"tt":1011,"so":1012,"Ġed":1013,"sam":1014,"ikal":1015,"qu":1016,"Ġall":1017,"uri":1018,"Ġaar":1019,"Ġbhaeko":1020,"eri":1021,"Ġkad":1022,"uld":1023,"angl":1024,"Ġnot":1025,"itu":1026,"hone":1027,"Ġhoo":1028,"tic":1029,"Ġshi":1030,"nar":1031,"Ġsu":1032,"Ġwhi":1033,"ah":1034,"mar":1035,"kal":1036,"hane":1037,"hum":1038,"gat":1039,"Ġyo":1040,"bhar":1041,"antr":1042,"ena":1043,"Ġthek":1044,"Ġmot":1045,"dia":1046,"port":1047,"bi":1048,"eric":1049,"eni":1050,"Ġkaam":1051,"mi":1052,"Ġaaj":1053,"yaat":1054,"shn":1055,"Ġsank":1056,"shak":1057,"ĠNe":1058,"air":1059,"Ġsay":1060,"ato":1061,"amp":1062,"si":1063,"anu":1064,"vach":1065,"age":1066,"akh":1067,"Ġgarn":1068,"achhi":1069,"ree":1070,"Ġtir":1071,"Ġmantri":1072,"val":1073,"Ġfa":1074,"Ġsur":1075,"Ġtal":1076,"yaa":1077,"pt":1078,"Ġhat":1079,"wan":1080,"Ġjha":1081,"Ġoru":1082,"Ġkarte":1083,"Ġpunjab":1084,"mber":1085,"Ġsamaj":1086,"vid":1087,"ikar":1088,"Ġwho":1089,"uda":1090,"Ġpolice":1091,"Ġkarne":1092,"Ġthan":1093,"Ġbi":1094,"app":1095,"Ġhoya":1096,"iko":1097,"Ġmed":1098,"Ġtaan":1099,"Ġ12":1100,"own":1101,"ctor":1102,"Ġil":1103,"Ġjee":1104,"Ġlaagi":1105,"Ġet":1106,"Ġvyav":1107,"Ġpost":1108,"ilm":1109,"anni":1110,"bo":1111,"Ġniy":1112,"ure":1113,"Ġmari":1114,"Ġtra":1115,"Ġkari":1116,"ĠK":1117,"Ġih":1118,"Ġhaj":1119,"ano":1120,"uko":1121,"ott":1122,"Ġkon":1123,"Ġkav":1124,"alu":1125,"bh":1126,"Ġanus":1127,"ord":1128,"unda":1129,"Ġsans":1130,"het":1131,"atil":1132,"ader":1133,"atr":1134,"Ġang":1135,"Ġtho":1136,"Ġpras":1137,"Ġ15":1138,"Ġdil":1139,"Ġmag":1140,"ll":1141,"Ġnav":1142,"chit":1143,"Ġsi":1144,"raj":1145,"Ġaw":1146,"Ġsaf":1147,"rut":1148,"Ġim":1149,"Ġcar":1150,"angal":1151,"oon":1152,"Ġbl":1153,"Ġches":1154,"Ġmand":1155,"Ġ0":1156,"Ġgari":1157,"Ġdev":1158,"Ġvan":1159,"Ġtim":1160,"amm":1161,"ete":1162,"Ġmud":1163,"Ġsand":1164,"Ġuh":1165,"Ġcine":1166,"Ġjar":1167,"Ġdw":1168,"Ġbho":1169,"hon":1170,"Ġpas":1171,"anda":1172,"yon":1173,"aap":1174,"mak":1175,"hia":1176,"Ġgya":1177,"rat":1178,"aru":1179,"19":1180,"Ġbhav":1181,"Ġjiv":1182,"ulo":1183,"ujar":1184,"Ġbol":1185,"antar":1186,"iri":1187,"amaa":1188,"Ġbut":1189,"endra":1190,"ĠU":1191,"Ġdal":1192,"Ġnepal":1193,"Ġsc":1194,"ner":1195,"Ġti":1196,"hed":1197,"mo":1198,"Ġkr":1199,"Ġmin":1200,"Ġ11":1201,"be":1202,"Ġvit":1203,"Ġunn":1204,"Ġcr":1205,"Ġshr":1206,"Ġout":1207,"Ġgaya":1208,"Ġthak":1209,"amil":1210,"mal":1211,"ayu":1212,"Ġafter":1213,"Ġvij":1214,"ome":1215,"Ġind":1216,"Ġvide":1217,"Ġth":1218,"Ġthai":1219,"Ġbeen":1220,"Ġnal":1221,"hyak":1222,"Ġel":1223,"asi":1224,"Ġkaaran":1225,"dai":1226,"Ġsup":1227,"Ġgal":1228,"Ġwere":1229,"ft":1230,"Ġkshe":1231,"Ġpura":1232,"ress":1233,"mantri":1234,"hila":1235,"astha":1236,"use":1237,"per":1238,"Ġsun":1239,"Ġsamband":1240,"201":1241,"Ġevan":1242,"Ġcent":1243,"Ġ200":1244,"hari":1245,"Ġlakh":1246,"Ġput":1247,"Ġmut":1248,"Ġvach":1249,"Ġsaha":1250,"Ġpram":1251,"kaar":1252,"Ġshan":1253,"Ġsud":1254,"aad":1255,"Ġres":1256,"Ġum":1257,"out":1258,"ink":1259,"Ġtathaa":1260,"aab":1261,"Ġtheir":1262,"asa":1263,"gal":1264,"Ġaapne":1265,"illi":1266,"Ġjanya":1267,"ivar":1268,"Ġend":1269,"Ġfar":1270,"eshan":1271,"anglad":1272,"Ġant":1273,"Ġkho":1274,"Ġtum":1275,"Ġgarne":1276,"Ġgun":1277,"pak":1278,"Ġwo":1279,"abha":1280,"Ġkap":1281,"attil":1282,"ital":1283,"Ġthey":1284,"gar":1285,"ukt":1286,"Ġsaath":1287,"Ġvalon":1288,"ous":1289,"isht":1290,"wo":1291,"Ġkita":1292,"Ġmod":1293,"Ġid":1294,"ens":1295,"hub":1296,"Ġshuru":1297,"ataa":1298,"Ġsamp":1299,"Ġnan":1300,"Ġnagar":1301,"Ġkh":1302,"Ġcan":1303,"Ġfe":1304,"urt":1305,"Ġgareko":1306,"undi":1307,"Ġes":1308,"Ġvic":1309,"Ġsathe":1310,"Ġkiya":1311,"ins":1312,"Ġyoj":1313,"Ġbhag":1314,"Ġgan":1315,"Ġ14":1316,"ld":1317,"ashi":1318,"Ġyog":1319,"dd":1320,"Ġden":1321,"ire":1322,"Ġjari":1323,"Ġkaren":1324,"ci":1325,"Ġchand":1326,"Ġpot":1327,"Ġroj":1328,"wal":1329,"Ġtu":1330,"tiya":1331,"his":1332,"Ġinter":1333,"Ġbaj":1334,"Ġ18":1335,"Ġgat":1336,"Ġvishw":1337,"inu":1338,"zar":1339,"Ġnaahi":1340,"Ġbhane":1341,"Ġbab":1342,"Ġwill":1343,"ts":1344,"Ġsm":1345,"Ġdon":1346,"Ġpho":1347,"hm":1348,"Ġworu":1349,"Ġkarn":1350,"Ġsahi":1351,"intu":1352,"Ġjag":1353,"Ġwa":1354,"Ġdhan":1355,"Ġgaye":1356,"Ġparis":1357,"ache":1358,"oru":1359,"Ġpati":1360,"Ġtara":1361,"Ġoff":1362,"chin":1363,"Ġnar":1364,"its":1365,"urn":1366,"alya":1367,"Ġul":1368,"Ġapni":1369,"Ġbaad":1370,"elya":1371,"eta":1372,"uni":1373,"Ġparty":1374,"Ġprav":1375,"Ġvibha":1376,"yad":1377,"icket":1378,"isa":1379,"Ġprab":1380,"Ġdas":1381,"san":1382,"Ġhal":1383,"Ġsid":1384,"Ġmus":1385,"adan":1386,"ob":1387,"atra":1388,"iha":1389,"we":1390,"Ġkaary":1391,"Ġur":1392,"Ġkhel":1393,"Ġgra":1394,"Ġfilm":1395,"inte":1396,"Ġay":1397,"ical":1398,"avan":1399,"ori":1400,"hesh":1401,"Ġmas":1402,"Ġbank":1403,"ember":1404,"Ġpi":1405,"lam":1406,"hani":1407,"Ġmu":1408,"eshi":1409,"unnar":1410,"odh":1411,"Ġcol":1412,"Ġaj":1413,"udh":1414,"tam":1415,"ajan":1416,"ona":1417,"Ġthis":1418,"ĠNews":1419,"chaa":1420,"Ġpradesh":1421,"Ġameric":1422,"Ġnas":1423,"rav":1424,"Ġull":1425,"alaa":1426,"Ġnai":1427,"aksh":1428,"Ġsarv":1429,"apa":1430,"Ġpaa":1431,"Ġmaan":1432,"Ġann":1433,"Ġhayes":1434,"Ġlik":1435,"Ġyah":1436,"Ġbij":1437,"Ġchho":1438,"ence":1439,"day":1440,"achar":1441,"Ġli":1442,"kaa":1443,"land":1444,"Ġkur":1445,"Ġbaa":1446,"Ġone":1447,"Ġudd":1448,"Ġev":1449,"nd":1450,"nt":1451,"antu":1452,"Ġcompan":1453,"Ġanek":1454,"Ġkab":1455,"alam":1456,"hai":1457,"Ġnathi":1458,"Ġaahet":1459,"line":1460,"Ġendu":1461,"Ġpahil":1462,"atan":1463,"uth":1464,"edi":1465,"Ġtem":1466,"Ġmaj":1467,"Ġkai":1468,"Ġhajaar":1469,"Ġcomp":1470,"rai":1471,"Ġkarun":1472,"Ġjill":1473,"ugh":1474,"maa":1475,"iss":1476,"uke":1477,"hap":1478,"ashtra":1479,"gan":1480,"taa":1481,"umar":1482,"mai":1483,"Ġprem":1484,"Ġvideo":1485,"Ġmrit":1486,"haka":1487,"Ġkot":1488,"ry":1489,"ĠV":1490,"Ġer":1491,"Ġsaal":1492,"Ġkaha":1493,"cl":1494,"Ġavar":1495,"Ġkaro":1496,"Ġhu":1497,"Ġ25":1498,"ilo":1499,"Ġguru":1500,"ally":1501,"adu":1502,"una":1503,"Ġei":1504,"Ġ16":1505,"Ġmak":1506,"Ġenn":1507,"Ġras":1508,"Ġnil":1509,"ump":1510,"Ġ13":1511,"ipp":1512,"Ġtamil":1513,"bal":1514,"Ġsant":1515,"Ġcap":1516,"hatt":1517,"Ġaam":1518,"Ġuttar":1519,"way":1520,"dar":1521,"Ġmadhye":1522,"Ġkel":1523,"Ġdit":1524,"Ġsthan":1525,"ys":1526,"ater":1527,"apar":1528,"Ġapane":1529,"arshan":1530,"ca":1531,"bs":1532,"Ġchil":1533,"asar":1534,"asya":1535,"Ġjal":1536,"Ġase":1537,"Ġwant":1538,"Ġwhich":1539,"ante":1540,"anti":1541,"Ġach":1542,"unt":1543,"Ġnak":1544,"Ġanu":1545,"Ġhati":1546,"Ġyet":1547,"Ġsaam":1548,"ons":1549,"do":1550,"Ġkit":1551,"ov":1552,"Ġkeeti":1553,"Ġfir":1554,"Ġnirvach":1555,"Ġmore":1556,"Ġlab":1557,"hile":1558,"asht":1559,"Ġgho":1560,"shar":1561,"Ġhune":1562,"cch":1563,"may":1564,"Ġvas":1565,"Ġpatt":1566,"Ġrasht":1567,"Ġkuda":1568,"Ġbanglad":1569,"Ġhim":1570,"desh":1571,"Ġiv":1572,"yana":1573,"Ġpul":1574,"Ġvat":1575,"000":1576,"mp":1577,"ings":1578,"Ġsanst":1579,"lai":1580,"min":1581,"wai":1582,"andhi":1583,"ont":1584,"achi":1585,"anta":1586,"Ġjam":1587,"Ġgad":1588,"Ġniv":1589,"Ġvyakti":1590,"Ġamar":1591,"lic":1592,"uka":1593,"apan":1594,"istan":1595,"ec":1596,"Ġnu":1597,"Ġrang":1598,"Ġirukk":1599,"Ġkatha":1600,"Ġloc":1601,"ĠIn":1602,"hra":1603,"hur":1604,"Ġter":1605,"thi":1606,"alak":1607,"Ġbataa":1608,"alat":1609,"ashe":1610,"Ġsaat":1611,"Ġtay":1612,"Ġwhen":1613,"patt":1614,"Ġadhyak":1615,"nan":1616,"fat":1617,"Ġsaa":1618,"hiti":1619,"Ġkiha":1620,"vin":1621,"orn":1622,"Ġdha":1623,"Ġdie":1624,"Ġ30":1625,"hata":1626,"Ġwar":1627,"Ġvil":1628,"vama":1629,"shtra":1630,"rid":1631,"kk":1632,"ley":1633,"Ġunhaa":1634,"Ġsal":1635,"haran":1636,"Ġaat":1637,"ope":1638,"arch":1639,"Ġabout":1640,"Ġpray":1641,"Ġday":1642,"Ġtheo":1643,"Ġprashn":1644,"Ġvarsh":1645,"Ġjab":1646,"Ġits":1647,"Ġvand":1648,"ks":1649,"baat":1650,"lu":1651,"aat":1652,"Ġantar":1653,"Ġent":1654,"chaar":1655,"Ġaay":1656,"ujh":1657,"iku":1658,"til":1659,"Ġhota":1660,"raa":1661,"Ġpet":1662,"aro":1663,"Ġbag":1664,"chak":1665,"Ġthir":1666,"Ġstr":1667,"bd":1668,"Ġkarm":1669,"Ġot":1670,"Ġkond":1671,"oli":1672,"idhi":1673,"ery":1674,"10":1675,"Ġsabha":1676,"Ġmana":1677,"Ġku":1678,"Ġgay":1679,"Ġ2017":1680,"Ġlog":1681,"sp":1682,"asha":1683,"Ġover":1684,"Ġmhan":1685,"Ġhote":1686,"atin":1687,"ishi":1688,"Ġmahila":1689,"idi":1690,"rap":1691,"Ġ17":1692,"nal":1693,"ents":1694,"Ġock":1695,"umbai":1696,"Ġmodi":1697,"eet":1698,"mer":1699,"Ġindia":1700,"rant":1701,"Ġcong":1702,"ishan":1703,"Ġbach":1704,"Ġvaa":1705,"vember":1706,"Ġparik":1707,"dha":1708,"Ġkin":1709,"Ġkol":1710,"gu":1711,"jo":1712,"Ġran":1713,"Ġshri":1714,"annu":1715,"Ġbhe":1716,"Ġmai":1717,"Ġmel":1718,"Ġpatr":1719,"Ġnews":1720,"Ġnira":1721,"eey":1722,"Ġkya":1723,"He":1724,"Ġkhabar":1725,"wat":1726,"Ġbr":1727,"bile":1728,"ict":1729,"Ġaak":1730,"Ġmaam":1731,"Ġgujar":1732,"Ġsura":1733,"12":1734,"Ġmit":1735,"Ġnik":1736,"Ġnie":1737,"abad":1738,"Ġhot":1739,"yer":1740,"Ġhon":1741,"agi":1742,"reat":1743,"kram":1744,"Ġkis":1745,"Ġmariyu":1746,"Ġnin":1747,"Ġ24":1748,"esha":1749,"mel":1750,"ose":1751,"Ġcompany":1752,"yant":1753,"Ġkuch":1754,"Ġbana":1755,"ober":1756,"incha":1757,"Ġsir":1758,"Ġsap":1759,"Ġdivas":1760,"Ġcinema":1761,"dhye":1762,"Ġyan":1763,"Ġwould":1764,"15":1765,"uly":1766,"Ġapp":1767,"avid":1768,"wn":1769,"ille":1770,"Ġsahit":1771,"Ġson":1772,"Ġalso":1773,"Ġbak":1774,"kan":1775,"Ġsec":1776,"atak":1777,"hali":1778,"ved":1779,"Ġunder":1780,"Ġbaat":1781,"Ġdwara":1782,"Ġera":1783,"tim":1784,"Ġvart":1785,"Ġyuv":1786,"Ġmur":1787,"madon":1788,"pu":1789,"cho":1790,"aara":1791,"aane":1792,"unde":1793,"Ġbet":1794,"Ġcher":1795,"Ġkos":1796,"Ġreport":1797,"Ġlad":1798,"was":1799,"Ġvyavastha":1800,"alia":1801,"heko":1802,"ayat":1803,"aria":1804,"Ġlaksh":1805,"kat":1806,"Ġpen":1807,"Ġhor":1808,"Ġsin":1809,"Ġchepp":1810,"vir":1811,"Ġgram":1812,"hara":1813,"chch":1814,"ey":1815,"Ġsub":1816,"Ġdec":1817,"yank":1818,"Ġwale":1819,"Ġeng":1820,"Ġphir":1821,"ril":1822,"Ġdekh":1823,"Ġmatra":1824,"wit":1825,"Ġname":1826,"ost":1827,"amak":1828,"Ġpradhanmantri":1829,"Ġkas":1830,"Ġmahin":1831,"Ġrahaa":1832,"Ġraa":1833,"jal":1834,"dan":1835,"tak":1836,"ennu":1837,"ese":1838,"Ġdig":1839,"Ġpramukh":1840,"Ġamerica":1841,"Ġsahib":1842,"uman":1843,"Ġvak":1844,"haru":1845,"enu":1846,"Ġmun":1847,"Ġmark":1848,"Ġkhat":1849,"Ġchak":1850,"apat":1851,"Ġrehe":1852,"ies":1853,"ayog":1854,"Ġmahat":1855,"Ġvin":1856,"Ġvijay":1857,"Ġvig":1858,"Ġarth":1859,"Ġaro":1860,"Ġseva":1861,"ĠĠ":1862,"avu":1863,"ole":1864,"med":1865,"hru":1866,"res":1867,"ĠThe":1868,"adhik":1869,"pali":1870,"Ġdilli":1871,"yav":1872,"Ġash":1873,"Ġniyam":1874,"Ġnag":1875,"17":1876,"him":1877,"uma":1878,"Ġnew":1879,"Ġupar":1880,"Ġsey":1881,"Ġanusaar":1882,"Ġqu":1883,"sham":1884,"Ġmadhyam":1885,"uga":1886,"Ġvishay":1887,"Ġkath":1888,"alp":1889,"och":1890,"Ġcomm":1891,"Ġsim":1892,"Ġsikh":1893,"ctober":1894,"ng":1895,"bab":1896,"heen":1897,"Ġbhartiya":1898,"Ġtab":1899,"Ġphone":1900,"ii":1901,"inchi":1902,"Ġtaar":1903,"ely":1904,"for":1905,"Ġmay":1906,"Ġsuch":1907,"Ġmane":1908,"hid":1909,"Ġ50":1910,"Ġtap":1911,"hale":1912,"vak":1913,"net":1914,"Ġ21":1915,"inal":1916,"Ġmuj":1917,"atiya":1918,"oss":1919,"chat":1920,"Ġpro":1921,"Ġacc":1922,"lab":1923,"arshak":1924,"Ġhato":1925,"Ġprast":1926,"Ġtin":1927,"avaan":1928,"ellam":1929,"ph":1930,"ange":1931,"nam":1932,"uta":1933,"Ġditha":1934,"Ġkarva":1935,"Ġkura":1936,"Ġrashtra":1937,"alk":1938,"Ġekati":1939,"Ġplay":1940,"Ġbh":1941,"ugu":1942,"Ġgu":1943,"Ġyou":1944,"Ġled":1945,"Ġnij":1946,"hie":1947,"ople":1948,"uddha":1949,"Ġhoe":1950,"Ġ22":1951,"Ġchitra":1952,"Ġner":1953,"Ġabhin":1954,"Ġnaam":1955,"Ġtri":1956,"ande":1957,"Ġmahar":1958,"Ġkun":1959,"Ġteam":1960,"Ġhue":1961,"Ġsarkar":1962,"amar":1963,"Ġdiya":1964,"antra":1965,"Ġgro":1966,"ekh":1967,"Ġhoti":1968,"here":1969,"Ġmobile":1970,"attu":1971,"Ġkod":1972,"ern":1973,"Ġmukhyam":1974,"hala":1975,"Ġjad":1976,"Ġghan":1977,"Ġbra":1978,"Ġai":1979,"18":1980,"Ġtime":1981,"Ġsav":1982,"Ġjise":1983,"Ġchin":1984,"Ġbadal":1985,"Ġank":1986,"Ġnirn":1987,"Ġip":1988,"Ġdown":1989,"Ġriha":1990,"Ġmen":1991,"arn":1992,"sk":1993,"Ġadhyaksh":1994,"Ġpari":1995,"Ġset":1996,"Ġ23":1997,"ula":1998,"Ġlaga":1999,"za":2000,"enc":2001,"ian":2002,"Ġraheko":2003,"hle":2004,"Ġrec":2005,"Ġaag":2006,"icha":2007,"Ġraaj":2008,"apt":2009,"Ġpratham":2010,"Ġmet":2011,"Ġvai":2012,"xt":2013,"Ġbel":2014,"ev":2015,"Ġmon":2016,"Ġgam":2017,"Ġwat":2018,"ichu":2019,"Ġkhe":2020,"Ġmid":2021,"Ġkarke":2022,"Ġvr":2023,"Ġchhin":2024,"Ġshat":2025,"ating":2026,"Ġnick":2027,"Ġaas":2028,"Ġkshetra":2029,"sab":2030,"Ġjod":2031,"alin":2032,"Ġkhub":2033,"iver":2034,"Ġpit":2035,"ms":2036,"muk":2037,"ited":2038,"Ġnovember":2039,"ory":2040,"Ġbada":2041,"ric":2042,"Ġswar":2043,"atha":2044,"hes":2045,"ction":2046,"Ġinto":2047,"atar":2048,"Ġvim":2049,"Ġtis":2050,"ivers":2051,"Ġadi":2052,"Ġari":2053,"eru":2054,"que":2055,"Ġswast":2056,"Ġvyakt":2057,"uddh":2058,"Ġpach":2059,"Ġtwo":2060,"Ġgha":2061,"Ġhoi":2062,"hyu":2063,"Ġnis":2064,"Ġfl":2065,"ves":2066,"Ġsuru":2067,"Ġnaj":2068,"din":2069,"fi":2070,"ward":2071,"Ġteen":2072,"Ġpeople":2073,"Ġcont":2074,"Ġkaarykram":2075,"Ġ100":2076,"Ġhind":2077,"urai":2078,"Ġtas":2079,"Ġlast":2080,"uli":2081,"indra":2082,"Ġswat":2083,"aner":2084,"Ġkise":2085,"anto":2086,"lim":2087,"Ġchest":2088,"apur":2089,"Ġmaha":2090,"Ġkach":2091,"Ġkang":2092,"atti":2093,"irunnu":2094,"shik":2095,"Ġnad":2096,"fa":2097,"ih":2098,"vis":2099,"ated":2100,"Ġsk":2101,"Ġpust":2102,"odhu":2103,"Ġrakh":2104,"ton":2105,"bu":2106,"ps":2107,"ivi":2108,"hare":2109,"les":2110,"ork":2111,"Ġyanni":2112,"Ġdab":2113,"ors":2114,"alli":2115,"Ġill":2116,"Ġhove":2117,"Ġfoot":2118,"Ġsamasya":2119,"Ġkhul":2120,"Ġjit":2121,"Ġtyaan":2122,"hand":2123,"Ġjust":2124,"fe":2125,"arthi":2126,"Ġbangladesh":2127,"eral":2128,"anaa":2129,"angi":2130,"Ġaan":2131,"Ġdid":2132,"Ġchat":2133,"Ġhatu":2134,"Ġdekha":2135,"Ġbani":2136,"Ġart":2137,"Ġany":2138,"30":2139,"Ġsaman":2140,"ife":2141,"Ġket":2142,"Ġmadhya":2143,"Ġmedia":2144,"Ġvichaar":2145,"edan":2146,"ojan":2147,"shat":2148,"Ġvidy":2149,"mik":2150,"Ġpres":2151,"low":2152,"Ġback":2153,"ider":2154,"50":2155,"Ġnall":2156,"jh":2157,"Ġhome":2158,"Ġyas":2159,"Ġkujh":2160,"avaa":2161,"anal":2162,"In":2163,"Ġmy":2164,"mas":2165,"uton":2166,"Ġyu":2167,"Ġath":2168,"11":2169,"itra":2170,"Ġing":2171,"Ġchun":2172,"Ġbahut":2173,"ger":2174,"Ġcho":2175,"Ġchon":2176,"Ġhata":2177,"Ġhaa":2178,"Ġstar":2179,"Ġlocals":2180,"inchin":2181,"sang":2182,"Ġvah":2183,"Ġvarsha":2184,"jit":2185,"aper":2186,"Ġkul":2187,"chand":2188,"adhi":2189,"Ġpich":2190,"Ġkaahi":2191,"ign":2192,"Ġsharir":2193,"Ġjana":2194,"okk":2195,"Ġcould":2196,"Ġsom":2197,"Ġfirst":2198,"yap":2199,"idh":2200,"upar":2201,"Ġupj":2202,"Ġtele":2203,"Ġrail":2204,"fore":2205,"Ġsr":2206,"vious":2207,"Ġmarch":2208,"Ġvel":2209,"bhan":2210,"ghat":2211,"Ġkani":2212,"Ġpachhi":2213,"Ġwork":2214,"Ġsabh":2215,"Ġrupee":2216,"Ġsund":2217,"apra":2218,"Ġop":2219,"yane":2220,"Ġpahun":2221,"Ġvaali":2222,"Ġrat":2223,"Ġser":2224,"usin":2225,"Ġdaura":2226,"Ġcricket":2227,"Ġpariv":2228,"dr":2229,"Ġjaankar":2230,"Ġuch":2231,"Ġgareka":2232,"Ġtut":2233,"Ġsy":2234,"Ġchey":2235,"Ġtad":2236,"Ġyears":2237,"aji":2238,"Ġbood":2239,"mail":2240,"tember":2241,"Ġbale":2242,"Ġjane":2243,"iga":2244,"Ġindi":2245,"Ġanum":2246,"Ġwhile":2247,"Ġjis":2248,"dav":2249,"Ġchaa":2250,"ĠY":2251,"ance":2252,"Ġbhaj":2253,"Ġmunn":2254,"hith":2255,"Ġvishesh":2256,"Ġupyog":2257,"uddhi":2258,"It":2259,"Ġkoti":2260,"bb":2261,"Ġkud":2262,"Ġlaa":2263,"Ġsampad":2264,"kam":2265,"Ġaavi":2266,"incharu":2267,"Ġich":2268,"Ġjanda":2269,"Ġkil":2270,"ulla":2271,"uki":2272,"Ġbalen":2273,"ikaas":2274,"vie":2275,"ea":2276,"Ġvast":2277,"aiya":2278,"Ġbhai":2279,"llum":2280,"Ġjat":2281,"Ġkeli":2282,"Ġrog":2283,"Ġnepali":2284,"shal":2285,"Ġnim":2286,"Ġsamet":2287,"Ġprayog":2288,"Ġbait":2289,"inda":2290,"ju":2291,"alil":2292,"Ġaga":2293,"usht":2294,"Ġthik":2295,"our":2296,"vik":2297,"istar":2298,"ĠSt":2299,"bhag":2300,"Ġadhikar":2301,"Ġmukhyamantri":2302,"Ġcourt":2303,"Ġcoun":2304,"umber":2305,"ead":2306,"Âł":2307,"Ġdun":2308,"chche":2309,"Ġvaj":2310,"Ġast":2311,"esi":2312,"Ġhone":2313,"arthik":2314,"pl":2315,"wad":2316,"Ġkhal":2317,"ail":2318,"Ġshabd":2319,"Ġjaankaree":2320,"gaa":2321,"Ġtold":2322,"Ġair":2323,"hako":2324,"els":2325,"upp":2326,"Ġthem":2327,"Ġdh":2328,"ĠCom":2329,"nat":2330,"arg":2331,"Ġatt":2332,"uh":2333,"ues":2334,"Ġpai":2335,"Ġblog":2336,"Ġkend":2337,"Ġkak":2338,"yata":2339,"tain":2340,"Ġrajya":2341,"Ġdel":2342,"Ġkisi":2343,"dhi":2344,"hee":2345,"eki":2346,"Ġnirvachan":2347,"24":2348,"Ġanubhav":2349,"ged":2350,"Ġsari":2351,"ident":2352,"Ġnirmaan":2353,"Ġprakas":2354,"Ġpu":2355,"Ġpok":2356,"Ġchir":2357,"Ġasa":2358,"Ġshun":2359,"aiy":2360,"hakar":2361,"Ġpaani":2362,"Ġdik":2363,"Ġnit":2364,"Ġchala":2365,"Ġprabhu":2366,"Ġutte":2367,"Ġjaaa":2368,"ments":2369,"Ġpri":2370,"Ġkarna":2371,"aniki":2372,"Ġdod":2373,"Ġonline":2374,"iàµ½":2375,"Ġsex":2376,"Ġgarieko":2377,"Ġbeing":2378,"yle":2379,"Ġpor":2380,"ult":2381,"amin":2382,"Ġped":2383,"Ġtame":2384,"Ġkarata":2385,"Ġpehle":2386,"Ġ27":2387,"Ġfound":2388,"adhan":2389,"Ġtest":2390,"Ġoctober":2391,"Ġyat":2392,"Ġpunjabi":2393,"Ġcongress":2394,"Ġnab":2395,"rib":2396,"hing":2397,"mand":2398,"umai":2399,"Ġ28":2400,"Ġudyog":2401,"utunn":2402,"Ġsamb":2403,"ude":2404,"Ġbefore":2405,"Ġsampark":2406,"Ġjune":2407,"ukunn":2408,"vit":2409,"Ġbang":2410,"Ġpratis":2411,"Ġpratik":2412,"ushti":2413,"baar":2414,"Ġsit":2415,"Ġball":2416,"avya":2417,"Ġfamil":2418,"ico":2419,"unch":2420,"Ġjin":2421,"Ġcame":2422,"Ġru":2423,"Ġadd":2424,"Ġshiksha":2425,"14":2426,"Ġred":2427,"Ġmantr":2428,"25":2429,"anko":2430,"Ġdauraan":2431,"ral":2432,"aaya":2433,"prat":2434,"Ġrok":2435,"Ġweek":2436,"Ġvikaas":2437,"urat":2438,"ipi":2439,"Ġnya":2440,"Ġtanne":2441,"Ġmukhya":2442,"Ġfal":2443,"Ġnish":2444,"Ġthie":2445,"unjab":2446,"ester":2447,"Ġanand":2448,"Ġins":2449,"ashyak":2450,"Ġjilla":2451,"Ġparishad":2452,"Ġbu":2453,"bharat":2454,"able":2455,"ower":2456,"Ġmrityu":2457,"yek":2458,"Ġyear":2459,"chana":2460,"Ġrav":2461,"ushi":2462,"aah":2463,"Ġuse":2464,"Ġdak":2465,"Ġpaas":2466,"ppet":2467,"ayam":2468,"yanni":2469,"oma":2470,"uc":2471,"pana":2472,"Ġmahan":2473,"Ġvata":2474,"Ġgandhi":2475,"Ġanya":2476,"Ġmaatr":2477,"ets":2478,"Ġpav":2479,"Ġjuly":2480,"Ġhum":2481,"Ġgarnu":2482,"Ġnaan":2483,"Ġker":2484,"ili":2485,"rish":2486,"Ġmug":2487,"Ġven":2488,"shit":2489,"Ġ26":2490,"ty":2491,"Ġmer":2492,"Ġnetaa":2493,"inde":2494,"Ġlya":2495,"utu":2496,"Ġnumber":2497,"Ġadhikari":2498,"Ġkram":2499,"por":2500,"Ġrupama":2501,"Ġkele":2502,"rah":2503,"ured":2504,"Ġamb":2505,"Ġtul":2506,"Ġpub":2507,"year":2508,"Ġsakate":2509,"Ġphoto":2510,"Ġbhal":2511,"Ġgre":2512,"Ġirund":2513,"Ġtarah":2514,"ational":2515,"Ġjivan":2516,"ekhi":2517,"illion":2518,"Ġmatt":2519,"Ġgol":2520,"anak":2521,"Ġbhu":2522,"Ġwants":2523,"Ġsag":2524,"yamule":2525,"Ġother":2526,"Ġsamachar":2527,"Ġever":2528,"Ġenne":2529,"Ġtake":2530,"Ġvib":2531,"iving":2532,"Ġsus":2533,"Ġhosp":2534,"ations":2535,"Ġagain":2536,"angs":2537,"oke":2538,"ught":2539,"Ġsuk":2540,"Ġvaar":2541,"Ġnuchi":2542,"Ġpaan":2543,"Ġbare":2544,"Ġwebs":2545,"Ġsol":2546,"Ġpran":2547,"Ġbaare":2548,"Ġhunch":2549,"ron":2550,"Ġsil":2551,"udal":2552,"Ġsach":2553,"Ġbhaag":2554,"Ġaaf":2555,"urs":2556,"aw":2557,"ei":2558,"Ġreg":2559,"acha":2560,"Ġsik":2561,"Ġkaraar":2562,"Ġhunda":2563,"arth":2564,"Ġaave":2565,"rs":2566,"Ġbadi":2567,"Ġmeraa":2568,"Ġkaranyaat":2569,"bat":2570,"ilai":2571,"opp":2572,"sy":2573,"Ġchet":2574,"Ġati":2575,"Ġpand":2576,"Ġtik":2577,"Ġdam":2578,"Ġgardai":2579,"Ġbadhi":2580,"Ġleft":2581,"Ġparam":2582,"mit":2583,"Ġhand":2584,"Ġdoctor":2585,"asan":2586,"antran":2587,"Ġsaar":2588,"16":2589,"Ġutpa":2590,"Ġgir":2591,"Ġkary":2592,"Ġ2016":2593,"ats":2594,"Ġmile":2595,"Ġthere":2596,"Ġstate":2597,"tya":2598,"hyo":2599,"bhaav":2600,"Ġaarthik":2601,"ustr":2602,"Ġint":2603,"Ġkarod":2604,"patu":2605,"Ġcheiy":2606,"Ġkarade":2607,"Ġol":2608,"Ġislam":2609,"Ġsut":2610,"hinn":2611,"era":2612,"amen":2613,"Ġroop":2614,"vel":2615,"Ġpuj":2616,"Ġenna":2617,"Ġrite":2618,"Ġpratin":2619,"Ġhel":2620,"Ġpug":2621,"Ġbaar":2622,"Ġlekh":2623,"13":2624,"Ġsabai":2625,"Ġnirnay":2626,"But":2627,"cer":2628,"ida":2629,"Ġsafal":2630,"kum":2631,"undai":2632,"ĠTel":2633,"ces":2634,"vo":2635,"bir":2636,"Ġkaay":2637,"des":2638,"Ġninn":2639,"Ġshake":2640,"Ġsome":2641,"cent":2642,"go":2643,"ads":2644,"Ġjaave":2645,"Ġmumbai":2646,"ria":2647,"arik":2648,"Ġvishwa":2649,"Ġnati":2650,"yada":2651,"yakram":2652,"Ġkaranya":2653,"Ġlike":2654,"Ġpare":2655,"Ġhua":2656,"Ġghet":2657,"Ġcal":2658,"lod":2659,"Ġsaathe":2660,"Ġpustak":2661,"Ġpradaan":2662,"Ġpakistan":2663,"Ġpade":2664,"jay":2665,"Ġdhaka":2666,"Ġnow":2667,"Ġkarya":2668,"main":2669,"naa":2670,"rik":2671,"Ġjeevan":2672,"Ġbig":2673,"hich":2674,"Ġraat":2675,"Ġasal":2676,"Ġaami":2677,"guru":2678,"Ġprasha":2679,"Ġbhanne":2680,"Ġtur":2681,"Ġkart":2682,"angan":2683,"Ġvaale":2684,"rasht":2685,"Ġfat":2686,"ubha":2687,"Ġchhu":2688,"Ġunt":2689,"Ġjas":2690,"irik":2691,"hate":2692,"Ġkami":2693,"hos":2694,"enti":2695,"Ġjast":2696,"Ġkim":2697,"alaya":2698,"Ġ40":2699,"Ġkhil":2700,"Ġaz":2701,"Ġdaa":2702,"inar":2703,"andu":2704,"Ġsmart":2705,"Ġmangal":2706,"Ġvip":2707,"Ġdos":2708,"Ġved":2709,"riend":2710,"Ġmaamle":2711,"Ġmi":2712,"Ġhate":2713,"eep":2714,"ukkum":2715,"anya":2716,"kh":2717,"Ġdekhi":2718,"Ġsaare":2719,"Ġchik":2720,"Ġkarvama":2721,"ekar":2722,"Ġaali":2723,"Ġbhul":2724,"Ġmahas":2725,"Ġsaj":2726,"Ġdet":2727,"iyon":2728,"Ġdharm":2729,"oune":2730,"dhar":2731,"ww":2732,"Ġhy":2733,"lack":2734,"Ġjai":2735,"esia":2736,"Ġsuv":2737,"Ġyadi":2738,"Ġlook":2739,"Ġvall":2740,"apad":2741,"yani":2742,"Ġhaath":2743,"enge":2744,"ukal":2745,"Ġaavashyak":2746,"Ġmani":2747,"Ġbhasha":2748,"gh":2749,"ugust":2750,"fal":2751,"Ġhit":2752,"Ġkir":2753,"80":2754,"ibi":2755,"avin":2756,"cc":2757,"Ġsel":2758,"ito":2759,"umay":2760,"ots":2761,"ittu":2762,"utti":2763,"Ġkarada":2764,"Ġsurak":2765,"anka":2766,"ced":2767,"ota":2768,"ou":2769,"Ġuni":2770,"ruti":2771,"ition":2772,"oki":2773,"Ġ29":2774,"Ġmanus":2775,"Ġjet":2776,"rin":2777,"Ġkhud":2778,"Ġsarkari":2779,"pai":2780,"Ġwhat":2781,"wari":2782,"yearold":2783,"cted":2784,"Ġca":2785,"Ġevam":2786,"Ġupjela":2787,"Ġpict":2788,"Ġtol":2789,"amal":2790,"hans":2791,"Ġrel":2792,"Ġpuri":2793,"Ġprakaar":2794,"Ġkichu":2795,"dal":2796,"ze":2797,"ondi":2798,"oo":2799,"Ġmang":2800,"Ġshow":2801,"hama":2802,"yag":2803,"oth":2804,"ain":2805,"Ġnudi":2806,"hot":2807,"Ġjaataa":2808,"hati":2809,"Ġpre":2810,"Ġparic":2811,"iven":2812,"Ġbir":2813,"raman":2814,"Ġbhaeka":2815,"Ġvadhu":2816,"Ġgri":2817,"idd":2818,"karan":2819,"Ġshakti":2820,"ody":2821,"iyat":2822,"Ġkahin":2823,"Ġsaktaa":2824,"iversity":2825,"Ġavasar":2826,"Ġyatra":2827,"Ġsankhya":2828,"lan":2829,"sto":2830,"cin":2831,"Ġsthap":2832,"rol":2833,"Ġther":2834,"book":2835,"cial":2836,"Ġmadad":2837,"kad":2838,"ptember":2839,"Ġ199":2840,"other":2841,"Ġprakash":2842,"Ġpariksha":2843,"gy":2844,"Ġditi":2845,"adhu":2846,"Ġapril":2847,"Ġpant":2848,"Ġhatya":2849,"Ġsri":2850,"Ġsabhi":2851,"Ġpanch":2852,"yah":2853,"Ġvikhe":2854,"cause":2855,"aaz":2856,"Ġchhil":2857,"red":2858,"son":2859,"anch":2860,"Ġmahil":2861,"put":2862,"Ġawj":2863,"Ġwhere":2864,"Ġsansad":2865,"ukar":2866,"Ġfamily":2867,"Ġshu":2868,"Ġada":2869,"ker":2870,"Ġartic":2871,"Ġinst":2872,"Ġmhanun":2873,"ret":2874,"Ġtag":2875,"Ġtyas":2876,"Ġtaka":2877,"palika":2878,"gin":2879,"hyat":2880,"Ġghe":2881,"Ġkahe":2882,"Ġbohut":2883,"Ġjhal":2884,"Ġright":2885,"Ġkelaa":2886,"jat":2887,"Ġkali":2888,"Ġbhak":2889,"aam":2890,"Ġass":2891,"Ġkarnaa":2892,"Ġundi":2893,"amai":2894,"Ġsudhi":2895,"akt":2896,"igar":2897,"Ġdub":2898,"Ġtayar":2899,"Ġsukh":2900,"Ġpass":2901,"Ġmember":2902,"Ġvishe":2903,"Ġget":2904,"engil":2905,"pol":2906,"Ġlav":2907,"Ġthro":2908,"Ġyojana":2909,"illa":2910,"Ġvividh":2911,"Ġvibhag":2912,"get":2913,"Ġvag":2914,"mani":2915,"zaar":2916,"ennai":2917,"Ġaata":2918,"jar":2919,"atmak":2920,"Ġsamud":2921,"Ġmonth":2922,"Ġuplab":2923,"vari":2924,"akal":2925,"uro":2926,"sad":2927,"asu":2928,"Ġsamav":2929,"Ġafno":2930,"Ġaadhar":2931,"yay":2932,"Ġaapnar":2933,"chen":2934,"Ġbali":2935,"Ġlink":2936,"taat":2937,"She":2938,"attin":2939,"Ġdhe":2940,"Ġjanu":2941,"Ġkoll":2942,"ament":2943,"Ġasun":2944,"Ġlen":2945,"Ġshiv":2946,"Ġmandir":2947,"anam":2948,"Ġkendra":2949,"Ġgujarati":2950,"Ġkott":2951,"Ġcase":2952,"Ġwom":2953,"phone":2954,"rund":2955,"hyog":2956,"bru":2957,"Ġpurv":2958,"Ġif":2959,"wara":2960,"Ġdho":2961,"Ġpraapt":2962,"ashan":2963,"ikum":2964,"Ġraak":2965,"hada":2966,"Ġkumar":2967,"Ġsakda":2968,"revious":2969,"ĠLe":2970,"itle":2971,"Ġthree":2972,"ason":2973,"Ġavark":2974,"Ġbhat":2975,"oe":2976,"sw":2977,"Ġclub":2978,"isk":2979,"Ġpos":2980,"Ġcall":2981,"Ġib":2982,"dhani":2983,"Ġpay":2984,"Ġdite":2985,"chool":2986,"artan":2987,"Ġbecause":2988,"hammad":2989,"led":2990,"Ġsent":2991,"Ġkum":2992,"Ġkn":2993,"Ġduk":2994,"Ġsadak":2995,"Ġasl":2996,"Ġkareque":2997,"illy":2998,"ĠUn":2999,"Ġmeri":3000,"ithi":3001,"Ġjanaa":3002,"uvar":3003,"aval":3004,"Ġway":3005,"idha":3006,"olan":3007,"Ġsambhav":3008,"Ġtathy":3009,"sho":3010,"Ġeka":3011,"Ġmouth":3012,"Ġtop":3013,"ores":3014,"dio":3015,"Ġoffic":3016,"yukt":3017,"chn":3018,"aaf":3019,"Ġgroup":3020,"Ġsuper":3021,"Ġtarhaa":3022,"Ġdecember":3023,"Ġinn":3024,"Ġnirm":3025,"Ġbhoom":3026,"Ġtip":3027,"eshwar":3028,"Ġchad":3029,"Ġlage":3030,"Ġduring":3031,"Ġonly":3032,"rabad":3033,"adh":3034,"gs":3035,"pachhi":3036,"aram":3037,"ban":3038,"Ġbala":3039,"tia":3040,"zi":3041,"Ġpind":3042,"Ġnid":3043,"garh":3044,"Ġpash":3045,"Ġakk":3046,"fer":3047,"Ġadhya":3048,"bas":3049,"ugal":3050,"vaar":3051,"Ġsahyog":3052,"Ġmanllum":3053,"Ġunale":3054,"Ġtrain":3055,"Ġkes":3056,"Ġshikshak":3057,"Ġbre":3058,"mir":3059,"Ġgate":3060,"pas":3061,"Ġell":3062,"epachhi":3063,"osh":3064,"vani":3065,"amat":3066,"Ġkehi":3067,"Ġlogon":3068,"ular":3069,"Ġkshetr":3070,"Ġmath":3071,"Ġsatt":3072,"Ġdarshak":3073,"isha":3074,"hano":3075,"olog":3076,"Ġ2015":3077,"nne":3078,"rup":3079,"Ġgen":3080,"Ġavast":3081,"Ġkaaryak":3082,"Ġmuthal":3083,"lin":3084,"Ġvay":3085,"Ġyen":3086,"essi":3087,"uvan":3088,"ect":3089,"Ġ31":3090,"ates":3091,"Ne":3092,"Ġ2013":3093,"ics":3094,"daar":3095,"Ġkite":3096,"Ġpratyek":3097,"Ġaale":3098,"Ġmik":3099,"Ġupayog":3100,"Ġincl":3101,"iman":3102,"Ġjanm":3103,"Ġtene":3104,"Ġgul":3105,"Ġvibhaag":3106,"Ġnok":3107,"Ġshra":3108,"àµ¼tt":3109,"hela":3110,"dev":3111,"iche":3112,"Ġkharch":3113,"Ġbhad":3114,"Ġenjh":3115,"Ġmade":3116,"Ġhospital":3117,"indu":3118,"chha":3119,"Ġbed":3120,"Ġkohn":3121,"ister":3122,"Ġsambandh":3123,"Ġsanstha":3124,"Ġpaid":3125,"enna":3126,"Ġrah":3127,"ful":3128,"ingu":3129,"rama":3130,"Ġpuch":3131,"ogram":3132,"Ġpratisht":3133,"Ġsabase":3134,"Ġtari":3135,"Ġdaksh":3136,"Ġlife":3137,"Ġcentre":3138,"Ġpla":3139,"Ġshuk":3140,"Ġjay":3141,"Ġhui":3142,"Ġbich":3143,"Ġret":3144,"oldid":3145,"Ġchuk":3146,"Ġgujarat":3147,"gam":3148,"uttu":3149,"inik":3150,"Ġnaya":3151,"Ġadhi":3152,"Ġpataa":3153,"Ġworld":3154,"bhi":3155,"Ġlig":3156,"Ġbanaa":3157,"lek":3158,"uddhe":3159,"Ġpuras":3160,"Ġprabhut":3161,"22":3162,"Ġnatun":3163,"riy":3164,"Ġseptember":3165,"Ġpahilaan":3166,"vay":3167,"phpt":3168,"pradhan":3169,"Ġline":3170,"Ġsakal":3171,"vidhan":3172,"Ġ207":3173,"Ġbadha":3174,"Ġshram":3175,"onn":3176,"ataat":3177,"Ġsum":3178,"Ġmala":3179,"mati":3180,"Ġub":3181,"adar":3182,"Ġfol":3183,"Ġchandra":3184,"itan":3185,"Ġinc":3186,"Ġdoo":3187,"khar":3188,"Ġanaya":3189,"eksha":3190,"ukti":3191,"Ġekad":3192,"Ġpha":3193,"Ġparist":3194,"Ġhindi":3195,"khan":3196,"uthi":3197,"apak":3198,"Ġcolle":3199,"Ġcond":3200,"ount":3201,"nagar":3202,"Ġbik":3203,"Ġasan":3204,"Ġbhum":3205,"Ġkrish":3206,"Ġpravesh":3207,"atine":3208,"ily":3209,"Ġena":3210,"otu":3211,"Ġmans":3212,"Ġtrini":3213,"Ġ2014":3214,"gn":3215,"Ġsev":3216,"tem":3217,"tal":3218,"vish":3219,"Ġsamaaj":3220,"uvat":3221,"derabad":3222,"Ġvikas":3223,"Ġksham":3224,"andh":3225,"Ġagainst":3226,"ivas":3227,"Ġphot":3228,"af":3229,"ams":3230,"Ġraashtra":3231,"Ġhoga":3232,"Ġarr":3233,"ĠTelugu":3234,"Ġkid":3235,"Ġhachche":3236,"Ġkala":3237,"ild":3238,"Ġghatna":3239,"Ġclai":3240,"Ġthen":3241,"Ġaapako":3242,"Ġuplabdh":3243,"Ġchaar":3244,"Ġbharati":3245,"Ġsen":3246,"Ġmund":3247,"kha":3248,"Ġsangit":3249,"Ġwaala":3250,"Ġfais":3251,"Ġange":3252,"rand":3253,"Ġjaag":3254,"Ġparivar":3255,"Ġjil":3256,"Ġrend":3257,"Ġhak":3258,"Ġnirva":3259,"airunnu":3260,"Ġpasand":3261,"Ġinternet":3262,"Ġjatiya":3263,"Ġland":3264,"Ġkathmadon":3265,"Ġwell":3266,"Ġspe":3267,"Ġele":3268,"press":3269,"pit":3270,"Ġchi":3271,"ĠMr":3272,"Ġshare":3273,"Ġduii":3274,"anku":3275,"Ġshast":3276,"ikaran":3277,"udhu":3278,"Ġyak":3279,"ukintu":3280,"Ġlekin":3281,"Ġshish":3282,"Ġsampann":3283,"Ġsampadak":3284,"hang":3285,"ino":3286,"Ġlim":3287,"Ġashi":3288,"Ġmuslim":3289,"hor":3290,"Ġpin":3291,"Ġsamar":3292,"Ġmost":3293,"ganj":3294,"aba":3295,"hine":3296,"Ġitiha":3297,"Ġsanghat":3298,"Ġvyavs":3299,"Ġsamag":3300,"Ġasha":3301,"Home":3302,"Ġblack":3303,"Ġgamb":3304,"athmadon":3305,"Ġparyat":3306,"vajan":3307,"Ġmaz":3308,"Ġjaw":3309,"Ġwebsite":3310,"Ġ2012":3311,"Ġver":3312,"ĠNew":3313,"Ġpoint":3314,"Ġsamen":3315,"Ġkalak":3316,"Ġjaaya":3317,"Ġkor":3318,"hyan":3319,"ling":3320,"Ġdoll":3321,"unhaa":3322,"oney":3323,"40":3324,"gra":3325,"Ġvist":3326,"gha":3327,"Ġsthal":3328,"vil":3329,"athan":3330,"Ġvali":3331,"ellen":3332,"ural":3333,"kas":3334,"yako":3335,"Ġbien":3336,"aja":3337,"onu":3338,"Ġjate":3339,"Ġpraman":3340,"Ġchacin":3341,"Ġpaisa":3342,"200":3343,"das":3344,"Ġsharma":3345,"Ġchhat":3346,"Ġanti":3347,"ood":3348,"Ġille":3349,"ac":3350,"Ġkahyu":3351,"Ġq":3352,"Ġbin":3353,"ives":3354,"Ġbakh":3355,"hic":3356,"avat":3357,"àµº":3358,"Ġpaase":3359,"enne":3360,"Ġhow":3361,"Ġnanak":3362,"ris":3363,"Ġali":3364,"Ġkyon":3365,"Ġtader":3366,"Ġmor":3367,"Ġbane":3368,"bhave":3369,"Ġitar":3370,"Ġgrant":3371,"uto":3372,"Ġbhae":3373,"Ġpag":3374,"hyaan":3375,"Ġrashtri":3376,"let":3377,"Ġnayaan":3378,"Ġlagu":3379,"Ġcinem":3380,"alit":3381,"ritish":3382,"Ġvyap":3383,"Ġcono":3384,"jas":3385,"lad":3386,"Ġacha":3387,"mu":3388,"tyas":3389,"Ġdus":3390,"Ġdiwas":3391,"ement":3392,"Ġgood":3393,"Ġhos":3394,"Ġkalam":3395,"buk":3396,"tha":3397,"Ġmiss":3398,"Ġcard":3399,"harule":3400,"Ġpack":3401,"Ġdwaara":3402,"Ġchunaav":3403,"ions":3404,"Ġaal":3405,"Ġhav":3406,"hili":3407,"Ġcommun":3408,"Ġmujhe":3409,"Ġvitt":3410,"mm":3411,"Ġvira":3412,"itar":3413,"Ġmanukh":3414,"Ġmatram":3415,"Ġkhad":3416,"99":3417,"Ġcor":3418,"avama":3419,"Ġsite":3420,"Ġhoon":3421,"Ġclic":3422,"Ġathva":3423,"jee":3424,"eda":3425,"Ġstart":3426,"kaal":3427,"apu":3428,"Ġstha":3429,"oor":3430,"Ġkatt":3431,"ball":3432,"elu":3433,"wood":3434,"Ġsuraksha":3435,"Ġcamp":3436,"Ġaapalya":3437,"abi":3438,"ures":3439,"Ġgare":3440,"wani":3441,"Ġgeet":3442,"Ġrek":3443,"Ġprach":3444,"sta":3445,"yavar":3446,"Ġvet":3447,"Ġsadsy":3448,"pet":3449,"Ġpadd":3450,"Ġcheshar":3451,"Ġrecord":3452,"odhi":3453,"Ġabhipra":3454,"Ġsahay":3455,"Ġjud":3456,"rig":3457,"Ġhead":3458,"ankari":3459,"Ġvisha":3460,"vajanik":3461,"bruary":3462,"ss":3463,"angu":3464,"Ġkast":3465,"uparne":3466,"Ġpublic":3467,"Ġbhet":3468,"ander":3469,"utan":3470,"Ġaapan":3471,"Ġshesh":3472,"Ġfour":3473,"Ġtyaare":3474,"Ġgame":3475,"usaar":3476,"Ġbaith":3477,"ffer":3478,"Ġjell":3479,"Ġrem":3480,"Ġsos":3481,"Ġnihat":3482,"vanu":3483,"Ġgav":3484,"hini":3485,"Ġ60":3486,"uttar":3487,"las":3488,"Ġparannu":3489,"Ġsambha":3490,"arkaar":3491,"nn":3492,"avai":3493,"Ġpress":3494,"Ġexp":3495,"engal":3496,"ataan":3497,"Ġmake":3498,"esher":3499,"Ġmarket":3500,"hs":3501,"Ġpoor":3502,"60":3503,"Ġnay":3504,"upat":3505,"Ġkaaj":3506,"Ġok":3507,"Ġbade":3508,"cap":3509,"rer":3510,"nepal":3511,"oga":3512,"anki":3513,"Ġjaruri":3514,"Ġvibhinn":3515,"Ġvarg":3516,"Ġhard":3517,"ffic":3518,"Ġprabhav":3519,"Ġkeval":3520,"Ġbis":3521,"Ġkarellen":3522,"Ġsaad":3523,"Ġbataae":3524,"Ġanal":3525,"Ġopen":3526,"Ġthar":3527,"Ġdine":3528,"avir":3529,"Ġvidhya":3530,"Ġaround":3531,"alth":3532,"Ġeven":3533,"Ġaayan":3534,"Ġamader":3535,"Ġjail":3536,"Ġyoga":3537,"Ġsecond":3538,"Ġhelp":3539,"fic":3540,"Ġmamm":3541,"Ġvell":3542,"urope":3543,"mul":3544,"Ġpaar":3545,"ants":3546,"india":3547,"Ġsamart":3548,"Ġdeep":3549,"Ġupa":3550,"Ġmattum":3551,"Ġjanuary":3552,"Ġsammel":3553,"len":3554,"wali":3555,"ying":3556,"mana":3557,"Ġkrit":3558,"Ġabd":3559,"Ġdesc":3560,"ST":3561,"Ġgop":3562,"Ġraajnne":3563,"Ġyadav":3564,"Ġghoshn":3565,"Ġmatch":3566,"Ġkhaas":3567,"Ġkhand":3568,"Ġmati":3569,"shna":3570,"Ġtrans":3571,"bho":3572,"reet":3573,"Ġcamera":3574,"mag":3575,"Ġsira":3576,"Ġbaahar":3577,"Ġdhi":3578,"yachi":3579,"Ġlat":3580,"Ġuj":3581,"Ġkall":3582,"abhar":3583,"Ġ35":3584,"Ġshir":3585,"amay":3586,"Ġdol":3587,"Ġ2011":3588,"ownlo":3589,"Ġtuun":3590,"Ġbacha":3591,"apati":3592,"rip":3593,"Ġappe":3594,"ists":3595,"Ġpond":3596,"Ġvery":3597,"idia":3598,"Ġpark":3599,"Ġsancha":3600,"Ġgurinchi":3601,"con":3602,"Ġvaid":3603,"ushan":3604,"Ġkant":3605,"ford":3606,"kul":3607,"pir":3608,"Ġbon":3609,"ukun":3610,"Ġninnu":3611,"Ġparay":3612,"avas":3613,"ukàµ¾":3614,"Ġkunai":3615,"jha":3616,"Ġsl":3617,"aster":3618,"AM":3619,"chim":3620,"Ġhouse":3621,"su":3622,"atam":3623,"Ġpett":3624,"Ġnei":3625,"Ġsandar":3626,"Ġtusin":3627,"Ġchend":3628,"hodhan":3629,"Ġmedical":3630,"nir":3631,"Ġappati":3632,"Ġchhe":3633,"ondon":3634,"Ġkill":3635,"erman":3636,"Ġcheit":3637,"amo":3638,"yadi":3639,"tack":3640,"Ġjadon":3641,"lak":3642,"vaan":3643,"Ġbor":3644,"Ġprogram":3645,"erson":3646,"vern":3647,"add":3648,"Ġsod":3649,"Ġste":3650,"Ġkash":3651,"Ġhazar":3652,"Ġboard":3653,"Ġmukti":3654,"Ġlekar":3655,"edu":3656,"Ġfin":3657,"ashwar":3658,"Ġpadi":3659,"Ġbelie":3660,"yama":3661,"pradesh":3662,"Ġnava":3663,"Ġyaad":3664,"Ġlekhak":3665,"Ġjhaali":3666,"agram":3667,"mahat":3668,"reme":3669,"23":3670,"Ġkaru":3671,"Ġchur":3672,"etten":3673,"rad":3674,"Ġwit":3675,"Ġcham":3676,"Ġjeev":3677,"Ġbid":3678,"harul":3679,"ivinn":3680,"Ġbhavan":3681,"Ġpath":3682,"Ġchint":3683,"haruko":3684,"adesh":3685,"Ġchahie":3686,"hadur":3687,"ĠIndia":3688,"jun":3689,"Ġpank":3690,"jam":3691,"oy":3692,"etik":3693,"Ġpaanch":3694,"Ġinclud":3695,"my":3696,"unu":3697,"asang":3698,"Ġthrough":3699,"Ġlong":3700,"Ġkinwa":3701,"bhut":3702,"anna":3703,"Ġkaan":3704,"Ġjandi":3705,"Ġchale":3706,"ĠAr":3707,"2018":3708,"Ġyanchya":3709,"far":3710,"pin":3711,"Ġrahul":3712,"hanaas":3713,"Ġuniversity":3714,"Ġpesh":3715,"ters":3716,"Ġdui":3717,"Ġshetak":3718,"Ġucch":3719,"Ġmaahiti":3720,"2017":3721,"Previous":3722,"Ġdire":3723,"Ġfriend":3724,"Ġkrishi":3725,"Ġrashtriya":3726,"Ġsaarvajanik":3727,"An":3728,"ten":3729,"Ġschool":3730,"Ġthin":3731,"Ġgayi":3732,"Ġsays":3733,"Ġantim":3734,"Ġchahi":3735,"bhhar":3736,"Ġtelegu":3737,"Ġopp":3738,"form":3739,"iva":3740,"Ġatak":3741,"Ġsanrak":3742,"Ġic":3743,"anie":3744,"Ġjaanch":3745,"Ġtemane":3746,"Ġdherai":3747,"uter":3748,"Ġamra":3749,"Ġjaati":3750,"yai":3751,"Ġvek":3752,"Ġmant":3753,"ney":3754,"Ġmout":3755,"Ġparantu":3756,"Ġvyabhhar":3757,"Ġspasht":3758,"Ġuske":3759,"Ġila":3760,"Ġrom":3761,"alla":3762,"kari":3763,"tee":3764,"maj":3765,"odhan":3766,"Ġmarathi":3767,"Ġaalo":3768,"Ġkarab":3769,"used":3770,"aliàµ½":3771,"ipu":3772,"Ġrajdhani":3773,"nav":3774,"oti":3775,"Ġproj":3776,"Ġabhiyog":3777,"Ġnig":3778,"ury":3779,"Ġjaat":3780,"Ġevery":3781,"Al":3782,"Ġmum":3783,"Ġavastha":3784,"prati":3785,"nai":3786,"Ġkay":3787,"Ġbashwar":3788,"They":3789,"Ġvann":3790,"Ġlin":3791,"Ġtamara":3792,"Ġkarat":3793,"Ġfer":3794,"Ġminuun":3795,"Ġsangbad":3796,"Ġbook":3797,"Ġjhaalaa":3798,"omet":3799,"cchu":3800,"Ġcharchaa":3801,"ency":3802,"Ġpictured":3803,"21":3804,"andhan":3805,"abar":3806,"ived":3807,"Ġsharu":3808,"Ġarticle":3809,"heka":3810,"eld":3811,"rag":3812,"elf":3813,"usi":3814,"Ġjanam":3815,"Ġjanav":3816,"Ġaeko":3817,"allo":3818,"Ġsanchal":3819,"Ġvishwas":3820,"Ġten":3821,"Ġnight":3822,"Ġfil":3823,"Ġfollow":3824,"akshan":3825,"Ġob":3826,"ode":3827,"ste":3828,"ulat":3829,"anke":3830,"Ġjanata":3831,"Ġswasthya":3832,"etti":3833,"arko":3834,"Ġthap":3835,"Ġ198":3836,"Ġkharid":3837,"Ġdeath":3838,"udhi":3839,"odu":3840,"Ġjhaale":3841,"Ġpratinidhi":3842,"Ġsahak":3843,"Ġpurna":3844,"Ġmandi":3845,"akti":3846,"istunn":3847,"enduku":3848,"Ġkavita":3849,"vaa":3850,"Ġtand":3851,"Ġvikip":3852,"Ġitu":3853,"Ġyethe":3854,"lish":3855,"ns":3856,"Ġtena":3857,"stem":3858,"Ġkhed":3859,"alik":3860,"Ġnave":3861,"Ġpradarshan":3862,"70":3863,"Ġgyan":3864,"Ġvarshan":3865,"Ġmaharashtra":3866,"Ġavi":3867,"ambh":3868,"Ġneed":3869,"hyalay":3870,"Ġgarer":3871,"ible":3872,"lik":3873,"pik":3874,"Ġport":3875,"Ġmanag":3876,"Ġmahatv":3877,"waan":3878,"aae":3879,"nia":3880,"ray":3881,"Ġapna":3882,"Ġaun":3883,"Ġchup":3884,"Ġjarur":3885,"ungs":3886,"Ġgrahan":3887,"Ġmanaje":3888,"Ġcons":3889,"Ġvachche":3890,"Ġmere":3891,"ethi":3892,"ataal":3893,"aagarik":3894,"Ġkardi":3895,"Ġamrit":3896,"We":3897,"ler":3898,"zal":3899,"Ġchang":3900,"madhye":3901,"Ġsini":3902,"Ġaji":3903,"Ġbina":3904,"Ġparti":3905,"Ġghatn":3906,"Ġshub":3907,"ican":3908,"Ġprakar":3909,"ench":3910,"Ġkalyan":3911,"Ġrakam":3912,"ghar":3913,"Ġseri":3914,"Ġkuti":3915,"Ġkameti":3916,"Ġtang":3917,"Ġmarg":3918,"Ġsahaj":3919,"rishna":3920,"Ġrad":3921,"ingh":3922,"Ġshah":3923,"Ġprop":3924,"Ġjoie":3925,"Ġrailway":3926,"Ġber":3927,"Ġdene":3928,"hind":3929,"cy":3930,"Ġlet":3931,"apas":3932,"Ġpraka":3933,"Ġekata":3934,"Ġpancha":3935,"Ġbro":3936,"Ġdhyaan":3937,"hol":3938,"Ġattack":3939,"patti":3940,"Ġneta":3941,"utundi":3942,"mdhye":3943,"hod":3944,"Ġfes":3945,"Ġprahari":3946,"Ġekhan":3947,"Ġstud":3948,"Ġagar":3949,"Ġbivinn":3950,"Ġjaae":3951,"Ġug":3952,"Ġkarta":3953,"Ġkaryu":3954,"Ġvarshi":3955,"0000":3956,"Ġvyavsaay":3957,"Ġtarike":3958,"Ġserv":3959,"Ġaapke":3960,"nit":3961,"akat":3962,"Ġpercent":3963,"Ġmrity":3964,"Ġshahid":3965,"Ġnyaay":3966,"Ġ32":3967,"aajik":3968,"tin":3969,"ised":3970,"cket":3971,"Ġkamal":3972,"Ġloko":3973,"cover":3974,"io":3975,"Ġkann":3976,"Ġrit":3977,"ities":3978,"oop":3979,"ĠQ":3980,"asam":3981,"Ġsheikh":3982,"bhai":3983,"Ġ2010":3984,"Ġjila":3985,"dren":3986,"amad":3987,"Ġana":3988,"abh":3989,"abhi":3990,"Ġbharti":3991,"hade":3992,"ism":3993,"shr":3994,"asthan":3995,"Ġanusht":3996,"Ġbudh":3997,"Ġvari":3998,"ayal":3999,"Ġpolis":4000,"Ġirukkum":4001,"ownloads":4002,"ches":4003,"Ġmali":4004,"Ġnayak":4005,"ankar":4006,"Ġunke":4007,"Ġbanaav":4008,"epi":4009,"phptitle":4010,"Ġspar":4011,"Ġcholl":4012,"Ġviruddhe":4013,"Ġkavit":4014,"Ġanumati":4015,"Ġchhut":4016,"Ġarop":4017,"Ġcity":4018,"asthit":4019,"igh":4020,"Ġshab":4021,"This":4022,"erica":4023,"Ġtayari":4024,"vai":4025,"Ġpinn":4026,"Ġseven":4027,"Ġyahan":4028,"Ġutpaadan":4029,"arat":4030,"ime":4031,"Ġbari":4032,"elo":4033,"Ġfinal":4034,"Ġbit":4035,"Ġanni":4036,"Ġsahm":4037,"Ġmoti":4038,"Ġsoch":4039,"ayite":4040,"shas":4041,"Ġsuvidha":4042,"arak":4043,"Ġkore":4044,"Ġchod":4045,"ukond":4046,"Ġour":4047,"itr":4048,"Ġhero":4049,"Ġvarum":4050,"ĠEng":4051,"Ġmam":4052,"uran":4053,"Ġoesia":4054,"Ġutt":4055,"Ġdhak":4056,"hiya":4057,"Ġgarda":4058,"Ġbandha":4059,"Ġpahunch":4060,"Ġsara":4061,"Ġact":4062,"Ġ45":4063,"Ġminute":4064,"Ġuddesh":4065,"hira":4066,"ukum":4067,"waad":4068,"Ġtarvat":4069,"Ġprachar":4070,"hiko":4071,"ock":4072,"iner":4073,"ola":4074,"Ġprer":4075,"eek":4076,"Ġpair":4077,"Ġunhen":4078,"Ġroyas":4079,"haal":4080,"Ġtann":4081,"Ġtapp":4082,"Ġaugust":4083,"ikunn":4084,"Ġhaal":4085,"Ġantu":4086,"ede":4087,"ograp":4088,"Ġproject":4089,"Ġhao":4090,"uparch":4091,"Ġore":4092,"Ġsince":4093,"oc":4094,"Ġnile":4095,"Ġatu":4096,"Ġhundi":4097,"Ġjeller":4098,"sat":4099,"Ġsne":4100,"irunn":4101,"saa":4102,"Ġpya":4103,"Ġrab":4104,"kot":4105,"Ġsug":4106,"Ġsher":4107,"Ġyave":4108,"Ġullekh":4109,"Ġkangras":4110,"Ġyuva":4111,"tre":4112,"ipo":4113,"kai":4114,"Ġmalay":4115,"Ġyokk":4116,"Ġpahilo":4117,"mil":4118,"Ġbul":4119,"Ġris":4120,"Ġprashan":4121,"agat":4122,"yaka":4123,"Ġteni":4124,"Ġbil":4125,"Ġstri":4126,"Ġnaagarik":4127,"Ġlod":4128,"Ġapana":4129,"Ġsanghar":4130,"jiv":4131,"ness":4132,"Ġgot":4133,"Ġwr":4134,"Ġbazaar":4135,"Ġabhya":4136,"Ġbhavish":4137,"atal":4138,"Ġphon":4139,"Ġbom":4140,"ulku":4141,"inchindi":4142,"Ġazaad":4143,"ble":4144,"oot":4145,"Ġblo":4146,"Ġsthaneey":4147,"Ġju":4148,"Ġchah":4149,"anan":4150,"Ġvie":4151,"Ġear":4152,"hunik":4153,"Ġpulish":4154,"Ġmaans":4155,"Ġpaksha":4156,"Ġmir":4157,"iske":4158,"lex":4159,"yakar":4160,"Ġlist":4161,"Ġliya":4162,"eth":4163,"tai":4164,"Ġaarope":4165,"Ġjaga":4166,"Ġsamit":4167,"ushk":4168,"Ġ70":4169,"ady":4170,"Ġown":4171,"Ġkahi":4172,"ĠOff":4173,"Ġmother":4174,"Ġtaraf":4175,"adhar":4176,"Ġgurud":4177,"ahar":4178,"ex":4179,"babu":4180,"Ġkale":4181,"Ġanup":4182,"Ġbahu":4183,"Ġrach":4184,"Ġsakde":4185,"Ġvyakhya":4186,"Ġphul":4187,"innu":4188,"apai":4189,"Ġsaan":4190,"Ġkerala":4191,"ald":4192,"Ġkaur":4193,"Ġalag":4194,"Ġaayojan":4195,"Ġtwit":4196,"amani":4197,"Ġfree":4198,"Ġennu":4199,"Ġkhol":4200,"Ġknow":4201,"Ġbhayo":4202,"Ġapara":4203,"by":4204,"Ġadde":4205,"ibar":4206,"Ġmovie":4207,"Ġaayoj":4208,"Ġmara":4209,"Ġpratishat":4210,"27":4211,"ace":4212,"ils":4213,"Ġkaryo":4214,"Ġpraband":4215,"àµ¼t":4216,"Ġgoing":4217,"yab":4218,"Ġmaari":4219,"halu":4220,"purna":4221,"Ġken":4222,"Ġithe":4223,"Ġbhari":4224,"26":4225,"Ġbur":4226,"Ġdham":4227,"aje":4228,"Ġniyantran":4229,"jad":4230,"nes":4231,"uss":4232,"Ġente":4233,"Ġzyada":4234,"Ġgirl":4235,"Ġmuch":4236,"Ġjeee":4237,"apradhan":4238,"cti":4239,"kintu":4240,"vind":4241,"ikas":4242,"ikunnat":4243,"ica":4244,"Ġatyant":4245,"ustralia":4246,"ansh":4247,"Ġshil":4248,"Ġtaa":4249,"aking":4250,"Ġise":4251,"Ġsambandhit":4252,"Ġthink":4253,"gur":4254,"haat":4255,"Ġdand":4256,"Ġtej":4257,"Ġksha":4258,"Ġkache":4259,"Ġbest":4260,"Ġsaade":4261,"Ġnamm":4262,"cook":4263,"Ġhapp":4264,"Ġriv":4265,"Ġjaande":4266,"Ġshresh":4267,"Ġsundar":4268,"Ġcancer":4269,"Ġkimmat":4270,"bin":4271,"mathi":4272,"Ġdarshan":4273,"Ġrand":4274,"eder":4275,"Ġvirodh":4276,"Ġgambhir":4277,"Ġaalaa":4278,"Ġkaryakram":4279,"Ġnirman":4280,"Ġaseen":4281,"anth":4282,"Ġvidhan":4283,"riti":4284,"Ġsamas":4285,"Ġbhandai":4286,"Ġsystem":4287,"Ġpresent":4288,"Ġkaryaalay":4289,"vya":4290,"Ġpus":4291,"Ġbuj":4292,"Ġsaans":4293,"istr":4294,"45":4295,"lok":4296,"Ġsku":4297,"Ġkavi":4298,"Ġmudd":4299,"angàµ¾":4300,"hina":4301,"Ġirundhu":4302,"Ġvidhyaart":4303,"etu":4304,"Ġyoun":4305,"waal":4306,"Ġafis":4307,"Ġjawaab":4308,"Ġ80":4309,"ĠAm":4310,"Ġpower":4311,"bed":4312,"Ġprabha":4313,"ently":4314,"Ġstand":4315,"Ġhotel":4316,"Ġveg":4317,"Ġbandh":4318,"ipur":4319,"mes":4320,"Ġdakshin":4321,"BC":4322,"ual":4323,"anchi":4324,"Ġnanj":4325,"Ġnarendra":4326,"Ġuddh":4327,"47":4328,"hadi":4329,"Ġseem":4330,"Ġjanaay":4331,"amana":4332,"reen":4333,"Ġkhas":4334,"Ġplan":4335,"inche":4336,"Ġmale":4337,"rance":4338,"fu":4339,"Ġnikal":4340,"Ġgit":4341,"Ġcharan":4342,"anai":4343,"alt":4344,"Ġbud":4345,"hant":4346,"Ġkarine":4347,"tip":4348,"hinch":4349,"aring":4350,"Ġnika":4351,"ichch":4352,"Ġpahile":4353,"Ġfail":4354,"Ġgas":4355,"Ġsake":4356,"Ġaaje":4357,"Ġsarkaarle":4358,"andar":4359,"Ġmish":4360,"Ġchot":4361,"andhu":4362,"Ġweb":4363,"bhanda":4364,"ekshan":4365,"Ġvidesh":4366,"Ġsamavesh":4367,"28":4368,"hab":4369,"Ġmok":4370,"Ġmess":4371,"Ġhalo":4372,"tiàµ½":4373,"igarh":4374,"29":4375,"Ġtai":4376,"Ġcele":4377,"Ġfas":4378,"Ġseen":4379,"Ġrupaiy":4380,"Ġsambandhi":4381,"unk":4382,"Ġchinn":4383,"cts":4384,"angladesh":4385,"Ġvapar":4386,"Ġsah":4387,"Ġpurush":4388,"Ġraheka":4389,"Ġthana":4390,"Ġgel":4391,"Ġbanane":4392,"Ġpaidaa":4393,"Ġjela":4394,"Ġlamb":4395,"yanchi":4396,"ays":4397,"Ġinj":4398,"uvad":4399,"Ġuttam":4400,"Ġshikshan":4401,"Ġchildren":4402,"men":4403,"pti":4404,"ukuni":4405,"Ġmanch":4406,"Ġpuraa":4407,"Ġkisaan":4408,"Ġvy":4409,"Ġsthit":4410,"Ġghoshnaa":4411,"Ġdai":4412,"Ġsamu":4413,"Ġsauthi":4414,"Ġpatel":4415,"esan":4416,"ikari":4417,"ekk":4418,"ulk":4419,"Ġaadhaar":4420,"Ġayog":4421,"sc":4422,"Ġdot":4423,"Ġtumha":4424,"Ġpotana":4425,"Ġkarti":4426,"ween":4427,"ej":4428,"Ġtaj":4429,"Ġaik":4430,"Ġvill":4431,"Ġaponi":4432,"ĠCo":4433,"Ġvele":4434,"Ġwast":4435,"Ġdee":4436,"chay":4437,"Ġvyavas":4438,"shish":4439,"Ġgayo":4440,"Ġkhu":4441,"utal":4442,"Ġprayat":4443,"Ġstill":4444,"Ġdaur":4445,"ĠChr":4446,"iz":4447,"Ġdag":4448,"isher":4449,"ibe":4450,"Ġthul":4451,"Ġder":4452,"Ġused":4453,"Ġsahitya":4454,"Ġdigital":4455,"hus":4456,"Ġnuk":4457,"itik":4458,"Ġwang":4459,"Ġmutab":4460,"Ġkati":4461,"orth":4462,"Ġhise":4463,"kr":4464,"Ġcle":4465,"Ġenpatu":4466,"Ġtax":4467,"akan":4468,"omani":4469,"Ġunion":4470,"Ġlagi":4471,"unki":4472,"Ġmodel":4473,"Ġyojit":4474,"ishak":4475,"Ġnear":4476,"ichi":4477,"Ġasp":4478,"Ġuhanaas":4479,"Ġkhoj":4480,"Ġmillion":4481,"Ġnib":4482,"Ġvyat":4483,"Ġniti":4484,"Ġhari":4485,"Ġdays":4486,"can":4487,"Ġparish":4488,"alian":4489,"hinda":4490,"Ġapar":4491,"orts":4492,"Ġvimaan":4493,"mon":4494,"pho":4495,"Ġtit":4496,"tave":4497,"unale":4498,"Ġformer":4499,"Ġprakriya":4500,"Ġchhod":4501,"Ġippo":4502,"Ġbim":4503,"aaye":4504,"ukul":4505,"Ġsaame":4506,"ujavaan":4507,"Ġpatra":4508,"Ġakali":4509,"Ġacel":4510,"Ġidi":4511,"Ġdir":4512,"isang":4513,"apurn":4514,"Ġparv":4515,"Ġalle":4516,"ĠNo":4517,"Ġroad":4518,"tyamule":4519,"Ġsada":4520,"Ġpil":4521,"orld":4522,"Ġrahya":4523,"Ġnirdesh":4524,"lag":4525,"Ġmem":4526,"Ġjaye":4527,"Ġthashe":4528,"hunch":4529,"Ġpill":4530,"ujarati":4531,"Ġdelhi":4532,"punjab":4533,"Ġtook":4534,"Ġraja":4535,"Ġgeneral":4536,"rist":4537,"Ġsaamaajik":4538,"ared":4539,"Ġjind":4540,"urr":4541,"come":4542,"Ġyojan":4543,"viv":4544,"Ġsaaj":4545,"Ġante":4546,"ages":4547,"Ġmauke":4548,"Ġshould":4549,"charu":4550,"Ġtyo":4551,"Ġkarwai":4552,"Ġpatil":4553,"vatu":4554,"zil":4555,"iction":4556,"Ġvidudal":4557,"ship":4558,"Ġdad":4559,"iter":4560,"Ġprashik":4561,"Ġbetween":4562,"Ġpravas":4563,"hrer":4564,"ĠZ":4565,"Ġduj":4566,"Ġjim":4567,"ipar":4568,"Ġmany":4569,"oshi":4570,"Ġsooch":4571,"Ġdhanya":4572,"naan":4573,"Ġnadi":4574,"Ġjhan":4575,"Ġjeewan":4576,"Ġadded":4577,"hite":4578,"Ġpraapat":4579,"Ġeuta":4580,"Ġasate":4581,"Ġsadar":4582,"Ġshanti":4583,"Ġbill":4584,"usam":4585,"Ġdef":4586,"umpol":4587,"Ġbhalo":4588,"kir":4589,"mumbai":4590,"Ġgoun":4591,"Ġaval":4592,"Ġbhanda":4593,"shay":4594,"ekshak":4595,"Ġsamvidhan":4596,"Ġcrores":4597,"riday":4598,"Ġprof":4599,"Ġparishader":4600,"wala":4601,"haj":4602,"Ġvind":4603,"Ġlu":4604,"Ġame":4605,"ĠAn":4606,"Ġnetrit":4607,"cil":4608,"mark":4609,"Ġtyanni":4610,"Ġaward":4611,"ution":4612,"ukunt":4613,"Ġdurghat":4614,"iil":4615,"Ġty":4616,"Ġlan":4617,"Ġyar":4618,"patr":4619,"try":4620,"Ġ2009":4621,"Ġkendriya":4622,"den":4623,"kani":4624,"Ġhere":4625,"hall":4626,"Ġyete":4627,"Ġvachch":4628,"atma":4629,"ined":4630,"hanu":4631,"Ġinv":4632,"Ġshahar":4633,"Ġkondu":4634,"Ġbai":4635,"Ġdata":4636,"Ġghen":4637,"Ġavash":4638,"Ġmato":4639,"ense":4640,"Ġjor":4641,"edia":4642,"ikkunn":4643,"Ġshuruu":4644,"Ġbeshi":4645,"Ġdard":4646,"idam":4647,"upati":4648,"Ġkaal":4649,"indhu":4650,"arshi":4651,"Ġsai":4652,"taff":4653,"Ġpuja":4654,"Ġsale":4655,"Ġchhan":4656,"Ġchada":4657,"arty":4658,"enior":4659,"Ġsunder":4660,"Ġbatt":4661,"Ġnenu":4662,"Ġlif":4663,"umi":4664,"hikar":4665,"Ġprasid":4666,"Ġbajet":4667,"ukan":4668,"Ġmaran":4669,"Ġconf":4670,"phi":4671,"Ġasiri":4672,"Ġadhikaar":4673,"Ġchitran":4674,"Mr":4675,"Ġpes":4676,"Ġgoli":4677,"Ġmohammad":4678,"Ġsadharan":4679,"Ġcenter":4680,"Ġvishwavid":4681,"Ġkshetrama":4682,"gg":4683,"lil":4684,"ushad":4685,"arkar":4686,"Ġbhajp":4687,"Ġchina":4688,"Ġhaley":4689,"abe":4690,"Ġtatha":4691,"kon":4692,"ushal":4693,"Ġsiddhan":4694,"Ġvyapaar":4695,"Ġinf":4696,"Ġprob":4697,"vada":4698,"Ġbip":4699,"Ġgang":4700,"Ġfase":4701,"Ġjaya":4702,"Ġpayan":4703,"Ġgod":4704,"Ġchessi":4705,"hika":4706,"Ġpole":4707,"Ġshoot":4708,"mantr":4709,"oh":4710,"pro":4711,"ial":4712,"Ġtalai":4713,"Ġjankari":4714,"ukhi":4715,"undaa":4716,"Ġlead":4717,"Ġhindu":4718,"Ġmonths":4719,"Ġdukh":4720,"hinchin":4721,"Ġhigh":4722,"Ġface":4723,"Ġincluding":4724,"az":4725,"nak":4726,"Ġturn":4727,"avilly":4728,"ayo":4729,"Ġsaak":4730,"Ġatle":4731,"Ġunki":4732,"Ġviral":4733,"ming":4734,"sil":4735,"arya":4736,"Ġsall":4737,"unth":4738,"Ġtamane":4739,"Ġmila":4740,"ero":4741,"agan":4742,"Ġnext":4743,"Ġintern":4744,"itis":4745,"Ġjem":4746,"Ġlid":4747,"apo":4748,"Ġmauj":4749,"halo":4750,"Ġnivad":4751,"Ġshukra":4752,"Ġperson":4753,"Ġaisa":4754,"Ġchok":4755,"hok":4756,"Ġhona":4757,"Ġrep":4758,"Ġyogya":4759,"Ġjanaayeko":4760,"48":4761,"Ġjaise":4762,"Ġtimes":4763,"Ġyuvak":4764,"Ġmaansik":4765,"chil":4766,"irs":4767,"udan":4768,"anian":4769,"Ġbhaira":4770,"Ġpuraskar":4771,"Ġcell":4772,"poor":4773,"ennal":4774,"Ġaath":4775,"Ġkadhi":4776,"Ġkom":4777,"Ġdep":4778,"the":4779,"Ġshradd":4780,"alku":4781,"Ġnote":4782,"Ġkarbe":4783,"ukki":4784,"hilo":4785,"Ġ33":4786,"Ġsarvat":4787,"any":4788,"Ġsaab":4789,"Ġbody":4790,"Ġlam":4791,"Ġamm":4792,"Ġaapi":4793,"Ġsahabha":4794,"paper":4795,"Ġsul":4796,"Ġtoday":4797,"Ġneuj":4798,"ested":4799,"bhu":4800,"Ġupal":4801,"kshit":4802,"Ġbanii":4803,"Ġupachaar":4804,"Ġtw":4805,"udhar":4806,"Ġsadasya":4807,"pura":4808,"Ġkama":4809,"Ġkull":4810,"chhu":4811,"Ġjati":4812,"Ġlater":4813,"Ġpolic":4814,"etting":4815,"Ġaadesh":4816,"Ġparichay":4817,"lya":4818,"ief":4819,"Ġgand":4820,"star":4821,"ijan":4822,"Ġthought":4823,"Ġnalk":4824,"Ġcare":4825,"Ġamit":4826,"Ġvishyam":4827,"ĠRead":4828,"Ġmotor":4829,"Ġleda":4830,"utes":4831,"eman":4832,"Ġskuul":4833,"Ġyoung":4834,"Ġbri":4835,"ichar":4836,"Ġhami":4837,"Ġbaithak":4838,"saan":4839,"Ġmanass":4840,"Ġshakt":4841,"bandhan":4842,"Ġledu":4843,"ubhayo":4844,"Ġparne":4845,"Ġindu":4846,"Ġkiye":4847,"Ġkaise":4848,"ube":4849,"matamaa":4850,"Ġraaheen":4851,"Ġsoll":4852,"hurti":4853,"Ġcri":4854,"Ġsamiti":4855,"ording":4856,"Ġpetrol":4857,"Ġchatt":4858,"vah":4859,"Ġmoon":4860,"ĠIST":4861,"Ġprakat":4862,"Ġkabhi":4863,"Ġlabh":4864,"Ġkilomet":4865,"Ġsammelan":4866,"vam":4867,"Ġghad":4868,"Ġlang":4869,"Ġhaad":4870,"Ġfive":4871,"Ġmach":4872,"ĠPunjab":4873,"ĠDownloads":4874,"ĠJo":4875,"vesti":4876,"krit":4877,"work":4878,"Ġtapa":4879,"Ġah":4880,"Ġunako":4881,"Ġyour":4882,"Ġdow":4883,"yaas":4884,"Ġrun":4885,"ivil":4886,"ania":4887,"Ġprote":4888,"Ġnatatt":4889,"Ġchestunn":4890,"Ġwater":4891,"Ġpratiyog":4892,"Ġchendin":4893,"kash":4894,"side":4895,"Ġellam":4896,"Ġdog":4897,"raan":4898,"ology":4899,"Ġsoshal":4900,"Ġchus":4901,"Ġbanne":4902,"Ġduara":4903,"Ġsiraj":4904,"Ġben":4905,"Ġgin":4906,"avad":4907,"edit":4908,"Ġgovern":4909,"Ġmandal":4910,"Ġtiar":4911,"kap":4912,"Ġmass":4913,"Ġticket":4914,"Ġbann":4915,"Ġrashi":4916,"Ġcheck":4917,"asech":4918,"inc":4919,"Ġnavi":4920,"Ġprag":4921,"Ġdied":4922,"ĠPost":4923,"Ġ197":4924,"kaaran":4925,"As":4926,"sher":4927,"Ġela":4928,"Ġmudi":4929,"Ġmagha":4930,"Ġputia":4931,"Ġinhan":4932,"Ġbasari":4933,"galuku":4934,"Ġprapan":4935,"Ġprar":4936,"stai":4937,"ritu":4938,"Ġperu":4939,"Ġindian":4940,"Ġform":4941,"Ġbatam":4942,"ora":4943,"pul":4944,"vers":4945,"Ġmalai":4946,"Ġcut":4947,"ukta":4948,"Ġandolan":4949,"Ġswami":4950,"Ġ500":4951,"ideo":4952,"pradhanmantri":4953,"Ġkri":4954,"avatu":4955,"Ġini":4956,"Ġtelis":4957,"Ġtiri":4958,"Ġaway":4959,"ancha":4960,"Ġtyana":4961,"raat":4962,"heb":4963,"Ġnagarpalika":4964,"Ġplace":4965,"Ġghatana":4966,"Ġdollar":4967,"Ġprativ":4968,"Ġpej":4969,"Ġduniya":4970,"utar":4971,"Ġshas":4972,"Ġavan":4973,"ĠLondon":4974,"Ġmero":4975,"Ġaspataal":4976,"Ġtali":4977,"Ġhath":4978,"Ġwel":4979,"ague":4980,"Ġtheri":4981,"gad":4982,"log":4983,"asat":4984,"Ġgaan":4985,"Ġrahyo":4986,"Ġsangh":4987,"Ġsanshodhan":4988,"Ġmig":4989,"Ġghum":4990,"maatr":4991,"Ġsakati":4992,"Ġakhil":4993,"akkum":4994,"Ġdili":4995,"endar":4996,"Ġthose":4997,"Ġdont":4998,"ĠComments":4999,"Ġmammla":5000,"Ġlakshan":5001,"Ġsix":5002,"Ġseyy":5003,"Ġjanaan":5004,"ove":5005,"Ġves":5006,"ĠRe":5007,"heri":5008,"ente":5009,"Ġaah":5010,"vey":5011,"Ġsarvas":5012,"ĠWe":5013,"Ġethir":5014,"Ġsaamaan":5015,"akir":5016,"Ġlot":5017,"Ġask":5018,"Ġsaamne":5019,"And":5020,"ges":5021,"inter":5022,"Ġthal":5023,"Ġsame":5024,"achan":5025,"Ġtelus":5026,"Ġrashtrapati":5027,"Ġsn":5028,"aaon":5029,"ushya":5030,"Ġpedd":5031,"inchal":5032,"ulak":5033,"Ġprot":5034,"Ġbeuro":5035,"Ġdownlod":5036,"Ar":5037,"cel":5038,"Ġlal":5039,"Ġpatni":5040,"rica":5041,"Ġyasto":5042,"Ġsupreme":5043,"Ġgamee":5044,"Ġvruddhi":5045,"Ġanushtit":5046,"rail":5047,"ask":5048,"Ġtod":5049,"Ġvaraku":5050,"Ġuth":5051,"Ġhonar":5052,"Ġwent":5053,"Ġfel":5054,"Ġhost":5055,"puram":5056,"Ġcongres":5057,"35":5058,"yoj":5059,"Ġpap":5060,"Ġpavan":5061,"reji":5062,"Ġnoti":5063,"ono":5064,"Ġtarun":5065,"Next":5066,"gari":5067,"Ġfakt":5068,"Ġavak":5069,"pres":5070,"Ġtumhi":5071,"vali":5072,"Ġaise":5073,"Ġhast":5074,"andan":5075,"Ġemail":5076,"Ġdekhte":5077,"atte":5078,"alika":5079,"Ġraju":5080,"htt":5081,"vr":5082,"Ġchor":5083,"ekale":5084,"undu":5085,"Ġnird":5086,"Ġkaryalay":5087,"ware":5088,"Ġpid":5089,"Ġchennai":5090,"Ġhoin":5091,"Ġnever":5092,"Ġpaksh":5093,"kin":5094,"ple":5095,"haade":5096,"amer":5097,"Ġgele":5098,"olice":5099,"oshan":5100,"Ġlagn":5101,"noo":5102,"Ġjarig":5103,"than":5104,"Ġcat":5105,"Ġvichar":5106,"Ġraksha":5107,"Ġsoochna":5108,"Read":5109,"Ġahile":5110,"annar":5111,"Ġ34":5112,"ĠOx":5113,"Ġmatrame":5114,"Ġdirector":5115,"Ġnirdes":5116,"Ġjanie":5117,"aave":5118,"Ġparya":5119,"Ġvarshe":5120,"varan":5121,"wale":5122,"akshi":5123,"Ġsaitu":5124,"Ġvare":5125,"unnatin":5126,"ujarat":5127,"Ġella":5128,"Ġniyamit":5129,"Ġadaalat":5130,"rundhu":5131,"sur":5132,"Ġama":5133,"appat":5134,"Ġsamm":5135,"Ġkoshish":5136,"astar":5137,"Ġvachchin":5138,"Ġengland":5139,"Ġwomen":5140,"acebook":5141,"ison":5142,"Ġgum":5143,"Ġhtt":5144,"ĠPr":5145,"àµ¼k":5146,"Ġduus":5147,"ony":5148,"Ġchud":5149,"iger":5150,"ritain":5151,"lywood":5152,"Ġdesher":5153,"Ġbabu":5154,"Ġlakshya":5155,"Ġpariwar":5156,"Ġrahane":5157,"Ġnazar":5158,"Ġyug":5159,"attar":5160,"ĠMore":5161,"bandi":5162,"Ġclass":5163,"Ġmantralay":5164,"Ġcalled":5165,"amdhye":5166,"Ġdra":5167,"iksha":5168,"Ġjagat":5169,"Ġbrand":5170,"bel":5171,"jhar":5172,"Ġjhad":5173,"Ġsei":5174,"poorn":5175,"Ġprakashit":5176,"Ġprashasan":5177,"Ġelect":5178,"aled":5179,"Ġdete":5180,"uty":5181,"urse":5182,"Ġfootball":5183,"Ġwicket":5184,"abhav":5185,"Ġtechn":5186,"illen":5187,"Ġjanat":5188,"Ġmedi":5189,"wast":5190,"akum":5191,"allu":5192,"Ġiti":5193,"parantu":5194,"Ġbes":5195,"rau":5196,"Ġshahir":5197,"Ġchhabi":5198,"Ġsurakshit":5199,"Ġraashtrapati":5200,"alon":5201,"Ġae":5202,"Ġsaras":5203,"Ġswatantra":5204,"Ġkintu":5205,"apn":5206,"Ġbhaaj":5207,"Ġcas":5208,"chai":5209,"row":5210,"Ġmaro":5211,"Ġait":5212,"Ġaai":5213,"Ġdat":5214,"angas":5215,"achya":5216,"Ġnambar":5217,"Ġunnai":5218,"Ġdonon":5219,"Ġcaptan":5220,"hd":5221,"pram":5222,"Ġtham":5223,"Ġsampra":5224,"Ġpaalan":5225,"tions":5226,"anche":5227,"Ġputt":5228,"Ġdok":5229,"eku":5230,"Ġmanon":5231,"Ġcontr":5232,"Ġlekha":5233,"Ġchitr":5234,"Ġaslelya":5235,"Ġbhoomika":5236,"Ġvivar":5237,"Ġtemani":5238,"Ġtapas":5239,"Ġvidyart":5240,"Ġvarshiya":5241,"Ġpahel":5242,"Ġreal":5243,"Ġaayojana":5244,"ghan":5245,"Ġaadi":5246,"Ġsamaa":5247,"aries":5248,"Ġmanav":5249,"unhone":5250,"uram":5251,"Ġkarib":5252,"ival":5253,"sthan":5254,"Ġvishwaas":5255,"wer":5256,"ukari":5257,"Ġaape":5258,"Ġcome":5259,"Ġvivaad":5260,"samm":5261,"Ġenniv":5262,"Ġprastaav":5263,"Ġnajar":5264,"Ġhiseve":5265,"bra":5266,"Ġuk":5267,"Ġpush":5268,"Ġbars":5269,"arkari":5270,"Ġakkuv":5271,"Ġnaveen":5272,"Ġlive":5273,"Ġwad":5274,"Ġfire":5275,"Ġsamsk":5276,"Ġeman":5277,"ĠHe":5278,"rashtri":5279,"Ġnond":5280,"Ġparmatamaa":5281,"ivaar":5282,"Ġjaher":5283,"Ġ36":5284,"Ġsamr":5285,"anee":5286,"Ġ90":5287,"daniki":5288,"eke":5289,"vaad":5290,"shako":5291,"Ġrahman":5292,"37":5293,"Its":5294,"yi":5295,"Ġtot":5296,"Ġhealth":5297,"Ġhogi":5298,"Ġisl":5299,"ĠMar":5300,"ĠWorld":5301,"Ġjinhan":5302,"Ġreturn":5303,"br":5304,"gus":5305,"Ġpaper":5306,"Ġparat":5307,"Ġparip":5308,"ivid":5309,"ĠAl":5310,"sah":5311,"Ġtala":5312,"Ġcy":5313,"Ġvahi":5314,"Ġdies":5315,"Ġhus":5316,"ogle":5317,"Ġpahela":5318,"Ġiste":5319,"Ġuthe":5320,"Ġthayo":5321,"Ġsangha":5322,"Ġsheea":5323,"Ġnanjhi":5324,"tel":5325,"Ġchut":5326,"Ġmaar":5327,"Ġyahi":5328,"Ġsanyukt":5329,"Ġuski":5330,"Ġjih":5331,"Ġwaàµ¼":5332,"ds":5333,"ened":5334,"Ġjap":5335,"hup":5336,"pre":5337,"Ġanother":5338,"Ġaavyo":5339,"Ġhamaare":5340,"Ġvaaru":5341,"Ġlimited":5342,"kata":5343,"tamil":5344,"haaran":5345,"chik":5346,"agam":5347,"Ġkamish":5348,"Ġdekhe":5349,"Ġmahatvapurn":5350,"ington":5351,"Ġreve":5352,"Ġusne":5353,"Ġfebruary":5354,"Ġaash":5355,"Ġjy":5356,"ender":5357,"Ġbaletten":5358,"Ġmulam":5359,"Ġkadam":5360,"Ġmail":5361,"patra":5362,"Ġmulya":5363,"Ġlaunch":5364,"Ġumm":5365,"Ġvant":5366,"Ġchem":5367,"Ġirup":5368,"Ġlaage":5369,"Ġjanavyu":5370,"Ġpher":5371,"Ġinvesti":5372,"Ġpadaar":5373,"Ġpurn":5374,"Ġkrishna":5375,"39":5376,"lis":5377,"tik":5378,"Ġgreat":5379,"achch":5380,"hruko":5381,"Ġtyaacha":5382,"Ġsthapana":5383,"jana":5384,"Ġkhun":5385,"Ġdan":5386,"esar":5387,"ichaar":5388,"Ġprajal":5389,"upu":5390,"Ġsawaal":5391,"Ġarab":5392,"vars":5393,"Ġago":5394,"haanoon":5395,"Ġkapur":5396,"Ġsas":5397,"Ġphurti":5398,"ukayu":5399,"Ġbaalak":5400,"Ġuts":5401,"Ġ55":5402,"Ġbhej":5403,"Ġtyaanchya":5404,"nath":5405,"Ġtaaj":5406,"ivu":5407,"atah":5408,"cks":5409,"ĠSep":5410,"Ġjaano":5411,"Ġtech":5412,"Ġvideshi":5413,"jya":5414,"tum":5415,"waar":5416,"Ġkaree":5417,"atia":5418,"Ġnaame":5419,"Ġcheitu":5420,"ukku":5421,"Ġgurudwara":5422,"nik":5423,"Ġning":5424,"Ġgl":5425,"Ġkaryan":5426,"str":5427,"Ġteo":5428,"Ġtaken":5429,"arsh":5430,"aly":5431,"Ġbot":5432,"Ġjova":5433,"gaar":5434,"Ġric":5435,"time":5436,"Ġfind":5437,"Ġsamoo":5438,"Ġbanoun":5439,"aami":5440,"tho":5441,"Ġkarane":5442,"Ġprant":5443,"Ġpahila":5444,"iyan":5445,"Ġpurus":5446,"yarman":5447,"Ġvarthal":5448,"bil":5449,"yul":5450,"Ġsign":5451,"Ġgold":5452,"Ġhain":5453,"apane":5454,"Ġabhy":5455,"Ġkatal":5456,"Ġratri":5457,"Ġbaithk":5458,"cess":5459,"Ġkutt":5460,"shri":5461,"Ġshot":5462,"Ġkutumb":5463,"aile":5464,"bari":5465,"pari":5466,"Ġevu":5467,"stha":5468,"Ġhin":5469,"Ġbahar":5470,"Ġakram":5471,"Ġroom":5472,"Ġawami":5473,"Ġmakas":5474,"Ġtreat":5475,"Ġchamp":5476,"Ġjaani":5477,"aagat":5478,"Ġbhaner":5479,"Ġshakay":5480,"Ġkuta":5481,"Ġsanchaalan":5482,"Ġrele":5483,"Ġbadh":5484,"ĠMay":5485,"ekhan":5486,"arka":5487,"Ġghoshna":5488,"Ġyanchi":5489,"Ġhyderabad":5490,"Ġvikipidia":5491,"pun":5492,"atur":5493,"Ġbus":5494,"Ġdike":5495,"urity":5496,"hout":5497,"Ġyahaan":5498,"ĠSc":5499,"Ġthake":5500,"elai":5501,"Ġmahi":5502,"Ġunhone":5503,"Ġpathak":5504,"Ġsarak":5505,"Ġtarik":5506,"Ġsangeet":5507,"Ġdosha":5508,"àµ¾k":5509,"oi":5510,"Ġtaiya":5511,"Ġdup":5512,"Ġasat":5513,"Ġchaalu":5514,"cked":5515,"Ġmoh":5516,"Ġshikshar":5517,"Ġresp":5518,"Ġsikhs":5519,"mav":5520,"Ġjun":5521,"iru":5522,"idom":5523,"ĠUK":5524,"kut":5525,"pth":5526,"phon":5527,"anar":5528,"Ġshal":5529,"ettu":5530,"undani":5531,"kiya":5532,"Ġsachiv":5533,"ayla":5534,"Ġmanchi":5535,"Ġvidhi":5536,"Ġagra":5537,"Ġpunar":5538,"Ġdevya":5539,"Ġparichal":5540,"ĠOxford":5541,"rani":5542,"Ġkade":5543,"Ġdaily":5544,"Ġuda":5545,"Ġyethil":5546,"Ġhovega":5547,"odi":5548,"alar":5549,"andai":5550,"Ġfi":5551,"hyal":5552,"usthan":5553,"ĠDec":5554,"Ġkangress":5555,"mahatya":5556,"lal":5557,"Ġtek":5558,"iky":5559,"ayani":5560,"abaat":5561,"ending":5562,"Ġvidha":5563,"chitr":5564,"Ġkata":5565,"avit":5566,"athmik":5567,"Ġaghi":5568,"Ġbangab":5569,"Ġuntundi":5570,"Ġky":5571,"Ġaane":5572,"Ġhunde":5573,"inera":5574,"Ġsupport":5575,"daan":5576,"luku":5577,"Ġstaff":5578,"Ġahe":5579,"Ġdieko":5580,"Ġref":5581,"Ġthayu":5582,"Ġvisesh":5583,"mukh":5584,"ox":5585,"Ġmaid":5586,"Ġkarche":5587,"harma":5588,"Ġshaamil":5589,"Ġivite":5590,"Ġkui":5591,"akaa":5592,"Ġchhal":5593,"edaar":5594,"ster":5595,"Ġmili":5596,"Ġbaje":5597,"Ġwatch":5598,"bodhu":5599,"dam":5600,"taan":5601,"Ġsic":5602,"Ġgaj":5603,"ĠFacebook":5604,"Ġpatiu":5605,"uf":5606,"Ġagast":5607,"Ġtemana":5608,"Ġprabhutvan":5609,"gir":5610,"Ġrod":5611,"Ġrast":5612,"Ġsampoorn":5613,"Ġstation":5614,"90":5615,"SA":5616,"Ġtran":5617,"ener":5618,"Ġgut":5619,"urg":5620,"ume":5621,"Ġseason":5622,"Ġhiro":5623,"sahit":5624,"hune":5625,"Ġcollege":5626,"jet":5627,"Ġsenior":5628,"Ġvaari":5629,"ikan":5630,"Ġkem":5631,"Ġheth":5632,"Ġmaine":5633,"Ġmatlad":5634,"Ġdevel":5635,"Ġsena":5636,"hire":5637,"Ġnek":5638,"ayi":5639,"apatt":5640,"antha":5641,"Ġpraj":5642,"Ġkonni":5643,"Ġbijepi":5644,"Ġbhashaa":5645,"75":5646,"hek":5647,"eshal":5648,"Ġrahin":5649,"Ġoper":5650,"okes":5651,"Ġlaal":5652,"chitra":5653,"ĠEngland":5654,"ety":5655,"ichya":5656,"roid":5657,"Ġdhare":5658,"ovadi":5659,"Ġsabhapati":5660,"Ġparivartan":5661,"view":5662,"33":5663,"ĠAnd":5664,"akarta":5665,"chari":5666,"Ġbistar":5667,"Ġchhar":5668,"Ġrai":5669,"yatil":5670,"trini":5671,"Ġvandhu":5672,"On":5673,"Ġpodhu":5674,"Ġmis":5675,"Ġchol":5676,"etar":5677,"etire":5678,"Ġdharam":5679,"Ġkutub":5680,"Ġswasthy":5681,"Ġrupaiyyaan":5682,"Ġpud":5683,"Ġaage":5684,"Ġchuki":5685,"Ġkanip":5686,"Ġmembers":5687,"Ġadhyayan":5688,"Ġkaraben":5689,"car":5690,"want":5691,"yut":5692,"anas":5693,"Ġvot":5694,"iting":5695,"Ġkarudd":5696,"ĠFilm":5697,"Ġulldu":5698,"Ġbataaya":5699,"ĠUnited":5700,"Ġarasi":5701,"Ġmeeru":5702,"Ġprashikshan":5703,"44":5704,"tn":5705,"akari":5706,"yanantar":5707,"Ġsamayma":5708,"charya":5709,"aaph":5710,"Ġabhinet":5711,"yr":5712,"Ġmic":5713,"Ġsthaan":5714,"Ġmukhi":5715,"Ġjeva":5716,"Ġprasang":5717,"Ġjarug":5718,"Ġcaptain":5719,"Ġsambhal":5720,"Ġkdd":5721,"Ġpab":5722,"Ġtivi":5723,"ukat":5724,"Ġprayoj":5725,"Ġreddi":5726,"bot":5727,"ross":5728,"amber":5729,"Ġbhit":5730,"maal":5731,"Ġstyle":5732,"Ġpatake":5733,"Ġnavin":5734,"hmed":5735,"Ġkarmchaar":5736,"Ġgranth":5737,"ahan":5738,"kil":5739,"Ġhuk":5740,"Ġbhagat":5741,"vacchu":5742,"Ġute":5743,"Ġviakti":5744,"Ġvikalp":5745,"Ġprayek":5746,"Ġseyya":5747,"Ġkand":5748,"Ġmash":5749,"Ġmos":5750,"handa":5751,"eter":5752,"tick":5753,"Ġmaarg":5754,"Ġcheyarman":5755,"Ġarb":5756,"istunnar":5757,"ĠHindi":5758,"Ġbangla":5759,"Ġaushad":5760,"Ġrachana":5761,"Ġprachand":5762,"Ġitihaas":5763,"Ġbudd":5764,"Ġpawa":5765,"vadik":5766,"Ġprasad":5767,"avik":5768,"Ġmaut":5769,"Ġarog":5770,"Ġswad":5771,"Ġdesha":5772,"Ġvaje":5773,"daa":5774,"Ġahin":5775,"Ġdya":5776,"adia":5777,"Ġchuke":5778,"uktar":5779,"tah":5780,"Ġtahit":5781,"aayen":5782,"ughter":5783,"Ġbangladesher":5784,"Ġthulo":5785,"don":5786,"dhu":5787,"gul":5788,"laa":5789,"nas":5790,"sarkaar":5791,"Ġkshan":5792,"Ġbache":5793,"aks":5794,"Ġchunt":5795,"unnund":5796,"Ġenaku":5797,"bhayo":5798,"Ġbhidio":5799,"Ġcoup":5800,"ĠGo":5801,"Ġkartaan":5802,"Ġavarkas":5803,"Ġkumaar":5804,"inj":5805,"Ġmint":5806,"ired":5807,"Ġfit":5808,"isthan":5809,"pect":5810,"Ġbrahm":5811,"sabha":5812,"tyaan":5813,"Ġteli":5814,"Ġnasht":5815,"Ġsanket":5816,"lor":5817,"Ġukt":5818,"have":5819,"Ġkaj":5820,"Ġbela":5821,"utta":5822,"Ġvanti":5823,"Ġutpaad":5824,"Ġfaisla":5825,"harulaai":5826,"ait":5827,"Ġtuk":5828,"Ġtere":5829,"ased":5830,"udyog":5831,"Ġnaàµ½":5832,"Ġdewa":5833,"Ġeff":5834,"Ġjahaan":5835,"Ġmohan":5836,"Ġshako":5837,"Ġbatoun":5838,"hansabha":5839,"Ġbay":5840,"elle":5841,"Ġarj":5842,"Ġmanas":5843,"ĠBBC":5844,"Ġtamari":5845,"Ġbuild":5846,"amu":5847,"Ġcurr":5848,"avark":5849,"Ġwww":5850,"Ġhours":5851,"Ġsadas":5852,"cur":5853,"Ġarasu":5854,"Ġiske":5855,"ĠRo":5856,"Ġjaavega":5857,"Ġshubh":5858,"ros":5859,"Ġaia":5860,"akhi":5861,"Ġandhra":5862,"waril":5863,"Ġvyava":5864,"36":5865,"Ġsaari":5866,"Ġdate":5867,"Ġgale":5868,"Ġtom":5869,"arah":5870,"Ġkalakaar":5871,"Ġpast":5872,"Ġdile":5873,"Ġjame":5874,"arter":5875,"Ġanaline":5876,"Ġraajnneetik":5877,"Ġtipp":5878,"Ġaadhunik":5879,"Ġparivaar":5880,"bij":5881,"watt":5882,"Ġtall":5883,"Ġmom":5884,"Ġbaan":5885,"Ġbase":5886,"Ġvyank":5887,"tiv":5888,"Ġkiu":5889,"shu":5890,"Ġdeb":5891,"dra":5892,"gulo":5893,"akam":5894,"Ġchya":5895,"Ġrajan":5896,"Ġpasoon":5897,"Ġdidnt":5898,"hiri":5899,"ision":5900,"Ġkartr":5901,"Ġungs":5902,"Ġmukt":5903,"Ġzi":5904,"airunn":5905,"Ġpotani":5906,"Ġchahida":5907,"room":5908,"Ġsakadi":5909,"Ġlagbhag":5910,"Ġaccess":5911,"Ġservice":5912,"Ġkoh":5913,"Ġ65":5914,"Ġchitrapat":5915,"Ġkhilaaph":5916,"rom":5917,"inan":5918,"Ġaid":5919,"Ġvyas":5920,"oda":5921,"Ġekajan":5922,"ipal":5923,"Ġread":5924,"Ġsweek":5925,"Ġdalit":5926,"Ġunnayan":5927,"Ġmelv":5928,"Ġsecret":5929,"Ġwoman":5930,"46":5931,"Ġril":5932,"Ġbacch":5933,"nuhos":5934,"Ġkhaate":5935,"Ġgalat":5936,"Ġvishwagi":5937,"Ġnivas":5938,"Ġdikha":5939,"yl":5940,"Ġraakh":5941,"Ġmaya":5942,"Ġtoo":5943,"Ġrajk":5944,"Ġsatya":5945,"bangladesh":5946,"mun":5947,"myaan":5948,"Ġmall":5949,"ayirunnu":5950,"Ġasalya":5951,"osed":5952,"Ġminutes":5953,"Ġsudhaar":5954,"Ġcountry":5955,"Ġavasthaa":5956,"Ġsanrakshit":5957,"Ġamritsar":5958,"cing":5959,"Ġpuk":5960,"Ġpall":5961,"Ġvalia":5962,"Ġmaji":5963,"hath":5964,"Ġvarai":5965,"Ġcharitra":5966,"erndu":5967,"Ġnand":5968,"Ġmahesh":5969,"ried":5970,"Ġpriv":5971,"Ġambe":5972,"Ġuir":5973,"outh":5974,"Ġkshamta":5975,"america":5976,"Ġhawa":5977,"ette":5978,"ishth":5979,"ips":5980,"Ġdaud":5981,"inder":5982,"Ġdharner":5983,"Ġvadhare":5984,"Ġ2008":5985,"ataka":5986,"Ġvang":5987,"Ġwand":5988,"Ġthay":5989,"Ġ196":5990,"Ġumar":5991,"Ġchild":5992,"Ġchonas":5993,"cal":5994,"cle":5995,"mari":5996,"rum":5997,"emb":5998,"Ġbienpir":5999,"dekhi":6000,"gun":6001,"ado":6002,"Ġlon":6003,"Ġling":6004,"Ġ38":6005,"Ġnetrut":6006,"Ġques":6007,"sal":6008,"Ġsaathi":6009,"Ġvaruk":6010,"elling":6011,"Ġchalaa":6012,"ĠLiving":6013,"hnas":6014,"bul":6015,"Ġtoli":6016,"rab":6017,"Ġfund":6018,"Ġ75":6019,"huk":6020,"eshe":6021,"udu":6022,"shti":6023,"Ġvaala":6024,"ttil":6025,"fatar":6026,"gas":6027,"Ġpop":6028,"Ġnings":6029,"aven":6030,"Ġsanjay":6031,"Ġtakhav":6032,"Ġdoodh":6033,"haspati":6034,"ways":6035,"itch":6036,"Ġjama":6037,"Ġmaile":6038,"Ġbahum":6039,"Ġreported":6040,"Ġprastut":6041,"irikt":6042,"Ġide":6043,"uldu":6044,"Ġyaar":6045,"ĠMc":6046,"Ġ37":6047,"Ġroju":6048,"bol":6049,"pot":6050,"Ġtira":6051,"Ġmith":6052,"Ġsanvat":6053,"ĠCl":6054,"inaam":6055,"Ġbhairaheko":6056,"tat":6057,"Ġge":6058,"Ġri":6059,"Ġthese":6060,"rim":6061,"Ġveer":6062,"paryant":6063,"Ġdunia":6064,"Ġaddeha":6065,"sap":6066,"wati":6067,"Ġside":6068,"Ġparib":6069,"Ġtour":6070,"Ġaloch":6071,"Ġlagaa":6072,"rakshan":6073,"Ġvittu":6074,"Ġtisuk":6075,"ever":6076,"Ġmare":6077,"Ġdakh":6078,"Ġfull":6079,"Ġraashi":6080,"yaksh":6081,"artment":6082,"Ġcinemal":6083,"Ġkhilaaf":6084,"pani":6085,"vati":6086,"Ġpir":6087,"Ġyana":6088,"Ġshut":6089,"ĠSund":6090,"ĠIs":6091,"ints":6092,"Ġmulaa":6093,"31":6094,"vant":6095,"itv":6096,"andhar":6097,"Ġflo":6098,"rian":6099,"Ġpaha":6100,"Ġlaageko":6101,"lekin":6102,"Ġbikri":6103,"Ġcontrol":6104,"met":6105,"Ġphil":6106,"heli":6107,"Ġfast":6108,"Ġheart":6109,"Ġsthiti":6110,"Ġsabandhi":6111,"Ġpitaa":6112,"Ġjayaare":6113,"Ġgira":6114,"ulam":6115,"Ġjanvari":6116,"Ġreally":6117,"Ġdost":6118,"Ġaavashe":6119,"Ġbakhrer":6120,"Ġkramma":6121,"yala":6122,"Ġtet":6123,"Ġmek":6124,"Ġmoney":6125,"Ġgerman":6126,"utunnar":6127,"Ġmahaan":6128,"Ġteva":6129,"Ġkhushi":6130,"Ġfollowing":6131,"Ġshekhar":6132,"Ġvirodhi":6133,"Ġkont":6134,"Ġpatrkaar":6135,"Ġmaharaj":6136,"Ara":6137,"oos":6138,"sank":6139,"self":6140,"Ġpann":6141,"Ġmata":6142,"Ġkarav":6143,"Ġkahan":6144,"Ġaapaki":6145,"Ġnatakk":6146,"ĠPM":6147,"Ġrakt":6148,"Ġummed":6149,"Ġabhinay":6150,"pite":6151,"Ġveru":6152,"Ġvistar":6153,"Ġhira":6154,"vare":6155,"Ġdarek":6156,"Ġpraytn":6157,"Ġfather":6158,"ef":6159,"Ġelaka":6160,"Ġpresident":6161,"nag":6162,"chcha":6163,"Ġdina":6164,"adem":6165,"ekhane":6166,"Ġsau":6167,"Ġsever":6168,"Ġshort":6169,"Ġsabhy":6170,"Ġmeet":6171,"hrule":6172,"Ġvadd":6173,"Ġramro":6174,"Ġsandesh":6175,"Ġpahili":6176,"Ġengine":6177,"Ġsamarthan":6178,"Ġsaanuun":6179,"gaj":6180,"ook":6181,"ambar":6182,"Ġboth":6183,"Ġchini":6184,"Ġannar":6185,"Ġsainik":6186,"Ġ48":6187,"itted":6188,"Ġacch":6189,"Ġgurut":6190,"Ġmudda":6191,"Ġipp":6192,"ales":6193,"ert":6194,"Ġgati":6195,"irheko":6196,"Ġrahas":6197,"Ġmaham":6198,"ices":6199,"chaan":6200,"roy":6201,"Ġrece":6202,"Ġubha":6203,"Ġsharataan":6204,"Ġdisc":6205,"Ġnarayan":6206,"Ġvend":6207,"ilar":6208,"Ġranj":6209,"Ġmera":6210,"qat":6211,"inhan":6212,"Ġbib":6213,"ikàµ¾":6214,"Ġadm":6215,"allum":6216,"Ġmukh":6217,"Ġnepalko":6218,"cu":6219,"cop":6220,"Ġdeg":6221,"Ġvaq":6222,"Ġkaarob":6223,"Ġkhush":6224,"Ġmaanush":6225,"Ġnikaal":6226,"hre":6227,"Ġawa":6228,"Ġaurat":6229,"akhal":6230,"elhi":6231,"Ġsaw":6232,"Ġharek":6233,"Ġboy":6234,"Ġtuhaanoon":6235,"right":6236,"uva":6237,"Ġwind":6238,"idin":6239,"Ġprart":6240,"Ġdeve":6241,"Ġsham":6242,"Ġavish":6243,"Ġutha":6244,"Ġmahine":6245,"Ġparein":6246,"Ġprabhavit":6247,"kathmadon":6248,"thir":6249,"à¤":6250,"ering":6251,"Ġcra":6252,"Ġyachche":6253,"ĠDiction":6254,"Ġpune":6255,"Ġmaamla":6256,"Ġhaving":6257,"tab":6258,"Ġmushk":6259,"akil":6260,"Ġwalk":6261,"ĠOne":6262,"Ġcomputer":6263,"tav":6264,"Ġhaat":6265,"ĠCity":6266,"Ġmilan":6267,"Ġ2007":6268,"bhak":6269,"Ġchara":6270,"utayu":6271,"othi":6272,"Ġmool":6273,"Ġlocal":6274,"Ġmahanagar":6275,"cum":6276,"ror":6277,"avill":6278,"Ġkeep":6279,"Ġchass":6280,"Ġorder":6281,"Ġapeksha":6282,"iyal":6283,"itiya":6284,"Ġraahat":6285,"haas":6286,"Ġkada":6287,"Ġaayaa":6288,"hyama":6289,"iyu":6290,"Ġlekhan":6291,"Ġfood":6292,"Ġcaralay":6293,"Ġgaddi":6294,"Ġabdul":6295,"sak":6296,"Ġcre":6297,"Ġthev":6298,"Ġhundai":6299,"hami":6300,"Ġvichon":6301,"Ġdoes":6302,"Ġakshar":6303,"Ġtelipar":6304,"Ġbaba":6305,"ccha":6306,"Ġpia":6307,"Ġrest":6308,"Ġmaho":6309,"Ġsahabhaagi":6310,"Ġeti":6311,"Ġadhin":6312,"Ġshamal":6313,"Ġ300":6314,"Ġnatann":6315,"Ġroo":6316,"Ġmutal":6317,"Ġpratinid":6318,"Ġnel":6319,"yaad":6320,"engi":6321,"Ġjav":6322,"Ġgrand":6323,"edd":6324,"Ġdaal":6325,"Ġvaas":6326,"Ġtrump":6327,"udio":6328,"jatik":6329,"Ġsala":6330,"ator":6331,"Ġmaaj":6332,"Ġjyaan":6333,"Ġghya":6334,"Ġprom":6335,"stra":6336,"shahi":6337,"uddin":6338,"ĠBritish":6339,"ories":6340,"Ġprayatn":6341,"38":6342,"eche":6343,"sari":6344,"Ġwin":6345,"icch":6346,"Ġmatrai":6347,"Ġkhaali":6348,"Ġhunu":6349,"Ġaavyu":6350,"Ġabhiyaan":6351,"Ġtelug":6352,"usiness":6353,"Ġalochana":6354,"55":6355,"Ġdaan":6356,"Ġanusthan":6357,"Ġsangat":6358,"Ġvitaran":6359,"Ġproble":6360,"earch":6361,"yang":6362,"Ġnip":6363,"Ġoi":6364,"Ġoun":6365,"Ġpadam":6366,"Ġhamen":6367,"uthor":6368,"ecut":6369,"haspatibar":6370,"ack":6371,"yatt":6372,"Ġcam":6373,"enter":6374,"Ġupst":6375,"rown":6376,"Ġjob":6377,"Ġmitra":6378,"Ġett":6379,"Ġhol":6380,"sthal":6381,"Ġgaru":6382,"Ġsanskar":6383,"vyak":6384,"Ġhawai":6385,"etutt":6386,"ittle":6387,"Ġplas":6388,"Ġyenar":6389,"AN":6390,"hop":6391,"apachhi":6392,"Ġparch":6393,"Ġine":6394,"anii":6395,"Ġira":6396,"Ġvishv":6397,"Ġdaraj":6398,"Ġanusandhan":6399,"Ġ150":6400,"Ġcanada":6401,"utondi":6402,"Ġchikits":6403,"kya":6404,"atis":6405,"ullo":6406,"Ġagadi":6407,"bandhi":6408,"Ġpunha":6409,"Ġprayojan":6410,"Ġcheppar":6411,"Ġlaabh":6412,"Ġviews":6413,"ninnu":6414,"Ġgup":6415,"poàµ¾":6416,"Ġvyaktigat":6417,"Ġkarvaani":6418,"Ġgheun":6419,"Ġchandrababu":6420,"atai":6421,"Ġmahiti":6422,"Ġander":6423,"imp":6424,"Ġhir":6425,"Ġaavya":6426,"Ġrou":6427,"haanle":6428,"Ġdosro":6429,"Ġvyakhyao":6430,"khya":6431,"Ġala":6432,"Ġglo":6433,"Ġkarmak":6434,"Ġfans":6435,"shya":6436,"Ġ1000":6437,"Ġ2000":6438,"urav":6439,"pping":6440,"Ġfeel":6441,"whili":6442,"ines":6443,"Ġtave":6444,"Ġanai":6445,"avali":6446,"elar":6447,"Ġkiunki":6448,"Ġadan":6449,"Ġavas":6450,"Ġnaav":6451,"Ġjivit":6452,"Ġputra":6453,"apurna":6454,"Ġfriends":6455,"Ġsahmne":6456,"phir":6457,"tl":6458,"atun":6459,"ivit":6460,"Ġsansar":6461,"Ġpadh":6462,"Ġzaro":6463,"Ġdress":6464,"Ġhalf":6465,"Ġcompani":6466,"Ġtutang":6467,"Ġnetritv":6468,"ashak":6469,"hindi":6470,"Ġuntil":6471,"Ġvaad":6472,"lier":6473,"Ġputiya":6474,"Ġnajik":6475,"Ġkshati":6476,"ĠFilmibe":6477,"yute":6478,"Ġaand":6479,"amul":6480,"Ġnaku":6481,"iran":6482,"Ġsain":6483,"anera":6484,"shad":6485,"Ġkaaphi":6486,"Ġpakist":6487,"Ġshromani":6488,"Ġkheti":6489,"nil":6490,"anik":6491,"ames":6492,"Ġkarshe":6493,"Ġeurope":6494,"Ġkoek":6495,"Ġevent":6496,"Ġirukkintu":6497,"Ġkilled":6498,"ium":6499,"Ġkiven":6500,"Ġdeta":6501,"Ġsamjha":6502,"Ġkeu":6503,"eshta":6504,"Ġsuffer":6505,"Ġwhite":6506,"ĠIndi":6507,"Ġsambhava":6508,"allahu":6509,"vathi":6510,"Ġkase":6511,"Ġbod":6512,"Ġwife":6513,"Ġopr":6514,"Ġparaj":6515,"Ġeva":6516,"bahadur":6517,"Ġimport":6518,"Ġbanaun":6519,"Ġtaaja":6520,"34":6521,"amum":6522,"Ġchann":6523,"Ġdiffer":6524,"Ġbaaki":6525,"endu":6526,"rity":6527,"Ġalai":6528,"ansa":6529,"ĠIm":6530,"Ġshakha":6531,"Ġkitaab":6532,"Ġjithe":6533,"Ġkardias":6534,"Ġaust":6535,"Ġaiti":6536,"edt":6537,"Ġsamadhan":6538,"Ġunka":6539,"ĠCar":6540,"formation":6541,"Ġarasiel":6542,"Ġaut":6543,"Ġanub":6544,"Ġmano":6545,"Ġbaal":6546,"Ġnatak":6547,"Ġpoo":6548,"ning":6549,"taj":6550,"Ġpell":6551,"Ġaank":6552,"amee":6553,"itor":6554,"onnu":6555,"mahar":6556,"Ġdharna":6557,"Ġadhikrut":6558,"Ġilava":6559,"pakshe":6560,"rukk":6561,"sag":6562,"Ġpamp":6563,"Ġsammaan":6564,"Ġkaayam":6565,"Ġupad":6566,"Ġjawa":6567,"Ġmove":6568,"Ġsaral":6569,"hrile":6570,"hayi":6571,"Ġghare":6572,"Ġtulana":6573,"uck":6574,"Ġtani":6575,"hip":6576,"Ġfid":6577,"icense":6578,"vaas":6579,"Ġlove":6580,"Ġedut":6581,"ually":6582,"Ġsati":6583,"Ġpod":6584,"Ġdevi":6585,"Ġadbhut":6586,"iber":6587,"Ġsabche":6588,"Ġmuluk":6589,"hyaksh":6590,"Ġdoctors":6591,"anchester":6592,"Ġbomb":6593,"jise":6594,"ough":6595,"Ġmene":6596,"Ġbayan":6597,"Ġgiven":6598,"Ġanut":6599,"Ġpolit":6600,"ards":6601,"Ġshows":6602,"Ġkuf":6603,"Ġkyonki":6604,"Ġparties":6605,"32":6606,"Ġchrist":6607,"Ġhaf":6608,"Ġkarai":6609,"avo":6610,"Ġparas":6611,"ichit":6612,"Ġirind":6613,"Ġhamro":6614,"Ġlaine":6615,"Ġtamiln":6616,"Ġprakashith":6617,"Ġvistaar":6618,"Ġwrote":6619,"AT":6620,"dil":6621,"Ġposs":6622,"Ġnatt":6623,"Ġist":6624,"Ġvaik":6625,"Ġjhalelya":6626,"Ġchassindi":6627,"Ġkish":6628,"Ġpis":6629,"Ġmaovadi":6630,"Ġheard":6631,"Ġmanj":6632,"inchan":6633,"janak":6634,"Ġganesh":6635,"Ġmidhu":6636,"Ġweeks":6637,"Ġdakhal":6638,"Ġsanghathan":6639,"bag":6640,"fas":6641,"sit":6642,"heel":6643,"new":6644,"osi":6645,"Ġbhot":6646,"Ġswatantr":6647,"Ġvendi":6648,"udhiana":6649,"bhit":6650,"sen":6651,"aghat":6652,"ries":6653,"Ġsthir":6654,"There":6655,"Ġcost":6656,"Ġantargat":6657,"Ġpuraskaar":6658,"Ġkashmir":6659,"Ġjung":6660,"Ġhaar":6661,"Ġod":6662,"aaran":6663,"Ġ2019":6664,"Ġalltu":6665,"Ġnischit":6666,"veshan":6667,"Ġbart":6668,"Ġjapan":6669,"ikshan":6670,"Ġfis":6671,"Ġrag":6672,"Ġdiz":6673,"Ġunit":6674,"Ġpatiala":6675,"Ġvigyan":6676,"Ġshiksharthi":6677,"Ġdena":6678,"Ġott":6679,"Ġdeal":6680,"attine":6681,"Ġupasthit":6682,"Ġnatatti":6683,"bhartiya":6684,"Ġsmartphone":6685,"Ġsaamaanya":6686,"sana":6687,"Ġkiti":6688,"Ġaaga":6689,"shaat":6690,"Ġabhiman":6691,"ĠOn":6692,"Ġmanusher":6693,"Ġmundu":6694,"Ġsaabaka":6695,"ben":6696,"Ġniche":6697,"Ġgud":6698,"tive":6699,"Ġprodu":6700,"Ġyuddh":6701,"Ġandar":6702,"Ġekai":6703,"Ġable":6704,"Ġage":6705,"Ġprakalp":6706,"Ġsamajik":6707,"Ġkotati":6708,"Ġskul":6709,"Ġsomet":6710,"ĠLeague":6711,"ĠJohn":6712,"kale":6713,"Ġdang":6714,"Ġlikh":6715,"Ġhoto":6716,"Ġpadhe":6717,"ĠCup":6718,"Ġdhara":6719,"Ġtain":6720,"Ġsaaf":6721,"Ġbachya":6722,"yanka":6723,"cort":6724,"kak":6725,"oàµ¾":6726,"Ġtank":6727,"itute":6728,"Ġcer":6729,"Ġrug":6730,"illat":6731,"Ġpravart":6732,"nama":6733,"Ġsif":6734,"Ġvakh":6735,"Ġchhie":6736,"ands":6737,"Ġnaujavaan":6738,"odan":6739,"Ġiyak":6740,"ritti":6741,"ĠFe":6742,"Ġaagrah":6743,"Ġjayega":6744,"yacha":6745,"ersh":6746,"Ġgant":6747,"Ġreli":6748,"uder":6749,"Ġtalk":6750,"Ġbhojan":6751,"ĠDecember":6752,"One":6753,"khand":6754,"pich":6755,"Ġasam":6756,"hulu":6757,"Ġbox":6758,"anuary":6759,"Ġhaowar":6760,"Ġkilometre":6761,"Ġziada":6762,"loni":6763,"tir":6764,"Ġparinaam":6765,"atiàµ½":6766,"Ġseyal":6767,"Ġkamishan":6768,"paris":6769,"ĠWest":6770,"Ġbhraman":6771,"Ġsrushti":6772,"kun":6773,"mane":6774,"taar":6775,"hete":6776,"adai":6777,"itre":6778,"Ġchange":6779,"hats":6780,"Ġgarine":6781,"Ġmann":6782,"saathi":6783,"Ġlikhe":6784,"Ġkarmchaaree":6785,"mod":6786,"mangal":6787,"Ġmiti":6788,"ered":6789,"Ġluk":6790,"Ġagu":6791,"ĠBe":6792,"Ġmix":6793,"pic":6794,"Ġmast":6795,"Ġbott":6796,"Ġmaang":6797,"round":6798,"ranti":6799,"Ġfront":6800,"Ġacross":6801,"Ġtyaalaa":6802,"Ġsafar":6803,"iriunnu":6804,"Ġelaan":6805,"Ġnagarik":6806,"Ġgathan":6807,"Ġprayukti":6808,"Ġvishayma":6809,"police":6810,"Ġmazya":6811,"85":6812,"jali":6813,"ppat":6814,"cht":6815,"Ġaeka":6816,"Ġlight":6817,"utet":6818,"avana":6819,"Ġwai":6820,"ukol":6821,"eshn":6822,"Ġmanor":6823,"Ġdeebs":6824,"bang":6825,"gyan":6826,"ĠX":6827,"Ġkus":6828,"Ġhall":6829,"api":6830,"thing":6831,"Ġnaahit":6832,"Ġwichon":6833,"ĠGujarati":6834,"ongress":6835,"Ġproper":6836,"Ġnyaayalay":6837,"49":6838,"mant":6839,"ving":6840,"Ġdav":6841,"Ġkosh":6842,"Ġmotta":6843,"Ġvijaya":6844,"avaano":6845,"Ġbacchon":6846,"yod":6847,"ilan":6848,"Ġinde":6849,"aanche":6850,"Ġshabad":6851,"ĠSy":6852,"Ġmurder":6853,"Ġacchhee":6854,"Ġpip":6855,"alm":6856,"alani":6857,"Ġnich":6858,"houn":6859,"olam":6860,"Ġade":6861,"Ġjiven":6862,"Ġjarigin":6863,"Ġkasri":6864,"Ġspard":6865,"Ġpm":6866,"Ġduti":6867,"hist":6868,"avaran":6869,"Ġparven":6870,"Ġprabhaav":6871,"reed":6872,"imes":6873,"Ġvais":6874,"Ġcourse":6875,"inner":6876,"Ġnetwork":6877,"Ġsaying":6878,"Ġpratikriya":6879,"ae":6880,"alum":6881,"Ġtre":6882,"Ġbaga":6883,"Ġnap":6884,"Ġnite":6885,"adin":6886,"ility":6887,"Ġparako":6888,"iyar":6889,"ĠMiss":6890,"Ġalam":6891,"ests":6892,"ĠBar":6893,"Ġsatta":6894,"agaum":6895,"Ġscreen":6896,"Ġerpat":6897,"Ġrakhte":6898,"Ġdoshi":6899,"bor":6900,"ptar":6901,"Ġkira":6902,"Ġsanvadik":6903,"Ġthirum":6904,"present":6905,"atic":6906,"atari":6907,"inju":6908,"chhi":6909,"Ġsaint":6910,"undo":6911,"Ġchaal":6912,"Ġvalyan":6913,"Ġshodh":6914,"ikalil":6915,"Ġhovegi":6916,"ukaa":6917,"Ġsanchalan":6918,"vana":6919,"ares":6920,"Ġprod":6921,"Ġeach":6922,"Ġandr":6923,"Ġvidhansabha":6924,"Ġusing":6925,"Ġvalang":6926,"Ġboli":6927,"Ġshant":6928,"Ġdasamber":6929,"Ġaccording":6930,"Ġgames":6931,"Ġvimars":6932,"Ġfootbal":6933,"Ġprasiddh":6934,"ĠDictionaries":6935,"sm":6936,"Ġaasar":6937,"Ġlene":6938,"ayana":6939,"irheka":6940,"2016":6941,"Ġsirf":6942,"Ġkaksha":6943,"Ġmanager":6944,"When":6945,"vyav":6946,"Ġpine":6947,"Ġmub":6948,"Ġvaag":6949,"ekha":6950,"aver":6951,"umenn":6952,"aaje":6953,"Ġ195":6954,"Ġgaeko":6955,"Ġsurya":6956,"rashtriya":6957,"Ġitihash":6958,"sun":6959,"unte":6960,"adam":6961,"Ġjug":6962,"hyalo":6963,"Ġsafe":6964,"Ġblue":6965,"Ġannikal":6966,"Ġsansthan":6967,"Ġsaler":6968,"Ġuchit":6969,"Ġspecial":6970,"ĠChrist":6971,"aani":6972,"Ġvina":6973,"uvatu":6974,"Ġrehinda":6975,"Ġsakrant":6976,"ikkum":6977,"Ġfasebuk":6978,"darshan":6979,"fter":6980,"xi":6981,"Ġbuk":6982,"Ġlar":6983,"Ġstree":6984,"Ġ39":6985,"Ġalp":6986,"Ġallah":6987,"Ġtuhaade":6988,"Ġmaanav":6989,"Ġvidyut":6990,"Ġnuksaan":6991,"Ġitihas":6992,"ket":6993,"yati":6994,"anchya":6995,"Ġbuddha":6996,"Ġpravid":6997,"ivr":6998,"Ġhist":6999,"eeche":7000,"Ġung":7001,"Ġamhi":7002,"Ġallow":7003,"Ġchese":7004,"Ġyogadan":7005,"Ġchinta":7006,"Ġseries":7007,"friend":7008,"cher":7009,"Ġvada":7010,"hikari":7011,"Ġdaughter":7012,"yaman":7013,"Ġmega":7014,"Ġresearch":7015,"Ġjamin":7016,"Ġmahina":7017,"Ġuparant":7018,"Ġalleged":7019,"Ġdevelop":7020,"pane":7021,"pada":7022,"Ġjashe":7023,"Ġanter":7024,"avars":7025,"Ġjanako":7026,"ĠChan":7027,"ĠCol":7028,"ension":7029,"Ġurja":7030,"Ġchhalfal":7031,"Ġjameen":7032,"You":7033,"Ġpow":7034,"Ġdush":7035,"Ġnind":7036,"yach":7037,"Ġjok":7038,"Ġcab":7039,"utam":7040,"Ġatm":7041,"patta":7042,"Ġtamam":7043,"Ġpradhanmantr":7044,"Ġkshetre":7045,"Ġamarindra":7046,"Ġphotograp":7047,"git":7048,"path":7049,"woru":7050,"Ġkhet":7051,"Ġphal":7052,"alaai":7053,"eksh":7054,"upa":7055,"Ġaahat":7056,"Ġsann":7057,"icks":7058,"Ġraheshe":7059,"Ġarea":7060,"Ġvyavast":7061,"Ġkorea":7062,"rati":7063,"tun":7064,"Ġnaven":7065,"Ġdenyaat":7066,"ĠComm":7067,"Ġtraining":7068,"Ġbreak":7069,"Ġquestion":7070,"Ġaje":7071,"ising":7072,"Ġtarikh":7073,"Ġafrica":7074,"Ġgoot":7075,"Ġlaw":7076,"Ġsapta":7077,"ĠYork":7078,"Ġrahyu":7079,"Ġvyah":7080,"Ġchall":7081,"Ġclik":7082,"Ġjivita":7083,"Ġpratishthan":7084,"Ġyakhan":7085,"ĠSeptember":7086,"havi":7087,"Ġghal":7088,"ream":7089,"Ġgaram":7090,"Ġchitram":7091,"ĠJanuary":7092,"Ġumed":7093,"Ġroji":7094,"Ġnakki":7095,"Ġbrah":7096,"Ġwithout":7097,"Ġporn":7098,"Ġava":7099,"Ġrole":7100,"ella":7101,"Ġkaun":7102,"palik":7103,"vachan":7104,"Ġliger":7105,"Ġprativedan":7106,"Ġlyo":7107,"upi":7108,"varg":7109,"Ġcomment":7110,"Ġvisit":7111,"Ġzind":7112,"Ġsankat":7113,"Ġ2006":7114,"Ġnicks":7115,"mud":7116,"Ġpull":7117,"itri":7118,"Ġjhar":7119,"Ġcust":7120,"Ġkaram":7121,"Ġinch":7122,"Ġtelangan":7123,"Ġasked":7124,"ĠSunday":7125,"Ġtatt":7126,"Ġbara":7127,"Ġbritish":7128,"eno":7129,"Ġrul":7130,"Ġhold":7131,"Ġamake":7132,"Ġshahr":7133,"Ġuskaa":7134,"Ġkathin":7135,"Ġaavedan":7136,"Ġtahale":7137,"Ġpakshe":7138,"Ġhosen":7139,"Ġvidhyaarthee":7140,"Ġdind":7141,"Ġdhir":7142,"Ġdinda":7143,"ukunnar":7144,"ended":7145,"iji":7146,"Ġdrug":7147,"Ġsuresh":7148,"Ġvictim":7149,"Ġamerican":7150,"Ġdetaa":7151,"Ġbichaar":7152,"ayute":7153,"Ġasar":7154,"igi":7155,"Ġapad":7156,"uvai":7157,"Ġtonn":7158,"Ġrakhia":7159,"Ġsports":7160,"Ġmanushya":7161,"Ġvishwavidy":7162,"Ġvakhte":7163,"mut":7164,"yes":7165,"chama":7166,"Ġpathar":7167,"ĠSte":7168,"ritt":7169,"Ġalong":7170,"Ġudan":7171,"mohan":7172,"Ġsudhar":7173,"Ġkarenge":7174,"Ġnirvachane":7175,"ullah":7176,"Ġrevealed":7177,"million":7178,"heer":7179,"Ġprayaas":7180,"Ġsamaya":7181,"Ġej":7182,"Ġbhaal":7183,"Ġrajin":7184,"shire":7185,"Ġcharge":7186,"Ġdilaa":7187,"Ġgramin":7188,"Ġvaarta":7189,"Ġbhaajapa":7190,"akshe":7191,"tima":7192,"ago":7193,"ĠDavid":7194,"atum":7195,"Ġrahan":7196,"Ġep":7197,"ugg":7198,"Ġdrusht":7199,"Ġeta":7200,"Ġchaahate":7201,"Ġsambodhan":7202,"vart":7203,"arani":7204,"Ġbhut":7205,"Ġbike":7206,"heey":7207,"Ġjang":7208,"ikat":7209,"etan":7210,"apol":7211,"ivan":7212,"Ġbhaer":7213,"Ġhamla":7214,"ĠEurope":7215,"Ġyuvati":7216,"Ġasalye":7217,"Ġmutabak":7218,"Ġclear":7219,"Ġpahelam":7220,"Ġkind":7221,"amit":7222,"Ġdhad":7223,"asma":7224,"aign":7225,"Ġmahen":7226,"Ġpain":7227,"uvak":7228,"yanya":7229,"ĠTV":7230,"Ġ42":7231,"Ġfew":7232,"Ġhunech":7233,"orning":7234,"Ġvastu":7235,"Ġinvol":7236,"plo":7237,"Ġsuj":7238,"Ġbhra":7239,"unnav":7240,"Ġadai":7241,"Ġvalare":7242,"Ġhamale":7243,"Ġbataaeka":7244,"Ġbienpi":7245,"of":7246,"Ġaab":7247,"Ġjot":7248,"Ġsem":7249,"Ġsearch":7250,"Ġadami":7251,"Ġbeg":7252,"Ġnirantar":7253,"Ġthaya":7254,"Ġlokap":7255,"Ġvyavasthaapan":7256,"Ġimportant":7257,"Ġnann":7258,"Ġhair":7259,"urang":7260,"idu":7261,"Ġpraia":7262,"Ġdevan":7263,"ready":7264,"Ġsuyog":7265,"appatt":7266,"Ġpiar":7267,"Ġplayers":7268,"Ġshramik":7269,"Ġbhumika":7270,"Ġhardik":7271,"dhil":7272,"ince":7273,"rast":7274,"esamm":7275,"irk":7276,"arku":7277,"bhaeko":7278,"Ġvarnan":7279,"Ġshakyata":7280,"Ġ017":7281,"Ġthakave":7282,"Ġayin":7283,"Ġchestunnar":7284,"Ġtelisinde":7285,"aturday":7286,"pay":7287,"pann":7288,"ately":7289,"inue":7290,"Ġtule":7291,"chare":7292,"andal":7293,"Ġraha":7294,"cham":7295,"Ġkhaane":7296,"Ġ43":7297,"Ġkhoop":7298,"Ġmaking":7299,"Ġgreattar":7300,"Ġricard":7301,"gon":7302,"araj":7303,"Ġspa":7304,"Ġtuj":7305,"Ġlittle":7306,"Ġcreat":7307,"abat":7308,"Ġpara":7309,"Ġkehete":7310,"die":7311,"Ġaras":7312,"bhaj":7313,"kool":7314,"Ġbanoune":7315,"Ġpech":7316,"Ġvivaran":7317,"Ġkututal":7318,"Ġvicha":7319,"At":7320,"col":7321,"Ġlib":7322,"Ġhyaa":7323,"Ġpaud":7324,"Ġamal":7325,"Ġbecome":7326,"ĠManchester":7327,"Ġsakne":7328,"kalil":7329,"fied":7330,"Ġlatest":7331,"ren":7332,"Ġsita":7333,"Ġaisi":7334,"usti":7335,"Ġoune":7336,"Ġaaw":7337,"Ġene":7338,"Ġbazar":7339,"Ġvaru":7340,"patal":7341,"Ġjoi":7342,"Ġoruvar":7343,"Ġmajor":7344,"Ġsecurity":7345,"For":7346,"sin":7347,"Ġpros":7348,"vijay":7349,"Ġsheersh":7350,"Ġsuchi":7351,"Ġtaluk":7352,"Ġdaler":7353,"Ġpiem":7354,"Ġsangitale":7355,"lay":7356,"anek":7357,"Ġsars":7358,"Ġaasa":7359,"Ġnational":7360,"Ġkaryam":7361,"ukon":7362,"ĠJuly":7363,"ĠOctober":7364,"Ġdriver":7365,"valani":7366,"Ġpulisher":7367,"witter":7368,"Ġshubhak":7369,"ĠFilmibeat":7370,"Ġbeng":7371,"utai":7372,"Ġjanma":7373,"Ġpehali":7374,"Ġdrushti":7375,"Ġichha":7376,"ishakh":7377,"Ġdhanyavad":7378,"Ġhiroin":7379,"Ġabhinetri":7380,"How":7381,"atri":7382,"Ġdv":7383,"agad":7384,"Ġyi":7385,"unni":7386,"Ġvayas":7387,"Ġshahi":7388,"Ġthaka":7389,"Ġsudkhya":7390,"Ġupjelar":7391,"Ġclaims":7392,"baj":7393,"eV":7394,"obar":7395,"sans":7396,"akshar":7397,"Ġjamm":7398,"Ġfile":7399,"Ġhriday":7400,"ippat":7401,"Ġamir":7402,"Ġvidhyalay":7403,"Ġvishal":7404,"soci":7405,"Ġtumi":7406,"Ġbachche":7407,"Ġaagal":7408,"aach":7409,"Ġanur":7410,"Ġradio":7411,"hatar":7412,"Ġbhaepachhi":7413,"Ġasato":7414,"Ġkah":7415,"ĠAugust":7416,"Ġ44":7417,"Ġvalik":7418,"Ġimm":7419,"Ġnepalama":7420,"Ġrekhe":7421,"Ġistemaal":7422,"lit":7423,"nya":7424,"thik":7425,"avani":7426,"Ġold":7427,"unnill":7428,"Ġcheya":7429,"Ġpaat":7430,"Ġtakhan":7431,"Ġswaagat":7432,"Ġrakha":7433,"Ġbaby":7434,"Ġrekha":7435,"Ġhusband":7436,"kumar":7437,"oundai":7438,"Ġmishan":7439,"amma":7440,"Ġjig":7441,"iler":7442,"Ġhaalat":7443,"Ġmahe":7444,"Ġmadh":7445,"ayad":7446,"Ġpakrau":7447,"Ġoutside":7448,"Ġtips":7449,"Ġbalaat":7450,"ging":7451,"mus":7452,"Ġkarj":7453,"icht":7454,"Ġbehind":7455,"hamaa":7456,"àµ¼nn":7457,"prashn":7458,"Ġ880":7459,"avaru":7460,"anglil":7461,"inchada":7462,"OM":7463,"jid":7464,"jatiya":7465,"Ġnari":7466,"unal":7467,"Ġkarale":7468,"ided":7469,"ateg":7470,"Ġtera":7471,"illo":7472,"Ġpadhar":7473,"ĠMo":7474,"ĠInter":7475,"Ġshishu":7476,"Ġglass":7477,"nap":7478,"Ġteri":7479,"aso":7480,"Ġjant":7481,"Ġlend":7482,"oran":7483,"Ġanug":7484,"Ġtaking":7485,"Ġuyar":7486,"Ġpanchayat":7487,"Ġinternational":7488,"Ġpraramb":7489,"Ġkaarobaar":7490,"bon":7491,"dat":7492,"Ġraham":7493,"Ġsamaad":7494,"Ġsambhaav":7495,"koi":7496,"ĠSaturday":7497,"Ġalready":7498,"Ġtaruvat":7499,"Ġmilit":7500,"Ġaarog":7501,"Ġkabar":7502,"Ġjarigindi":7503,"84":7504,"AR":7505,"bai":7506,"Ġmust":7507,"Ġnine":7508,"Ġrahen":7509,"Ġasataat":7510,"Ġpada":7511,"ubani":7512,"yanchya":7513,"ĠTamil":7514,"Ġramesh":7515,"Ġkarmakarta":7516,"attiàµ½":7517,"iskeko":7518,"Ġstarted":7519,"Ġparchi":7520,"Ġprahrile":7521,"Ġprekshak":7522,"Ġdemand":7523,"Ġupaay":7524,"hillo":7525,"ĠMond":7526,"aidh":7527,"hashik":7528,"humi":7529,"Ġmantavya":7530,"Ġjagah":7531,"Am":7532,"ping":7533,"Ġmalli":7534,"Ġdist":7535,"Ġdead":7536,"Ġevar":7537,"Ġnem":7538,"Ġyash":7539,"bhas":7540,"Ġvarta":7541,"Ġtaaliàµ½":7542,"yalyer":7543,"Ġprakaash":7544,"Ġcouple":7545,"arer":7546,"Ġbam":7547,"Ġfut":7548,"Ġchap":7549,"Ġaae":7550,"opa":7551,"Ġvahat":7552,"Ġusee":7553,"Ġjodi":7554,"Ġsoft":7555,"Ġshreni":7556,"Ġfarvari":7557,"Ġkarnataka":7558,"tempt":7559,"65":7560,"bak":7561,"ned":7562,"Ġest":7563,"Ġnidhi":7564,"adha":7565,"org":7566,"Ġstop":7567,"Ġmanis":7568,"uval":7569,"ĠPre":7570,"iyadhu":7571,"pected":7572,"Ġfaree":7573,"Ġbaaba":7574,"Ġground":7575,"Ġpashchim":7576,"Ġduusare":7577,"ttu":7578,"Ġsathi":7579,"Ġaustralia":7580,"Ġbura":7581,"Ġbuddhi":7582,"Ġvent":7583,"Ġgath":7584,"umati":7585,"Ġnaana":7586,"dip":7587,"Ġenni":7588,"Ġshaher":7589,"cept":7590,"Ġtrust":7591,"Ġraakhi":7592,"Ġkamishnar":7593,"lav":7594,"Ġtath":7595,"Ġtante":7596,"Ġfan":7597,"Ġnaukari":7598,"anaya":7599,"Ġbhale":7600,"Ġdaakhal":7601,"Ġungal":7602,"iba":7603,"Ġtarget":7604,"Ġvirod":7605,"Ġgharelu":7606,"Ġmota":7607,"Ġjilha":7608,"inai":7609,"istu":7610,"Ġsarkaarko":7611,"Ġposter":7612,"mobile":7613,"Ġsinim":7614,"Ġarrested":7615,"Ġbhrasht":7616,"qtil":7617,"Ġtaya":7618,"Ġbusiness":7619,"adhye":7620,"ukalu":7621,"appa":7622,"idhar":7623,"Ġsampurna":7624,"aano":7625,"taur":7626,"ublic":7627,"Ġlagata":7628,"ullu":7629,"alsin":7630,"Ġchitras":7631,"199":7632,"Ġnalki":7633,"Ġghanta":7634,"esterday":7635,"Ġbelieve":7636,"Ġchattagram":7637,"nay":7638,"Ġphy":7639,"higuru":7640,"Ġless":7641,"Ġward":7642,"Ġparid":7643,"Ġprith":7644,"shah":7645,"Ġvaran":7646,"Ġvarisht":7647,"Ġvidhy":7648,"Ġsakinch":7649,"Ġvadh":7650,"vadhi":7651,"Ġofficers":7652,"Ġparyatak":7653,"Ġshooting":7654,"eil":7655,"Ġpengal":7656,"adal":7657,"Ġghana":7658,"Ġgive":7659,"ape":7660,"Ġsamvid":7661,"Ġekta":7662,"Ġaapkaa":7663,"patil":7664,"Ġcontra":7665,"Ġmalyal":7666,"Ġkhetra":7667,"Ġshubhe":7668,"Ġbhavishya":7669,"Ġtalaivar":7670,"badi":7671,"cr":7672,"fr":7673,"hla":7674,"Ġsig":7675,"atch":7676,"Ġbull":7677,"Ġgie":7678,"Ġlip":7679,"home":7680,"ukune":7681,"naitik":7682,"Ġpahon":7683,"Ġupadesh":7684,"Ġsakch":7685,"Ġkalisi":7686,"ondu":7687,"Ġrakhan":7688,"Ġdinon":7689,"Ġround":7690,"ĠHo":7691,"Ġrange":7692,"wards":7693,"davad":7694,"Ġhands":7695,"Ġakhilesh":7696,"dun":7697,"Ġthane":7698,"ulai":7699,"Ġparents":7700,"ĠSouth":7701,"ĠCoun":7702,"Ġbhannu":7703,"Ġthodi":7704,"Ġnewspaper":7705,"Ġvigya":7706,"Ġghante":7707,"Ġpichle":7708,"Ġlooking":7709,"Ġantiar":7710,"Ġkadi":7711,"Ġaene":7712,"Ġnun":7713,"ones":7714,"ekai":7715,"Ġpaise":7716,"Ġvidud":7717,"ĠApp":7718,"Ġlost":7719,"Ġviva":7720,"Ġshankar":7721,"Ġwanted":7722,"Ġaatank":7723,"Ġantarjatik":7724,"Ġyancha":7725,"Ġbaithe":7726,"Ġknown":7727,"dur":7728,"Ġmhat":7729,"elam":7730,"Ġnaàµ»":7731,"Ġasana":7732,"Ġutpad":7733,"Ġchalach":7734,"ĠHar":7735,"Ġkanan":7736,"erican":7737,"Ġchandigarh":7738,"onthe":7739,"68":7740,"mor":7741,"Ġack":7742,"asamm":7743,"uthe":7744,"Ġanpat":7745,"kaàµ»":7746,"Ġvishl":7747,"purvi":7748,"Ġdesign":7749,"Ġtanu":7750,"Ġnokki":7751,"Ġcommunity":7752,"Ġcampaign":7753,"jai":7754,"vig":7755,"ather":7756,"akaran":7757,"Ġpratir":7758,"Ġperum":7759,"Ġjhaalya":7760,"Ġmaidan":7761,"Ġcheshta":7762,"etya":7763,"Ġparanj":7764,"Ġbhaga":7765,"Ġrob":7766,"Ġmalak":7767,"Ġfarak":7768,"babat":7769,"Ġbhajpa":7770,"Ġpokhar":7771,"Ġparyaton":7772,"Ġtro":7773,"Ġdud":7774,"Ġlaai":7775,"Ġparicha":7776,"Ġkevi":7777,"Ġhoil":7778,"Ġ120":7779,"Ġandol":7780,"Ġstore":7781,"Ġbharya":7782,"amiyaan":7783,"Ġworking":7784,"Ġinvestig":7785,"Ġtaiyaar":7786,"Ġsch":7787,"Ġsril":7788,"Ġchic":7789,"Ġanch":7790,"ipad":7791,"Ġmanju":7792,"oppatt":7793,"Ġunmai":7794,"Ġtarak":7795,"Ġgosht":7796,"Ġpaahi":7797,"Ġnikai":7798,"Ġaansh":7799,"igaum":7800,"Ġsthapit":7801,"Ġsamagam":7802,"eh":7803,"waj":7804,"zed":7805,"Ġsadi":7806,"Ġnor":7807,"adhya":7808,"Ġcrit":7809,"Ġavedan":7810,"ĠTr":7811,"Ġniàµ¼":7812,"Ġgharma":7813,"Ġhaadase":7814,"Ġaurataan":7815,"If":7816,"kur":7817,"mala":7818,"yate":7819,"Ġmutt":7820,"Ġbesh":7821,"rashtra":7822,"Ġjho":7823,"ilute":7824,"Ġtex":7825,"Ġilaaj":7826,"Ġyogayog":7827,"Ġbabat":7828,"Ġmajbo":7829,"Ġbonthe":7830,"Ġcode":7831,"Ġov":7832,"Ġseat":7833,"Ġchaudh":7834,"ubat":7835,"Ġpratya":7836,"Ġscor":7837,"som":7838,"aava":7839,"aapan":7840,"ilak":7841,"ello":7842,"Ġraah":7843,"Ġparve":7844,"iyo":7845,"ĠMP":7846,"ansi":7847,"Ġrajyas":7848,"Ġennai":7849,"Ġasalyane":7850,"Ġtheriv":7851,"Ġtapain":7852,"His":7853,"mum":7854,"Ġmaster":7855,"Ġdor":7856,"itund":7857,"avy":7858,"Ġtomar":7859,"aanaa":7860,"Ġhud":7861,"Ġarko":7862,"opal":7863,"ĠAir":7864,"Ġtakk":7865,"Ġakh":7866,"Ġvadhia":7867,"Ġrahia":7868,"Ġindust":7869,"Ġlikhia":7870,"Ġmughal":7871,"Ġibpati":7872,"Ġvaasate":7873,"vyakti":7874,"bhat":7875,"vadi":7876,"Ġpita":7877,"Ġdom":7878,"Ġfight":7879,"Ġprov":7880,"Ġatirikt":7881,"Ġbaas":7882,"Ġupalak":7883,"Ġvaataa":7884,"udde":7885,"Ġsangrah":7886,"Ġsouth":7887,"Ġtrek":7888,"hyamantri":7889,"Ġjevi":7890,"Ġaarop":7891,"Ġjhaal":7892,"Ġvajah":7893,"Ġdarshakt":7894,"Ġearly":7895,"bich":7896,"qup":7897,"Ġtid":7898,"Ġbiman":7899,"enal":7900,"Ġcheyal":7901,"vahi":7902,"Ġatya":7903,"Ġupaad":7904,"ĠTwitter":7905,"Ġcover":7906,"Ġloksab":7907,"Ġkanoon":7908,"Ġabhiyan":7909,"Ġidd":7910,"Ġsidhu":7911,"hanian":7912,"Ġbhakt":7913,"Ġabhiprayam":7914,"Ġasatana":7915,"tantr":7916,"yt":7917,"Ġbayat":7918,"Ġjos":7919,"Ġanyanya":7920,"ayik":7921,"Ġruk":7922,"chada":7923,"Ġattempt":7924,"Ġabar":7925,"Ġrupayan":7926,"ĠFor":7927,"Ġshren":7928,"Ġresinde":7929,"Ġpatrika":7930,"Ġuchch":7931,"Ġtagg":7932,"Ġchhataan":7933,"covered":7934,"Ġbudhwar":7935,"Ġpreran":7936,"Ġsamayaulo":7937,"mesh":7938,"vaare":7939,"asav":7940,"isar":7941,"esti":7942,"Ġparikal":7943,"oka":7944,"Ġaramb":7945,"Ġrajasthan":7946,"Ġemale":7947,"Ġenter":7948,"Ġkaaryakar":7949,"Ġsthapan":7950,"nall":7951,"pand":7952,"ring":7953,"Ġtasech":7954,"isathi":7955,"irup":7956,"idar":7957,"aaro":7958,"Ġkewal":7959,"Ġtok":7960,"Ġcheb":7961,"alig":7962,"Ġbea":7963,"ppa":7964,"ĠPar":7965,"Ġchalu":7966,"Ġdurjet":7967,"Ġmusic":7968,"Ġvajon":7969,"Ġduje":7970,"Ġdifferent":7971,"occh":7972,"Ġkashi":7973,"Ġbee":7974,"Ġbengal":7975,"aaratmak":7976,"Ġinformation":7977,"Ġshudhu":7978,"Ġalways":7979,"Ġcomments":7980,"ullar":7981,"Ġvishyan":7982,"Ġshock":7983,"compan":7984,"Ġsaydi":7985,"Ġnivaden":7986,"ĠMonday":7987,"jaya":7988,"anil":7989,"ario":7990,"ĠThis":7991,"ĠPark":7992,"Ġrohing":7993,"Ġpakad":7994,"pool":7995,"Ġedutt":7996,"Ġvarton":7997,"bhanga":7998,"Ġ2075":7999,"Ġjindagi":8000,"Ġbistarit":8001,"ahak":8002,"tom":8003,"Ġsiri":8004,"Ġsalaa":8005,"Ġtav":8006,"Ġdark":8007,"Ġrum":8008,"Ġdarta":8009,"most":8010,"Ġsaamana":8011,"Ġkaarykramma":8012,"uesday":8013,"Ġcommunist":8014,"harulai":8015,"Ġparishram":8016,"Ġupalakshe":8017,"evar":8018,"jag":8019,"rang":8020,"avari":8021,"ayya":8022,"Ġmaat":8023,"Ġarg":8024,"arkas":8025,"Ġdainik":8026,"Ġkahani":8027,"Ġonnu":8028,"Ġamy":8029,"Ġswabhav":8030,"puri":8031,"Ġshrik":8032,"grahan":8033,"Ġparayunnu":8034,"Ġabhyaas":8035,"ĠNovember":8036,"film":8037,"pach":8038,"zz":8039,"Ġsip":8040,"Ġvaaj":8041,"Ġrachan":8042,"Ġpraarthi":8043,"Ġsamaye":8044,"unnai":8045,"Ġvidhe":8046,"Ġniruvan":8047,"Ġvisa":8048,"pakistan":8049,"Ġkots":8050,"Ġsarkarer":8051,"Ġtutr":8052,"Ġchhillen":8053,"Ġhinsa":8054,"krut":8055,"anit":8056,"Ġgall":8057,"Ġgem":8058,"Ġchh":8059,"vaat":8060,"Ġvidya":8061,"ĠMs":8062,"Ġsangrakshan":8063,"Ġbhani":8064,"Ġgoshti":8065,"Ġvijayi":8066,"Ġsrin":8067,"ĠYou":8068,"esiar":8069,"Ġdodar":8070,"Ġaavashyaktaa":8071,"Ġcholli":8072,"Ġdinaas":8073,"100":8074,"Ġtark":8075,"endi":8076,"iram":8077,"attinu":8078,"Ġvahan":8079,"Ġuthaa":8080,"Ġdarj":8081,"Ġtraffic":8082,"Ġfeet":8083,"Ġpranali":8084,"Ġnidhan":8085,"Ġsahmati":8086,"Ġprabandhak":8087,"Ġgaanv":8088,"hast":8089,"Ġahmed":8090,"amule":8091,"yaada":8092,"Ġjog":8093,"Ġlas":8094,"Ġradd":8095,"istundi":8096,"Ġvaitt":8097,"ession":8098,"Ġpuratt":8099,"Ġpery":8100,"Ġemer":8101,"Ġgarnuparne":8102,"Ġtirich":8103,"Ġgadd":8104,"Ġkhaleda":8105,"Ġdurghatana":8106,"Ġbuilding":8107,"AI":8108,"zan":8109,"Ġnic":8110,"yadu":8111,"unar":8112,"Ġvartan":8113,"Ġ47":8114,"Ġdaramiyaan":8115,"Ġramat":8116,"Ġinnum":8117,"Ġsangharsh":8118,"Ġsind":8119,"Ġaama":8120,"Ġmela":8121,"Ġnut":8122,"Ġraate":8123,"Ġprathmik":8124,"Ġarjun":8125,"Ġjanas":8126,"Ġupay":8127,"Ġvishya":8128,"Ġacadem":8129,"Ġgayak":8130,"angalore":8131,"Ġscul":8132,"Ġdhiaan":8133,"Ġnammute":8134,"Ġgovernment":8135,"Ġtechnology":8136,"Ġnaye":8137,"utik":8138,"Ġmahatt":8139,"Ġeight":8140,"odar":8141,"Ġchai":8142,"Ġekhane":8143,"Ġpaho":8144,"ashington":8145,"Ġambed":8146,"Ġdescrib":8147,"Ġaparaadh":8148,"mans":8149,"waa":8150,"Ġura":8151,"Ġkhid":8152,"Ġmunde":8153,"Ġfun":8154,"Ġashan":8155,"Ġbhart":8156,"Ġutar":8157,"Ġkalai":8158,"Ġthoda":8159,"Ġraajnneeti":8160,"Ġjuo":8161,"Ġgounpalika":8162,"64":8163,"chatt":8164,"Ġsib":8165,"Ġpaap":8166,"Ġpalli":8167,"Ġmilli":8168,"Ġmorning":8169,"itel":8170,"asham":8171,"Ġwapar":8172,"aprat":8173,"Ġparamar":8174,"Ġsamaan":8175,"osa":8176,"Ġshulk":8177,"ĠAf":8178,"yamai":8179,"Ġvyapak":8180,"Ġthian":8181,"Ġyeil":8182,"Ġvadhashik":8183,"aavaan":8184,"Ġdrink":8185,"ĠUS":8186,"melum":8187,"Ġchoudhar":8188,"Ġsiddhanth":8189,"Ġummid":8190,"nake":8191,"thal":8192,"Ġkilo":8193,"aloni":8194,"Ġtor":8195,"unche":8196,"ikai":8197,"ukir":8198,"tie":8199,"Ġekatu":8200,"Ġorat":8201,"Ġmatdaan":8202,"Ġagle":8203,"Ġdisha":8204,"Ġvivek":8205,"Ġcheiyunn":8206,"Ġtumhaala":8207,"Ġaagaamee":8208,"giri":8209,"rul":8210,"Ġpie":8211,"ality":8212,"Ġmill":8213,"Ġbeti":8214,"Ġgani":8215,"aain":8216,"elan":8217,"ivave":8218,"Ġyuktar":8219,"uja":8220,"Ġmadat":8221,"patum":8222,"anshi":8223,"Ġshakya":8224,"Ġdarbar":8225,"Ġlaash":8226,"ikalu":8227,"Ġsaalas":8228,"Ġbetter":8229,"Ġillat":8230,"Ġgarnuhos":8231,"Ġgreen":8232,"Ġkohli":8233,"gujarat":8234,"ĠčĊ":8235,"Ġkag":8236,"Ġple":8237,"alas":8238,"Ġbaaj":8239,"Ġfib":8240,"shiv":8241,"Ġstrong":8242,"Ġneram":8243,"Ġdoder":8244,"Ġhukam":8245,"Ġvalikitis":8246,"phil":8247,"Ġmantran":8248,"isaa":8249,"Ġbhaekale":8250,"hyderabad":8251,"ĠTuesday":8252,"Ġhasil":8253,"ĠGerman":8254,"Ġbija":8255,"Ġcomput":8256,"Ġkelelya":8257,"Ġroopond":8258,"aal":8259,"Ġunnat":8260,"Ġchul":8261,"ĠMarch":8262,"Ġiran":8263,"Ġsci":8264,"Ġsarvis":8265,"Ġmhanale":8266,"Ġvinod":8267,"Ġclaimed":8268,"Ġpaddhat":8269,"Ġhaoya":8270,"Ġdegree":8271,"Ġtaaliàµ½ninnu":8272,"After":8273,"live":8274,"Ġprayas":8275,"Ġchay":8276,"Ġstory":8277,"Ġshur":8278,"Ġshakato":8279,"Ġspokes":8280,"pril":8281,"Ġsarkaarne":8282,"Ġsankalan":8283,"Ġhonge":8284,"Ġsikhia":8285,"Ġmajboot":8286,"kama":8287,"less":8288,"ikul":8289,"Ġchhel":8290,"Ġwest":8291,"Ġyon":8292,"Ġteach":8293,"araat":8294,"Ġkalpana":8295,"Ġcharch":8296,"Ġpratipak":8297,"Ġposted":8298,"Ġdenya":8299,"Ġjagan":8300,"Ġmajhe":8301,"abadh":8302,"Ġvakhat":8303,"Ġpuura":8304,"Ġincident":8305,"Ġalaihi":8306,"sia":8307,"Ġvajan":8308,"itive":8309,"Ġlap":8310,"Ġrana":8311,"Ġoli":8312,"Ġinca":8313,"Ġtoget":8314,"under":8315,"Ġatutt":8316,"Ġbahir":8317,"ĠMin":8318,"Ġpurana":8319,"Ġzime":8320,"Ġallahar":8321,"Ġhajar":8322,"tsav":8323,"Ġanuyay":8324,"mukhi":8325,"Ġsabaibhanda":8326,"curich":8327,"Ġprarthana":8328,"engiàµ½":8329,"77":8330,"rel":8331,"win":8332,"Ġphay":8333,"hib":8334,"Ġjato":8335,"Ġanil":8336,"ayee":8337,"apani":8338,"Ġmahal":8339,"Ġpahi":8340,"osp":8341,"saad":8342,"aryant":8343,"Ġmalik":8344,"modi":8345,"Ġavasthaama":8346,"gency":8347,"ped":8348,"xpatt":8349,"Ġsodh":8350,"Ġmaga":8351,"itale":8352,"Ġpareka":8353,"Ġhou":8354,"Ġanduku":8355,"Ġsanj":8356,"Ġbhand":8357,"Ġmulak":8358,"Ġjeet":8359,"Ġsurg":8360,"Ġkaphi":8361,"Ġsaach":8362,"Ġballen":8363,"Ġearlier":8364,"Ġreleased":8365,"Ġsomething":8366,"rk":8367,"wak":8368,"Ġskool":8369,"Ġhundaa":8370,"Ġampi":8371,"Ġchalan":8372,"Ġvishyak":8373,"Ġharyana":8374,"Ġtrad":8375,"Ġlakhs":8376,"Ġmodati":8377,"ĠUniversity":8378,"Ġekadam":8379,"Ġcinemalo":8380,"Ġblock":8381,"Ġmanonyan":8382,"Ġmintus":8383,"Ġtogether":8384,"park":8385,"Ġkute":8386,"Ġnandi":8387,"hanya":8388,"Ġchel":8389,"Ġsamman":8390,"Ġneus":8391,"Ġdieka":8392,"Ġtema":8393,"ugul":8394,"Ġhasina":8395,"Ġmeg":8396,"Ġ49":8397,"Ġudgha":8398,"ĠDr":8399,"Ġkanti":8400,"ĠEx":8401,"Ġmagh":8402,"Ġmaamala":8403,"Ġathwa":8404,"chandra":8405,"Ġmattume":8406,"Ġvekho":8407,"Ġaawaaj":8408,"bind":8409,"came":8410,"guna":8411,"Ġpam":8412,"Ġakaal":8413,"Ġvinn":8414,"ites":8415,"Ġanim":8416,"vert":8417,"Ġsallallahu":8418,"Ġbatounubhayo":8419,"vata":8420,"adun":8421,"abot":8422,"Ġprahar":8423,"Ġstadi":8424,"Ġyaara":8425,"Ġsarir":8426,"Ġsangati":8427,"Ġconc":8428,"purv":8429,"Ġjiar":8430,"ctors":8431,"Ġthoun":8432,"Ġnilai":8433,"Ġghetla":8434,"Ġ2074":8435,"Ġpadaarth":8436,"ials":8437,"jak":8438,"kav":8439,"uy":8440,"Ġaakh":8441,"Ġmagar":8442,"eshik":8443,"Ġano":8444,"Ġbass":8445,"Ġmalshe":8446,"Ġedu":8447,"yaahi":8448,"Ġbihar":8449,"Ġsambandhinchin":8450,"Ġplastic":8451,"chir":8452,"hode":8453,"apal":8454,"uper":8455,"Ġhotan":8456,"Ġupper":8457,"Ġthaha":8458,"Ġbalki":8459,"mato":8460,"umbodhu":8461,"Ġannik":8462,"Ġbiji":8463,"Ġlagaani":8464,"fect":8465,"Ġgrih":8466,"avaia":8467,"Ġshetakari":8468,"Ġbatamya":8469,"fee":8470,"Ġnaari":8471,"itil":8472,"usha":8473,"Ġfrance":8474,"Ġstay":8475,"Ġisse":8476,"Ġondu":8477,"Ġsakadia":8478,"Ġagami":8479,"Ġbanav":8480,"saat":8481,"Ġmujab":8482,"Ġsamanya":8483,"Ġchoti":8484,"Ġofficer":8485,"Ġglobal":8486,"wami":8487,"anm":8488,"edar":8489,"Ġfig":8490,"Ġnae":8491,"alee":8492,"opat":8493,"Ġvidhn":8494,"iniog":8495,"ĠIt":8496,"Ġkaranm":8497,"enef":8498,"Ġzar":8499,"Ġdivase":8500,"Ġduh":8501,"Ġkitia":8502,"inchadu":8503,"ccess":8504,"Ġparisthit":8505,"Ġviraat":8506,"ulatho":8507,"Ġhttp":8508,"Ġanterrashtri":8509,"Ġvaataavaran":8510,"Ġdast":8511,"Ġdone":8512,"Ġjaj":8513,"Ġgayu":8514,"Ġgetting":8515,"vans":8516,"Ġmarud":8517,"Ġ46":8518,"ittund":8519,"Ġaarakshan":8520,"apaas":8521,"ridge":8522,"Ġginti":8523,"rana":8524,"arma":8525,"Ġsru":8526,"Ġgatt":8527,"esa":8528,"udo":8529,"Ġasia":8530,"Ġvahaan":8531,"yashi":8532,"Ġakraman":8533,"Ġmuhammad":8534,"minal":8535,"Ġshatab":8536,"ĠFebruary":8537,"amla":8538,"itin":8539,"isl":8540,"Ġchum":8541,"avak":8542,"Ġgard":8543,"Ġpae":8544,"Ġbharata":8545,"Ġviol":8546,"Ġaaramb":8547,"aapne":8548,"Ġaccused":8549,"Ġkodukk":8550,"Ġsandarbhanga":8551,"jadon":8552,"Ġmutabik":8553,"Ġtayaar":8554,"wam":8555,"Ġnen":8556,"Ġvab":8557,"adas":8558,"Ġrim":8559,"Ġyesterday":8560,"Ġbaani":8561,"Ġjanar":8562,"Ġunar":8563,"Ġmousam":8564,"areeki":8565,"panch":8566,"Ġvivaah":8567,"Ġerandu":8568,"Ġsaahit":8569,"dham":8570,"ky":8571,"tame":8572,"amra":8573,"Ġbans":8574,"erv":8575,"Ġcop":8576,"ukrav":8577,"intt":8578,"Ġ88":8579,"Ġsube":8580,"Ġenglish":8581,"Ġdekhne":8582,"Ġswaroop":8583,"aras":8584,"Ġkasht":8585,"Ġvap":8586,"ithe":8587,"Ġcant":8588,"aarma":8589,"iller":8590,"Ġapn":8591,"Ġshaam":8592,"uba":8593,"Ġjaao":8594,"Ġspent":8595,"Ġsurvey":8596,"Ġ1425":8597,"Ġdashak":8598,"Ġkhelma":8599,"Ġnakshat":8600,"Ġadhyaksha":8601,"Ġirundatu":8602,"hta":8603,"nako":8604,"Ġcli":8605,"anthi":8606,"Ġhug":8607,"Ġstor":8608,"yansaathi":8609,"mano":8610,"ĠAll":8611,"àµ»s":8612,"Ġmothya":8613,"Ġcaryakram":8614,"Ġbole":8615,"Ġlabhik":8616,"ctions":8617,"Ġbania":8618,"Ġincre":8619,"Ġaandolan":8620,"kach":8621,"mug":8622,"Ġtura":8623,"amas":8624,"iled":8625,"Ġchitt":8626,"Ġrani":8627,"ichaa":8628,"mach":8629,"Ġsama":8630,"Ġheld":8631,"Ġhola":8632,"Ġara":8633,"ujhe":8634,"Ġnirmat":8635,"pped":8636,"Ġvisar":8637,"iraight":8638,"Ġcrod":8639,"Ġendal":8640,"Ġsamskruti":8641,"Ġmelvavaa":8642,"However":8643,"atle":8644,"hera":8645,"akàµ¾":8646,"Ġhaate":8647,"Ġrus":8648,"abu":8649,"chad":8650,"elli":8651,"Ġakhya":8652,"Ġclose":8653,"Ġunde":8654,"Ġdeshma":8655,"marg":8656,"sian":8657,"Ġsansaar":8658,"Ġthreat":8659,"Ġrojanta":8660,"Ġvigyaan":8661,"Ġpichhe":8662,"Ġvelai":8663,"Ġrivyul":8664,"01":8665,"jela":8666,"zaa":8667,"Ġbok":8668,"Ġdhr":8669,"ished":8670,"uring":8671,"Ġcheyada":8672,"Ġbaher":8673,"liàµ½":8674,"Ġrahegaa":8675,"Ġbanda":8676,"Ġtrying":8677,"2015":8678,"Ġturant":8679,"Ġmansir":8680,"ĠCourt":8681,"Ġsamaadhaan":8682,"Ġgathbandhan":8683,"95":8684,"kara":8685,"Ġcel":8686,"angana":8687,"uph":8688,"Ġhelic":8689,"Ġaru":8690,"Ġisi":8691,"Ġiskaa":8692,"Ġammel":8693,"Ġpatani":8694,"waadi":8695,"Ġucha":8696,"Ġchalchitr":8697,"Ġsuz":8698,"ampai":8699,"Ġsmall":8700,"Ġkelan":8701,"jeee":8702,"Ġpyaar":8703,"Ġbilkul":8704,"ghanistan":8705,"Ġkelya":8706,"Ġpave":8707,"Ġtell":8708,"yaj":8709,"esion":8710,"Ġcir":8711,"Ġadit":8712,"Ġyaanche":8713,"Ġatithi":8714,"ashtr":8715,"Ġityadi":8716,"Ġbharpoor":8717,"ayadhi":8718,"Ġkadal":8719,"hether":8720,"www":8721,"ool":8722,"vaj":8723,"Ġpriya":8724,"Ġtalli":8725,"Ġdue":8726,"enni":8727,"ekho":8728,"Ġparvat":8729,"maine":8730,"omi":8731,"nepali":8732,"ims":8733,"Ġbaishakh":8734,"wah":8735,"ĠNational":8736,"Ġrakhi":8737,"rajya":8738,"pd":8739,"iday":8740,"stand":8741,"inema":8742,"Ġdawit":8743,"Ġenic":8744,"bhasha":8745,"Ġrepor":8746,"yoti":8747,"Ġ400":8748,"Ġdiner":8749,"Ġshakta":8750,"Ġdharmik":8751,"ject":8752,"Ġsuami":8753,"Ġmufat":8754,"Ġ250":8755,"Ġcapi":8756,"Ġchakra":8757,"Ġaasapaas":8758,"ripaya":8759,"bank":8760,"wana":8761,"Ġkuk":8762,"uner":8763,"Ġjavaan":8764,"Ġgave":8765,"urved":8766,"Ġpartic":8767,"Ġhoy":8768,"Ġasle":8769,"Ġarest":8770,"Ġbaink":8771,"Ġrequ":8772,"Ġpadun":8773,"ĠChel":8774,"Ġrupi":8775,"Ġhamile":8776,"Ġyaaad":8777,"Ġ07":8778,"Ġmusal":8779,"Ġsarvocch":8780,"iverpool":8781,"Ġbarema":8782,"Ġnirvahi":8783,"ctive":8784,"42":8785,"laai":8786,"Ġsiv":8787,"aksha":8788,"Ġkark":8789,"appati":8790,"Ġdaya":8791,"Ġunte":8792,"Ġsanmaan":8793,"Ġmadhy":8794,"ĠAtt":8795,"Ġpratibed":8796,"Ġaakaar":8797,"Ġkaranyachi":8798,"krisht":8799,"Ġanuyayi":8800,"jis":8801,"Ġsagar":8802,"Ġaantar":8803,"Ġanuvad":8804,"ager":8805,"veen":8806,"Ġyad":8807,"Ġenllum":8808,"shep":8809,"Ġsatmber":8810,"ĠFr":8811,"anjan":8812,"Ġabhivr":8813,"Ġgraahak":8814,"Ġichchin":8815,"Ġspeed":8816,"Ġpondandi":8817,"darshak":8818,"mur":8819,"sing":8820,"vate":8821,"Ġsaav":8822,"Ġjya":8823,"eshaa":8824,"Ġneet":8825,"Ġbhave":8826,"hura":8827,"hyas":8828,"Ġrajkiya":8829,"Ġsarva":8830,"ĠPa":8831,"Ġvalan":8832,"bandh":8833,"post":8834,"ungar":8835,"Ġaaru":8836,"Ġnasal":8837,"Ġshuting":8838,"det":8839,"mam":8840,"Ġkhi":8841,"Ġkong":8842,"Ġmigaum":8843,"using":8844,"Ġenjo":8845,"opter":8846,"Ġvaittu":8847,"ittatu":8848,"Ġsingle":8849,"hasan":8850,"avaani":8851,"hubali":8852,"Ġkarnaar":8853,"Ġlier":8854,"nanak":8855,"Ġajiha":8856,"ĠQu":8857,"Ġsecretary":8858,"Ġvidhnga":8859,"ER":8860,"dani":8861,"Ġabha":8862,"Ġmump":8863,"Ġchief":8864,"Ġfakir":8865,"Ġkeem":8866,"Ġneeche":8867,"Ġgarh":8868,"Ġjaana":8869,"Ġrakhen":8870,"ĠLab":8871,"ĠWilli":8872,"Ġvyaktam":8873,"Ġaadmi":8874,"Ġceleb":8875,"lyaala":8876,"Ġavakash":8877,"budh":8878,"dle":8879,"kud":8880,"vun":8881,"Ġhed":8882,"Ġsaadhan":8883,"Ġhrid":8884,"Ġstat":8885,"Ġavadhi":8886,"Ġlagane":8887,"Ġ58":8888,"param":8889,"Ġleave":8890,"Ġtelust":8891,"Ġawlas":8892,"Ġtumchya":8893,"Ġpratiyogita":8894,"Ġsamooh":8895,"Ġparibartan":8896,"78":8897,"aata":8898,"pune":8899,"Ġjoshi":8900,"Ġfur":8901,"Ġsampatti":8902,"Ġkej":8903,"Ġalaava":8904,"Ġsadhya":8905,"Ġshopping":8906,"ĠGe":8907,"vadhikar":8908,"ungal":8909,"Ġdoderndu":8910,"Ġpayanbad":8911,"IN":8912,"aun":8913,"anand":8914,"Ġdeni":8915,"Ġgaa":8916,"Ġhaz":8917,"Ġprachaar":8918,"Ġstreet":8919,"Ġaapavama":8920,"shant":8921,"Ġconta":8922,"Ġ41":8923,"Ġsound":8924,"Ġudv":8925,"alayalam":8926,"Ġisht":8927,"Ġmasjid":8928,"Ġsaamag":8929,"Ġirukku":8930,"Ġaccount":8931,"Ġdabee":8932,"aily":8933,"Ġdubai":8934,"Ġlenda":8935,"Ġgopal":8936,"Ġphones":8937,"Ġseemaa":8938,"Ġvachchindi":8939,"Ġseveral":8940,"Ġcustom":8941,"Ġlokapriy":8942,"Ġvadhashiksh":8943,"bhe":8944,"gram":8945,"kab":8946,"anlo":8947,"arit":8948,"atya":8949,"inet":8950,"alal":8951,"Ġmira":8952,"Ġdhav":8953,"Ġdance":8954,"iste":8955,"uvam":8956,"Ġbalte":8957,"Ġchalache":8958,"Ġlikhat":8959,"Ġpulas":8960,"oppam":8961,"Ġsummer":8962,"Ġaalochan":8963,"Ġabhyas":8964,"Ġdurjetna":8965,"baaj":8966,"gr":8967,"Ġkone":8968,"akya":8969,"iland":8970,"Ġchop":8971,"Ġanna":8972,"Ġriti":8973,"Ġnaatak":8974,"ental":8975,"Ġnioga":8976,"Ġviruddha":8977,"Ġshikhar":8978,"field":8979,"Ġporan":8980,"ibiai":8981,"Im":8982,"Ġgelya":8983,"haruma":8984,"Ġradi":8985,"idwar":8986,"unnatu":8987,"Ġenough":8988,"Ġgarch":8989,"Ġalmost":8990,"Ġ56":8991,"Ġmukaab":8992,"ĠJune":8993,"Ġexpress":8994,"Ġdrish":8995,"Ġgarib":8996,"Ġthing":8997,"Ġcentral":8998,"Ġserious":8999,"cter":9000,"vayan":9001,"ym":9002,"Ġnede":9003,"yast":9004,"isan":9005,"isse":9006,"Ġliving":9007,"Ġhatan":9008,"Ġwhether":9009,"Ġfad":9010,"yasa":9011,"Ġrakhe":9012,"Ġtaak":9013,"Ġmilakar":9014,"appet":9015,"Ġthings":9016,"Ġyogi":9017,"opped":9018,"Ġbirth":9019,"Ġkareeb":9020,"Ġmulaaqat":9021,"Ġpakistani":9022,"Ġudghaatan":9023,"ening":9024,"ikrut":9025,"Ġyukt":9026,"Ġcomiti":9027,"watva":9028,"Ġbrother":9029,"phptit":9030,"Ġafiser":9031,"Ġanutuk":9032,"parishad":9033,"ĠChristmas":9034,"gri":9035,"arti":9036,"Ġauthor":9037,"Ġhaji":9038,"irukk":9039,"mahan":9040,"maile":9041,"ckle":9042,"ritik":9043,"itions":9044,"Ġbhaneko":9045,"Ġchance":9046,"ift":9047,"abhai":9048,"Ġsmiti":9049,"Ġajit":9050,"Ġdecision":9051,"Ġtried":9052,"Ġarthath":9053,"Ġdaggar":9054,"Ġsaria":9055,"hero":9056,"enda":9057,"avil":9058,"Ġrhode":9059,"irya":9060,"Ġfall":9061,"Ġdeya":9062,"Ġnepat":9063,"aleen":9064,"indar":9065,"Ġmadhiri":9066,"vanya":9067,"Ġmatsar":9068,"shani":9069,"ĠDe":9070,"ĠFriday":9071,"aavo":9072,"Ġsuccess":9073,"Ġthakate":9074,"Ġnijer":9075,"psm":9076,"Ġsambhaavna":9077,"Ġpaahije":9078,"Ġconcern":9079,"St":9080,"nnu":9081,"Ġsambh":9082,"taw":9083,"Ġterak":9084,"Ġvarshako":9085,"Ġaaple":9086,"Ġaapnake":9087,"hilai":9088,"Ġsabek":9089,"ĠAustralia":9090,"aage":9091,"Ġchali":9092,"Ġperi":9093,"Ġhathi":9094,"Ġchesuko":9095,"iriunnat":9096,"Ġbangladeshi":9097,"Ġdeepak":9098,"Ġrilies":9099,"Ġkishor":9100,"lat":9101,"Ġvam":9102,"Ġgene":9103,"Ġrij":9104,"Ġocc":9105,"Ġinas":9106,"Ġsahas":9107,"Ġsawai":9108,"Ġprint":9109,"Ġyenn":9110,"hakt":9111,"Ġmanam":9112,"varaj":9113,"Ġmarint":9114,"Ġlagaae":9115,"Ġtarf":9116,"Ġ51":9117,"vidence":9118,"ences":9119,"Ġpugeko":9120,"ubhaeko":9121,"Ġprevious":9122,"Ġvistrut":9123,"Ġrelies":9124,"ĠCommons":9125,"Ġparchiya":9126,"cast":9127,"congress":9128,"Ġted":9129,"hibar":9130,"Ġkaravaia":9131,"apore":9132,"Ġnaz":9133,"Ġyatr":9134,"Ġjaner":9135,"Ġpatal":9136,"Ġremain":9137,"Ġmatu":9138,"Ġnatwat":9139,"Ġmula":9140,"Ġhimself":9141,"Ġstrot":9142,"Ġskin":9143,"Ġkarataana":9144,"ustralian":9145,"Ġanpats":9146,"66":9147,"city":9148,"kart":9149,"nad":9150,"nic":9151,"Ġmap":9152,"Ġnokk":9153,"ilet":9154,"Ġlee":9155,"Ġcup":9156,"Ġaapanaa":9157,"Ġnirv":9158,"ĠMa":9159,"Ġjarurat":9160,"pratham":9161,"Ġroman":9162,"Ġupalabadh":9163,"Ġaccesstime":9164,"SC":9165,"voru":9166,"anir":9167,"Ġpudde":9168,"Ġliga":9169,"umo":9170,"Ġsaudi":9171,"Ġyuddha":9172,"Ġmanit":9173,"Ġavasan":9174,"prasad":9175,"Ġgobind":9176,"Ġfarm":9177,"Ġsansth":9178,"Ġrelation":9179,"Ġbelieved":9180,"Ġsaansad":9181,"Ġisliye":9182,"dy":9183,"wadi":9184,"Ġpete":9185,"Ġveli":9186,"akram":9187,"Ġlaj":9188,"Ġhes":9189,"Ġdij":9190,"Ġbadhu":9191,"ĠMor":9192,"Ġsaband":9193,"Ġsakale":9194,"Ġuhaanle":9195,"Ġvyast":9196,"Ġhamala":9197,"Ġvikram":9198,"Ġ85":9199,"Ġilanga":9200,"Ġmaghani":9201,"wadhin":9202,"Ġnirvahin":9203,"Ġnigam":9204,"Ġshreshth":9205,"hri":9206,"lakh":9207,"Ġtib":9208,"Ġnars":9209,"iker":9210,"Ġparav":9211,"unna":9212,"Ġekhano":9213,"Ġatil":9214,"Ġshahra":9215,"hamp":9216,"ĠApril":9217,"Ġmeating":9218,"ĠPolice":9219,"ribution":9220,"ference":9221,"Ġshresht":9222,"loki":9223,"mot":9224,"chennai":9225,"Ġmight":9226,"ergy":9227,"Ġanto":9228,"leel":9229,"Ġkoun":9230,"hiki":9231,"attile":9232,"artha":9233,"Ġibb":9234,"Ġpatak":9235,"Ġbadhaa":9236,"Ġtakke":9237,"Ġtatkal":9238,"Ġdespite":9239,"Ġsthanma":9240,"inchabad":9241,"Ġsanvatsar":9242,"Ġgermany":9243,"Police":9244,"big":9245,"ees":9246,"jor":9247,"Ġkup":9248,"Ġtane":9249,"Ġmab":9250,"achand":9251,"bhava":9252,"Ġihnas":9253,"vanlo":9254,"Ġ52":9255,"Ġdoing":9256,"Ġjaahir":9257,"Ġmodal":9258,"Ġpaae":9259,"ission":9260,"Ġsantosh":9261,"Ġthird":9262,"dhaka":9263,"tas":9264,"arai":9265,"Ġsastar":9266,"Ġpon":9267,"Ġkarma":9268,"ulan":9269,"ukundi":9270,"Ġdip":9271,"Ġatmahatya":9272,"araam":9273,"ibb":9274,"Ġleast":9275,"Ġaadhi":9276,"Ġundu":9277,"qui":9278,"Ġannoun":9279,"Ġsimran":9280,"Ġtadant":9281,"Ġpandit":9282,"ential":9283,"khal":9284,"yath":9285,"Ġsett":9286,"Ġtare":9287,"Ġtwe":9288,"Ġaudio":9289,"Ġdari":9290,"Ġnash":9291,"Ġjip":9292,"Ġanyat":9293,"hars":9294,"Ġwanti":9295,"Ġparn":9296,"unning":9297,"oko":9298,"ritsar":9299,"ojak":9300,"Ġkalaj":9301,"Ġleg":9302,"Ġcoach":9303,"Ġmashin":9304,"Ġparikshar":9305,"Ġkaaryakart":9306,"Ġteno":9307,"Ġchuntni":9308,"Ġshubhechha":9309,"43":9310,"arm":9311,"Ġtiger":9312,"unia":9313,"avam":9314,"ayull":9315,"Ġfem":9316,"Ġsaada":9317,"Ġnau":9318,"rew":9319,"Ġtemaj":9320,"Ġmanu":9321,"Ġbahi":9322,"Ġvarukintu":9323,"Ġbecame":9324,"roj":9325,"ulldu":9326,"epani":9327,"Ġlokoney":9328,"Ġgurubani":9329,"ĠEd":9330,"Ġsankalp":9331,"Ġsahayog":9332,"Ġdonald":9333,"Ġaamchya":9334,"Ġkithe":9335,"Ġsiruph":9336,"Ġsilhat":9337,"Ġaikya":9338,"Ġprapanch":9339,"Ġippol":9340,"ĠPremi":9341,"cra":9342,"gest":9343,"lelya":9344,"Ġpingu":9345,"Ġnaar":9346,"Ġnashi":9347,"itill":9348,"Ġcart":9349,"uts":9350,"idents":9351,"Ġsaham":9352,"Ġsector":9353,"Ġpathan":9354,"Ġswe":9355,"Ġswikar":9356,"Ġdharshan":9357,"Ġpramane":9358,"Ġwariki":9359,"Ġaafu":9360,"Ġsamagri":9361,"Ġmorcha":9362,"ĠPunjabi":9363,"Ġzindgi":9364,"Ġvishyanlo":9365,"cor":9366,"namm":9367,"vitt":9368,"arar":9369,"Ġnur":9370,"Ġjude":9371,"aahi":9372,"Ġnaani":9373,"Ġyach":9374,"Ġpool":9375,"ĠNorth":9376,"Ġcharit":9377,"Ġrojul":9378,"ishisht":9379,"Ġketlak":9380,"Ġavasaram":9381,"Ġdollars":9382,"Ġpressure":9383,"Ġnotific":9384,"Ġvishwagianko":9385,"Ġdescribed":9386,"anum":9387,"Ġtantra":9388,"Ġbhr":9389,"Ġbhed":9390,"adya":9391,"Ġgyaan":9392,"esav":9393,"Ġanud":9394,"Ġkarchen":9395,"Ġrin":9396,"irek":9397,"angai":9398,"Ġsamiksha":9399,"vary":9400,"Ġitnaa":9401,"cke":9402,"Ġcomes":9403,"Ġbande":9404,"Ġvadha":9405,"aavavaa":9406,"Ġhatyar":9407,"ftaar":9408,"ensive":9409,"Ġplayer":9410,"Ġghaite":9411,"ansaathi":9412,"sid":9413,"ting":9414,"wA":9415,"Ġbaap":9416,"asana":9417,"ikram":9418,"Ġchow":9419,"Ġanuman":9420,"Ġanukul":9421,"ednes":9422,"Ġfran":9423,"Ġnayaa":9424,"Ġsehi":9425,"Ġasad":9426,"Ġstre":9427,"Ġgaraj":9428,"Ġbegan":9429,"Ġittar":9430,"Ġbharan":9431,"ĠSo":9432,"baad":9433,"Ġshani":9434,"Ġcontinu":9435,"Ġichch":9436,"uvatum":9437,"Ġstudent":9438,"niti":9439,"vara":9440,"wing":9441,"Ġking":9442,"Ġpog":9443,"adaar":9444,"asoon":9445,"ikunnu":9446,"avaar":9447,"Ġrub":9448,"Ġranga":9449,"ici":9450,"Ġofis":9451,"Ġhig":9452,"Ġupi":9453,"ujj":9454,"ĠCan":9455,"Ġpolu":9456,"itting":9457,"Ġdekhen":9458,"Ġudhd":9459,"ĠDaily":9460,"bour":9461,"Ġtisuko":9462,"Ġporul":9463,"anthapuram":9464,"ema":9465,"kunn":9466,"pen":9467,"skar":9468,"Ġbapar":9469,"aiye":9470,"Ġwap":9471,"Ġhetu":9472,"Ġaswe":9473,"Ġutpann":9474,"thr":9475,"oji":9476,"Ġvalel":9477,"Ġdarsha":9478,"ĠWar":9479,"idevi":9480,"Ġkonsag":9481,"Ġresult":9482,"Ġsiddh":9483,"Ġartha":9484,"Ġbhug":9485,"temane":9486,"Ġchhatra":9487,"Ġchurch":9488,"ednesday":9489,"Ġdani":9490,"Ġcort":9491,"Ġanchal":9492,"achiv":9493,"Ġkaushal":9494,"Ġsade":9495,"Ġ64":9496,"Ġpashu":9497,"Ġsunil":9498,"Ġavarute":9499,"Ġsaathai":9500,"Ġnijee":9501,"Ġjaagaa":9502,"Ġnibandhan":9503,"Ġkham":9504,"atest":9505,"Ġbata":9506,"hisht":9507,"iksh":9508,"ties":9509,"Ġmahak":9510,"Ġprison":9511,"eech":9512,"uji":9513,"ĠSe":9514,"ĠSm":9515,"Ġirunth":9516,"Ġthim":9517,"Ġrupia":9518,"Ġgunjam":9519,"Ġbhagwan":9520,"Ġjagya":9521,"Ġinside":9522,"Ġdekhieko":9523,"Ġsahakari":9524,"Ġterakekk":9525,"LL":9526,"kol":9527,"sand":9528,"vave":9529,"anor":9530,"Ġkitt":9531,"Ġkudi":9532,"atta":9533,"Ġahil":9534,"itak":9535,"Ġludhiana":9536,"Ġchust":9537,"Ġsangheey":9538,"Ġsheshe":9539,"ukkak":9540,"Ġgovind":9541,"Ġbandhu":9542,"ennis":9543,"Ġbarabar":9544,"Ġwahiguru":9545,"Ġdhama":9546,"Ġexperi":9547,"yojak":9548,"Ġudhdhaar":9549,"76":9550,"bib":9551,"vast":9552,"Ġjul":9553,"Ġlalit":9554,"ikta":9555,"Ġfari":9556,"Ġevidence":9557,"ishwar":9558,"Ġenjhar":9559,"ends":9560,"gaon":9561,"prakas":9562,"Ġkaarya":9563,"Ġsocial":9564,"Ġprakara":9565,"Ġshart":9566,"Ġnobel":9567,"uries":9568,"Ġumr":9569,"Ġbhuk":9570,"Ġachaanak":9571,"Ġadmitted":9572,"Ġfisadi":9573,"kuch":9574,"oz":9575,"ining":9576,"Ġcader":9577,"udon":9578,"Ġdevar":9579,"Ġbhaar":9580,"Ġadmin":9581,"Ġaaplyaala":9582,"Ġreach":9583,"Ġconv":9584,"Ġiruk":9585,"Ġlekunda":9586,"Ġexpl":9587,"Ġnott":9588,"Ġimeil":9589,"Ġdasham":9590,"Ġsalman":9591,"Com":9592,"laksh":9593,"pate":9594,"Ġpana":9595,"Ġpaye":9596,"Ġtun":9597,"Ġbark":9598,"itam":9599,"eshnal":9600,"Ġmanuk":9601,"varun":9602,"Ġpatti":9603,"Ġpoi":9604,"Ġakha":9605,"Ġtahat":9606,"ĠRs":9607,"padak":9608,"Ġgaia":9609,"agaat":9610,"Ġhayetten":9611,"ddal":9612,"Ġkhatam":9613,"Ġplayed":9614,"Ġnishchit":9615,"Ġjasto":9616,"Ġpantapradhan":9617,"Ġbrihaspatibar":9618,"Post":9619,"mule":9620,"ua":9621,"Ġkhaa":9622,"Ġtama":9623,"Ġbaari":9624,"Ġghus":9625,"Ġlut":9626,"agari":9627,"Ġmaas":9628,"ivari":9629,"Ġnaho":9630,"unnad":9631,"vardhan":9632,"Ġswapn":9633,"back":9634,"Ġballe":9635,"Ġkarea":9636,"lymp":9637,"Ġlevel":9638,"Ġmetre":9639,"Ġnabheko":9640,"utunnai":9641,"Ġjaavegi":9642,"Ġbhoomi":9643,"Ġmumba":9644,"Ġjimme":9645,"Ġtamilnadu":9646,"71":9647,"ID":9648,"bama":9649,"tara":9650,"tasech":9651,"inus":9652,"esil":9653,"andatu":9654,"Ġhokar":9655,"hake":9656,"Ġech":9657,"ipan":9658,"Ġbeat":9659,"Ġkalav":9660,"Ġgalp":9661,"Ġlikhaa":9662,"Ġrasul":9663,"dhati":9664,"Ġsombar":9665,"Ġavashya":9666,"dhun":9667,"akon":9668,"Ġloni":9669,"Ġkarvi":9670,"Ġochi":9671,"anttil":9672,"Ġsachin":9673,"Ġasw":9674,"Ġpahal":9675,"Ġveet":9676,"Ġprakrut":9677,"Ġtalam":9678,"Ġsandhya":9679,"Ġkshet":9680,"Ġkheladi":9681,"Ġkisans":9682,"àµ¼tti":9683,"Ġnekapa":9684,"Ġhelicopter":9685,"Le":9686,"tad":9687,"Ġaalya":9688,"usne":9689,"Ġparim":9690,"olk":9691,"Ġtevi":9692,"Ġarun":9693,"ipai":9694,"Ġbaandh":9695,"uras":9696,"ĠMrs":9697,"ppatt":9698,"ikalk":9699,"Ġsupp":9700,"Ġkapad":9701,"inteyu":9702,"Ġevo":9703,"Ġlakshmi":9704,"Ġbhram":9705,"Ġtrip":9706,"Ġjisamen":9707,"Ġpuure":9708,"Ġpayar":9709,"Ġsamarpit":9710,"Ġpragati":9711,"Ġchannel":9712,"bali":9713,"yp":9714,"Ġswa":9715,"Ġkaraa":9716,"aving":9717,"Ġmahav":9718,"maz":9719,"Ġseit":9720,"Ġdahal":9721,"Ġisra":9722,"yamp":9723,"sea":9724,"ĠRep":9725,"ĠWednesday":9726,"Ġemal":9727,"Ġennat":9728,"Ġportal":9729,"Ġdupur":9730,"full":9731,"kali":9732,"anne":9733,"Ġph":9734,"Ġphe":9735,"rage":9736,"Ġjitt":9737,"Ġkaravi":9738,"Ġparanera":9739,"ishu":9740,"okar":9741,"ĠSam":9742,"Ġsardar":9743,"Ġcomi":9744,"Ġhameshaa":9745,"Ġgazal":9746,"Ġpalu":9747,"Ġjema":9748,"ports":9749,"Ġsandhi":9750,"2014":9751,"Ġesav":9752,"Ġprovid":9753,"Ġvidyarthi":9754,"ppetutti":9755,"Ġshuukrav":9756,"Ġprabhutva":9757,"Ġajihe":9758,"Ġmauju":9759,"Ġmoment":9760,"41":9761,"now":9762,"chh":9763,"avara":9764,"angam":9765,"rich":9766,"Ġpren":9767,"Ġdiffic":9768,"Ġbhawan":9769,"vies":9770,"ĠTe":9771,"Ġnibha":9772,"Ġnool":9773,"Ġdriving":9774,"Ġgalbaat":9775,"yadhik":9776,"Ġmasik":9777,"Ġthikaani":9778,"ppetutt":9779,"Ġsafalta":9780,"Ġofficials":9781,"Ġsahayata":9782,"Ġkarmakart":9783,"Ġrajinama":9784,"bl":9785,"bars":9786,"Ġsqu":9787,"Ġsmo":9788,"atm":9789,"Ġphen":9790,"Ġtwa":9791,"Ġvol":9792,"ishal":9793,"Ġcars":9794,"aves":9795,"Ġrisk":9796,"apatra":9797,"Ġpariman":9798,"undar":9799,"Ġonce":9800,"Ġjain":9801,"Ġshav":9802,"ĠAlex":9803,"Ġhasal":9804,"Ġbhandar":9805,"Ġconst":9806,"Ġtaalika":9807,"ĠHD":9808,"Ġpravak":9809,"Ġayite":9810,"Ġmilitary":9811,"preet":9812,"anako":9813,"arute":9814,"ative":9815,"Ġvato":9816,"itsa":9817,"enru":9818,"Ġchu":9819,"Ġwhy":9820,"Ġtown":9821,"Ġsera":9822,"Ġbhay":9823,"Ġbhaasha":9824,"oge":9825,"Ġadhir":9826,"astra":9827,"Ġkahana":9828,"ĠSec":9829,"Ġmadhe":9830,"ppett":9831,"yamay":9832,"uchit":9833,"veru":9834,"Ġrakhane":9835,"Ġdekhil":9836,"Ġboti":9837,"Ġnetal":9838,"Ġpartner":9839,"vasi":9840,"Ġniyantr":9841,"Ġumer":9842,"Ġsampatt":9843,"Ġbanaya":9844,"Ġinvestigation":9845,"IT":9846,"ikam":9847,"ikes":9848,"Ġsait":9849,"Ġbhang":9850,"Ġleader":9851,"Ġikkad":9852,"Ġbollywood":9853,"Ġthakur":9854,"kaary":9855,"Ġguna":9856,"Ġruchi":9857,"Ġaafna":9858,"Ġshabda":9859,"Ġturned":9860,"Ġvidheyak":9861,"Ġsruvaat":9862,"Ġvishwagiankosh":9863,"fo":9864,"ted":9865,"vesh":9866,"Ġsamor":9867,"asthal":9868,"vaadi":9869,"Ġvaani":9870,"manu":9871,"Ġkalvi":9872,"Ġnamed":9873,"Ġhamaari":9874,"Ġviruddh":9875,"Ġplann":9876,"Ġedud":9877,"2011":9878,"Ġrestaur":9879,"Ġnished":9880,"Ġtyaanche":9881,"Ġjisase":9882,"Ġsamagr":9883,"Ġspokesman":9884,"EO":9885,"arum":9886,"Ġmiku":9887,"Ġmurai":9888,"Ġjani":9889,"usang":9890,"angil":9891,"shuk":9892,"Ġadur":9893,"Ġyawa":9894,"Ġpatha":9895,"Ġpadaa":9896,"Ġrajasav":9897,"Ġdoor":9898,"epy":9899,"Ġvadhi":9900,"Ġfoi":9901,"Ġgair":9902,"Ġext":9903,"Ġbhagwaan":9904,"Ġgadee":9905,"Ġpareekshan":9906,"Ġmangalbar":9907,"Ġanurodh":9908,"TV":9909,"lip":9910,"llo":9911,"phot":9912,"rop":9913,"Ġpint":9914,"Ġpeeche":9915,"Ġtub":9916,"Ġghani":9917,"ikr":9918,"Ġwadhu":9919,"Ġfak":9920,"abuk":9921,"asto":9922,"Ġbhartee":9923,"Ġalo":9924,"Ġpooch":9925,"ĠBritain":9926,"Ġvishva":9927,"Ġjaaun":9928,"Ġtyaat":9929,"Ġaparahn":9930,"ayadhish":9931,"69":9932,"Her":9933,"cus":9934,"gen":9935,"Ġkeral":9936,"Ġkesiar":9937,"Ġgopp":9938,"Ġkartaat":9939,"haro":9940,"Ġpraadhik":9941,"Ġariv":9942,"Ġenetu":9943,"Ġjanote":9944,"Ġnirbhar":9945,"Ġsaki":9946,"Ġ54":9947,"hrul":9948,"Ġprakruti":9949,"Ġexper":9950,"Ġtalab":9951,"urther":9952,"Ġflight":9953,"Ġkhula":9954,"Ġinge":9955,"Ġsilver":9956,"Ġtikaa":9957,"pasoon":9958,"Ġparayunnat":9959,"ĠPremier":9960,"rt":9961,"alle":9962,"Ġbangl":9963,"aia":9964,"Ġanj":9965,"harer":9966,"usa":9967,"Ġfark":9968,"Ġpaatr":9969,"Ġiss":9970,"Ġshayar":9971,"rita":9972,"Ġagavai":9973,"Ġmeyar":9974,"ĠPro":9975,"Ġkathan":9976,"samaj":9977,"Ġ05":9978,"Ġ2005":9979,"Ġaakarshak":9980,"Ġvartmaan":9981,"Ġtrial":9982,"Ġpavitra":9983,"Ġmugha":9984,"Ġghetli":9985,"ĠPrice":9986,"Ġvishwavidyalaya":9987,"74":9988,"EW":9989,"khi":9990,"well":9991,"Ġere":9992,"aland":9993,"Ġthr":9994,"charan":9995,"Ġain":9996,"Ġmol":9997,"Ġnell":9998,"Ġvagar":9999,"orge":10000,"Ġhaamla":10001,"apet":10002,"varti":10003,"Ġshaadi":10004,"Ġnatab":10005,"Ġdocum":10006,"Ġcharges":10007,"udiil":10008,"Ġdasha":10009,"Ġtaarikh":10010,"Ġjeth":10011,"Ġbinaas":10012,"Ġjanieven":10013,"Ġjyot":10014,"Ġsurgery":10015,"Ġsaamagree":10016,"ls":10017,"Ġpaane":10018,"Ġnivar":10019,"Ġgala":10020,"Ġros":10021,"Ġparin":10022,"Ġparig":10023,"Ġcheyad":10024,"Ġorig":10025,"alayaka":10026,"Ġbehad":10027,"Ġvaast":10028,"Ġsabar":10029,"shed":10030,"Ġdoub":10031,"Ġrakhaa":10032,"ittal":10033,"Ġdekhan":10034,"ĠLiverpool":10035,"Ġtry":10036,"Ġsamaym":10037,"Ġshivas":10038,"Ġvict":10039,"Ġsanto":10040,"Ġreports":10041,"Ġaccident":10042,"Ġfield":10043,"ĠGoogle":10044,"Ġsweekaar":10045,"Ġhawaii":10046,"Ġsalaah":10047,"haara":10048,"aton":10049,"Ġdinde":10050,"akunda":10051,"Ġcivil":10052,"Ġpard":10053,"Ġdian":10054,"Ġassoci":10055,"Ġchait":10056,"Ġoften":10057,"hinchi":10058,"Ġlagaat":10059,"Ġswatah":10060,"Ġkhati":10061,"pray":10062,"Ġpuro":10063,"Ġsharad":10064,"meraa":10065,"Ġtrop":10066,"gium":10067,"havin":10068,"Ġnagari":10069,"Ġmikachch":10070,"Ġchiz":10071,"Ġpersonal":10072,"Ġprivate":10073,"Ġinvolved":10074,"malai":10075,"satt":10076,"haali":10077,"chani":10078,"Ġvine":10079,"Ġviti":10080,"Ġlives":10081,"Ġhaai":10082,"ekhar":10083,"Ġraho":10084,"Ġparathi":10085,"Ġkoot":10086,"imb":10087,"Ġhisa":10088,"Ġyaan":10089,"Ġgarden":10090,"alack":10091,"Ġungaluku":10092,"Ġamong":10093,"arshit":10094,"Ġviksit":10095,"Ġacid":10096,"Ġganat":10097,"Ġvishwer":10098,"Ġparishil":10099,"Ġnivedan":10100,"Ġkolkata":10101,"Ġprastuti":10102,"Ġstudents":10103,"Ġjaaegi":10104,"Ġbudget":10105,"Ġchaudhuri":10106,"Ġsarvaadhik":10107,"au":10108,"lus":10109,"arasht":10110,"atir":10111,"Ġtij":10112,"akki":10113,"oria":10114,"Ġanok":10115,"uril":10116,"Ġkarvu":10117,"eto":10118,"Ġraf":10119,"udam":10120,"Ġhope":10121,"oman":10122,"Ġpratyaksh":10123,"ĠPort":10124,"Ġrahete":10125,"Ġsport":10126,"Ġacount":10127,"Ġaadal":10128,"Ġtanatu":10129,"mian":10130,"Ġfeat":10131,"Ġnirapatta":10132,"Ġhundain":10133,"Ġstatement":10134,"Ġphotos":10135,"Ġappeared":10136,"Ġtutangia":10137,"Ġhistory":10138,"Ġbhrashtachar":10139,"Lab":10140,"fan":10141,"ier":10142,"yla":10143,"Ġjile":10144,"hanik":10145,"Ġwhili":10146,"rej":10147,"Ġstra":10148,"Ġjawal":10149,"Ġpadashe":10150,"ĠMil":10151,"Ġmaratha":10152,"Ġpraty":10153,"Ġhans":10154,"Ġmilia":10155,"Ġgaurav":10156,"Ġkuritu":10157,"Ġladaai":10158,"Ġsubah":10159,"vikip":10160,"Ġvidyarthis":10161,"Ġkuianda":10162,"ĠOnline":10163,"Ġtainun":10164,"jament":10165,"Ġbritain":10166,"Ġbenef":10167,"Ġgela":10168,"Ġchira":10169,"Ġren":10170,"Ġraman":10171,"agin":10172,"Ġprakaran":10173,"Ġekat":10174,"Ġyaho":10175,"Ġtiruman":10176,"Ġbhog":10177,"Ġnepalale":10178,"Ġphayda":10179,"ruk":10180,"vaari":10181,"wi":10182,"yik":10183,"Ġpik":10184,"Ġpote":10185,"Ġtes":10186,"Ġaate":10187,"Ġahim":10188,"aayak":10189,"ilt":10190,"hangu":10191,"Ġkaral":10192,"avunn":10193,"Ġounda":10194,"mains":10195,"halai":10196,"Ġbehatar":10197,"Ġutkrisht":10198,"ĠCreat":10199,"ĠAM":10200,"ulli":10201,"Ġdoos":10202,"Ġbanaaya":10203,"ayanti":10204,"rasad":10205,"Ġghate":10206,"Ġkadand":10207,"Ġappro":10208,"tap":10209,"anet":10210,"Ġsop":10211,"Ġmrut":10212,"Ġbhatt":10213,"raha":10214,"asab":10215,"Ġjuni":10216,"Ġchip":10217,"Ġchuna":10218,"urya":10219,"Ġkarchi":10220,"Ġring":10221,"upad":10222,"rime":10223,"Ġappat":10224,"Ġjanap":10225,"sex":10226,"Ġprakhya":10227,"iyag":10228,"Ġclin":10229,"Ġfees":10230,"chchen":10231,"Ġpicture":10232,"prem":10233,"Ġindep":10234,"Ġwantia":10235,"Ġlagaataar":10236,"88":10237,"prit":10238,"Ġauto":10239,"Ġdise":10240,"Ġleni":10241,"Ġbhaari":10242,"Ġasoj":10243,"oken":10244,"eshth":10245,"Ġjanak":10246,"Ġshashan":10247,"Ġvidh":10248,"ĠChar":10249,"Ġ63":10250,"Ġplant":10251,"enger":10252,"Ġimage":10253,"Ġbajaarma":10254,"Ġhindus":10255,"Ġakkd":10256,"Ġbandhappet":10257,"Ġprabandh":10258,"Ġsarvaswatva":10259,"Ġupsthith":10260,"arna":10261,"islam":10262,"Ġgr":10263,"Ġrahata":10264,"Ġyang":10265,"Ġyani":10266,"Ġyavar":10267,"Ġjanmad":10268,"Ġpadev":10269,"Ġmoul":10270,"Ġmadd":10271,"prapth":10272,"Ġchalate":10273,"vadaniki":10274,"Ġghatnaa":10275,"Ġ95":10276,"Ġtravel":10277,"Ġsanskrit":10278,"Ġangreji":10279,"Ġchestu":10280,"Ġscore":10281,"Ġscene":10282,"Ġvakt":10283,"Ġmukhyamantr":10284,"Ġfaisle":10285,"Ġshastra":10286,"Ġelectron":10287,"Ġnivadenuk":10288,"SI":10289,"wants":10290,"anen":10291,"Ġmura":10292,"Ġbete":10293,"Ġchanga":10294,"Ġwrit":10295,"Ġsahakar":10296,"alim":10297,"Ġeks":10298,"Ġbachaa":10299,"eme":10300,"uvin":10301,"ĠAd":10302,"Ġdharati":10303,"Ġcharged":10304,"Ġvadil":10305,"Ġfactor":10306,"Ġpoliceulu":10307,"asaheb":10308,"lands":10309,"Ġpenda":10310,"Ġjathe":10311,"Ġsentu":10312,"jivan":10313,"Ġview":10314,"Ġdhanyabad":10315,"Ġahead":10316,"Ġkartruk":10317,"Ġhirade":10318,"09":10319,"79":10320,"jot":10321,"Ġpushti":10322,"Ġdars":10323,"Ġvers":10324,"Ġgund":10325,"Ġlate":10326,"utra":10327,"Ġwalia":10328,"abho":10329,"machal":10330,"Ġyachi":10331,"Ġatin":10332,"Ġaapane":10333,"Ġwaste":10334,"Ġpoore":10335,"Ġparthu":10336,"Ġdeshan":10337,"Ġvyavhaar":10338,"orial":10339,"Ġtasavir":10340,"Ġkakunda":10341,"Ġconsider":10342,"Ġproperty":10343,"sday":10344,"yanga":10345,"Ġsoun":10346,"Ġkett":10347,"Ġvekh":10348,"Ġchell":10349,"utàµ½":10350,"Ġkarni":10351,"Ġkarwa":10352,"Ġwon":10353,"Ġtea":10354,"Ġsakine":10355,"Ġkhaanaa":10356,"Ġemplo":10357,"Ġkahaani":10358,"Ġterror":10359,"Ġbaaten":10360,"atingu":10361,"asuchi":10362,"Ġcondition":10363,"apasoon":10364,"Ġhappy":10365,"Ġnotice":10366,"Ġgurutv":10367,"Ġfuture":10368,"act":10369,"ndu":10370,"sum":10371,"akap":10372,"urti":10373,"avira":10374,"Ġrif":10375,"Ġpariy":10376,"Ġeur":10377,"oday":10378,"ippo":10379,"iyama":10380,"Ġkail":10381,"Ġisamen":10382,"ĠThur":10383,"Ġswap":10384,"Ġ61":10385,"baddh":10386,"Ġdrut":10387,"Ġvideos":10388,"Ġmajhi":10389,"ĠVie":10390,"Ġthiru":10391,"Ġkondar":10392,"Ġmurti":10393,"ichael":10394,"Ġbonus":10395,"Ġilaake":10396,"Ġtherivitt":10397,"Ġsrinivas":10398,"Un":10399,"phal":10400,"anani":10401,"haala":10402,"Ġshit":10403,"Ġtil":10404,"itchu":10405,"Ġciti":10406,"ekaar":10407,"Ġox":10408,"Ġparann":10409,"angat":10410,"Ġprapth":10411,"Ġina":10412,"hakal":10413,"Ġard":10414,"Ġmatap":10415,"inton":10416,"Ġaadar":10417,"Ġdivashi":10418,"2012":10419,"Ġniliil":10420,"play":10421,"ĠTelug":10422,"Ġaadhaarit":10423,"Ġsampraday":10424,"Ġdvitiya":10425,"AP":10426,"PL":10427,"Share":10428,"eg":10429,"Ġave":10430,"Ġwal":10431,"abhok":10432,"agave":10433,"udai":10434,"Ġos":10435,"Ġnach":10436,"nera":10437,"Ġpaal":10438,"Ġvidu":10439,"karam":10440,"Ġmood":10441,"Ġrajiv":10442,"ĠArs":10443,"Ġshok":10444,"Ġcarry":10445,"Ġ01":10446,"Ġcross":10447,"Ġinterview":10448,"Ġcomplex":10449,"Ġghoshit":10450,"Ġnivesh":10451,"Ġladki":10452,"Ġkahina":10453,"Ġreceived":10454,"Ġbalaatkaar":10455,"Ġparikalpana":10456,"jib":10457,"sura":10458,"vand":10459,"Ġkaid":10460,"Ġmase":10461,"Ġbold":10462,"adekhi":10463,"onal":10464,"Ġjata":10465,"ikak":10466,"Ġmaatra":10467,"olo":10468,"Ġsamj":10469,"allam":10470,"yakde":10471,"ankal":10472,"Ġabu":10473,"Ġmadak":10474,"Ġforced":10475,"Ġhisaab":10476,"Ġclas":10477,"anjee":10478,"Ġexam":10479,"Ġvancha":10480,"Ġvishwacap":10481,"Ġazad":10482,"Ġabhiprayas":10483,"waadee":10484,"Ġhappened":10485,"Ġaushadhi":10486,"Ġtomra":10487,"Ġpoocha":10488,"Ġallegedly":10489,"Ġkongras":10490,"Ġperiod":10491,"jna":10492,"yale":10493,"Ġanga":10494,"idan":10495,"Ġneya":10496,"Ġonge":10497,"Ġamane":10498,"Ġabove":10499,"Ġlagan":10500,"ĠLa":10501,"Ġspand":10502,"pratin":10503,"Ġhern":10504,"Ġvadhar":10505,"hnat":10506,"Ġlikely":10507,"Ġmuruvatum":10508,"Ġashlil":10509,"Ġplaying":10510,"Ġippat":10511,"Ġyasako":10512,"Ġyatri":10513,"Ġregister":10514,"Ġpuchhe":10515,"Ġaahvan":10516,"Ġhoyni":10517,"ĠCreative":10518,"Dekho":10519,"tone":10520,"amader":10521,"Ġthet":10522,"ottar":10523,"Ġsaanj":10524,"Ġdeva":10525,"ston":10526,"chadu":10527,"Ġmanoj":10528,"istondi":10529,"Ġvachal":10530,"Ġtarika":10531,"Ġkalan":10532,"Ġbanya":10533,"Ġjaay":10534,"Ġdeshs":10535,"sanar":10536,"Ġbakt":10537,"Ġsavere":10538,"Ġvastav":10539,"Ġcouncil":10540,"Ġdakshina":10541,"Ġconfir":10542,"Ġvishwavidyalyer":10543,"pes":10544,"Ġkhich":10545,"chuk":10546,"Ġachi":10547,"Ġvati":10548,"isgarh":10549,"Ġjekar":10550,"esc":10551,"Ġchen":10552,"irst":10553,"Ġfed":10554,"Ġprasar":10555,"Ġneigh":10556,"sth":10557,"Ġhund":10558,"Ġadharma":10559,"Ġpaent":10560,"Ġamara":10561,"Ġchhab":10562,"Ġpratisthan":10563,"Ġbaneko":10564,"mader":10565,"Ġkanun":10566,"Ġbasne":10567,"Ġaadya":10568,"Ġshikar":10569,"point":10570,"Ġthough":10571,"Ġajhai":10572,"Ġpichley":10573,"Ġmanushy":10574,"Ġbreaking":10575,"Ġproblem":10576,"Ġthounma":10577,"67":10578,"Ġsend":10579,"Ġphire":10580,"Ġcutt":10581,"Ġcoll":10582,"uls":10583,"Ġsahar":10584,"Ġyut":10585,"aanch":10586,"Ġbhaai":10587,"Ġbhautik":10588,"Ġmanaa":10589,"arey":10590,"Ġvyaba":10591,"liament":10592,"charge":10593,"Ġkhara":10594,"Ġteliv":10595,"Ġ125":10596,"Ġyojane":10597,"Ġcompet":10598,"resident":10599,"Ġmadhyamtun":10600,"pramukh":10601,"lished":10602,"Ġlarge":10603,"ĠAttribution":10604,"gati":10605,"Ġjene":10606,"Ġgana":10607,"hom":10608,"ukaya":10609,"Ġfre":10610,"Ġfurther":10611,"Ġrape":10612,"agn":10613,"Ġparit":10614,"Ġequ":10615,"Ġchauk":10616,"eeb":10617,"Ġdaure":10618,"astrer":10619,"emo":10620,"Ġbadl":10621,"Ġsabit":10622,"Ġswam":10623,"Ġadhikam":10624,"ĠHome":10625,"Ġzakh":10626,"Ġkharedi":10627,"Ġfact":10628,"Ġangu":10629,"Ġkurich":10630,"Ġswarg":10631,"Ġchukaa":10632,"Ġkastyle":10633,"Ġvalikitishar":10634,"Ġabhivruddhi":10635,"rata":10636,"chum":10637,"haraa":10638,"hoor":10639,"Ġfav":10640,"ably":10641,"Ġpraadhan":10642,"anaat":10643,"Ġpaak":10644,"Ġmobil":10645,"Ġpoti":10646,"Ġ57":10647,"àµ¼kk":10648,"Ġloktantr":10649,"aapas":10650,"Ġunnar":10651,"2013":10652,"cies":10653,"Ġthiruv":10654,"Ġislamic":10655,"Ġvimaansthal":10656,"ĠThursday":10657,"ao":10658,"iar":10659,"vatt":10660,"Ġabhaav":10661,"itnd":10662,"ishay":10663,"Ġsamvaad":10664,"shl":10665,"news":10666,"ajit":10667,"Ġasatan":10668,"Ġandine":10669,"read":10670,"Ġtext":10671,"Ġbah":10672,"Ġsanra":10673,"varu":10674,"Ġpatta":10675,"Ġforward":10676,"ĠTimes":10677,"Ġbhann":10678,"Ġcoff":10679,"Ġnete":10680,"Ġaadhyat":10681,"Ġexpected":10682,"kalam":10683,"Ġdilip":10684,"Ġpotu":10685,"Ġmuhim":10686,"icted":10687,"Ġanumaan":10688,"Ġgirls":10689,"Ġpatrakar":10690,"though":10691,"Ġtreatment":10692,"Ġbuddhak":10693,"Ġsamjhauta":10694,"Ġmaheene":10695,"Ġnepathyalo":10696,"Ġdianlod":10697,"hda":10698,"non":10699,"sara":10700,"athe":10701,"Ġaham":10702,"Ġburn":10703,"hest":10704,"eshaan":10705,"Ġchangi":10706,"Ġanuk":10707,"Ġansh":10708,"harm":10709,"umill":10710,"Ġiniti":10711,"Ġsaho":10712,"Ġseite":10713,"chaun":10714,"Ġvarunn":10715,"ops":10716,"Ġie":10717,"Ġavaidh":10718,"Ġthackle":10719,"shana":10720,"ĠLicense":10721,"Ġactiv":10722,"Ġvyakta":10723,"Ġtyaachi":10724,"Ġawkhan":10725,"Ġpaschim":10726,"Ġ2004":10727,"Ġumidwar":10728,"Ġjalandhar":10729,"Ġuchith":10730,"Ġparameshwar":10731,"Ġmoonh":10732,"Ġstadium":10733,"AB":10734,"bare":10735,"kis":10736,"pok":10737,"shatt":10738,"video":10739,"Ġsavar":10740,"Ġpata":10741,"ults":10742,"agra":10743,"odhum":10744,"Ġstage":10745,"hilam":10746,"ĠMan":10747,"Ġcoming":10748,"Ġkalik":10749,"Ġbanavi":10750,"bahi":10751,"purvak":10752,"Ġpeedit":10753,"Ġvyakhyal":10754,"Ġangan":10755,"Ġviman":10756,"Ġaalelya":10757,"Ġsahakaar":10758,"Ġrespons":10759,"Ġzaroori":10760,"Ġrugn":10761,"Ġdifficult":10762,"Ad":10763,"bdh":10764,"lar":10765,"ses":10766,"Ġsmar":10767,"Ġseta":10768,"Ġaalan":10769,"Ġmich":10770,"akai":10771,"Ġly":10772,"Ġkarw":10773,"Ġoil":10774,"Ġprashna":10775,"shma":10776,"Ġsawari":10777,"Ġandubat":10778,"Ġbahin":10779,"ashmir":10780,"huta":10781,"Ġmiltaa":10782,"Ġaction":10783,"Ġgaur":10784,"umbh":10785,"Ġsihat":10786,"asahit":10787,"Ġiver":10788,"Ġdecided":10789,"Ġcaused":10790,"Ġtyasako":10791,"arambha":10792,"Alike":10793,"Ġwrong":10794,"Ġblood":10795,"Ġcurrently":10796,"Ġtakhaval":10797,"Ġmaajha":10798,"bangla":10799,"That":10800,"ix":10801,"phic":10802,"tako":10803,"anic":10804,"Ġsart":10805,"Ġbaran":10806,"Ġnina":10807,"maya":10808,"Ġsevak":10809,"nee":10810,"Ġaccept":10811,"Ġmaahit":10812,"Ġdeshbhar":10813,"Ġsure":10814,"Ġtermp":10815,"Ġkhatm":10816,"Ġbrazil":10817,"Ġaanakhi":10818,"Ġkhalsa":10819,"Ġpriy":10820,"Ġpopular":10821,"kaarykram":10822,"ShareAlike":10823,"ĠAttributionShareAlike":10824,"08":10825,"Ax":10826,"bid":10827,"raku":10828,"Ġvo":10829,"Ġladi":10830,"ikon":10831,"ekal":10832,"andhra":10833,"Ġasi":10834,"Ġpaun":10835,"Ġshw":10836,"ows":10837,"ĠBr":10838,"Ġ53":10839,"prabhu":10840,"Ġdiscovered":10841,"Ġnio":10842,"Ġmott":10843,"Ġlabhyam":10844,"Ġrashtr":10845,"Ġmarkin":10846,"mailcom":10847,"Ġvenkat":10848,"Ġlooked":10849,"Ġkaanoon":10850,"Ġvyavsaayik":10851,"ĠChris":10852,"Ġislami":10853,"Ġsuffered":10854,"ĠPriceDekho":10855,"pha":10856,"wel":10857,"hag":10858,"Ġsle":10859,"aich":10860,"Ġanedi":10861,"Ġrantu":10862,"Ġferi":10863,"arian":10864,"Ġstan":10865,"ige":10866,"ashya":10867,"dau":10868,"yanna":10869,"hadar":10870,"Ġvishnu":10871,"purn":10872,"Ġiruvar":10873,"kalin":10874,"Ġdonhi":10875,"Ġparishodhan":10876,"Ġayushya":10877,"Ġmakan":10878,"Ġvatakk":10879,"Ġvyavasay":10880,"Ġnatattia":10881,"Ġvidhyarthi":10882,"Ġchoudhary":10883,"Ġpariyoj":10884,"dak":10885,"fort":10886,"avata":10887,"Ġinti":10888,"achit":10889,"iper":10890,"Ġyasta":10891,"Ġgarm":10892,"Ġaapas":10893,"hern":10894,"Ġchhaon":10895,"Ġmadhes":10896,"ĠPrin":10897,"Ġvishisht":10898,"Ġnahii":10899,"Ġkutti":10900,"Ġquick":10901,"Ġrecent":10902,"Ġairport":10903,"Ġrokan":10904,"Ġothers":10905,"upatri":10906,"hallum":10907,"Ġprarambh":10908,"kala":10909,"pm":10910,"aling":10911,"Ġtiya":10912,"Ġtyanchi":10913,"Ġded":10914,"rash":10915,"Ġnakk":10916,"yahi":10917,"Ġger":10918,"Ġansha":10919,"Ġhuman":10920,"Ġbhaya":10921,"alifor":10922,"aliger":10923,"Ġekach":10924,"Ġgarbha":10925,"Ġamdavad":10926,"Ġavite":10927,"Ġmarfat":10928,"nuhunch":10929,"Ġsharm":10930,"Ġvitamin":10931,"Ġgraptar":10932,"Ġcommit":10933,"Ġmetro":10934,"Ġswaraj":10935,"Ġcheyandi":10936,"Ġcheiyunnat":10937,"uvananthapuram":10938,"Ġmissing":10939,"Ġmudde":10940,"Ġshukrabar":10941,"ahile":10942,"vaid":10943,"yed":10944,"zine":10945,"alis":10946,"Ġtvar":10947,"ched":10948,"Ġbath":10949,"ashal":10950,"Ġarjan":10951,"ipat":10952,"indena":10953,"Ġshwadhin":10954,"Ġkaregi":10955,"Ġshakh":10956,"uriil":10957,"Ġmaria":10958,"Ġ08":10959,"Ġjillamaa":10960,"Ġachen":10961,"Ġaatmahatya":10962,"Ġsonn":10963,"Ġcheppin":10964,"Ġledni":10965,"Ġhindust":10966,"Ġpratispar":10967,"Ġdharmic":10968,"Ġinstitute":10969,"Ġbhatta":10970,"Ġpoints":10971,"ĠAmerican":10972,"Ġnaàµ½k":10973,"Ġgiraftaar":10974,"haasik":10975,"Posted":10976,"bani":10977,"ctic":10978,"nel":10979,"rath":10980,"Ġked":10981,"Ġkoni":10982,"Ġknew":10983,"Ġtend":10984,"Ġaaye":10985,"Ġmyan":10986,"asal":10987,"Ġravi":10988,"Ġmaja":10989,"oter":10990,"Ġhomes":10991,"shast":10992,"Ġsany":10993,"essor":10994,"shekhar":10995,"Ġhunchan":10996,"Ġshakat":10997,"Ġadhikansh":10998,"Ġ69":10999,"Ġ600":11000,"madhya":11001,"Ġkanik":11002,"Ġ78":11003,"Ġsamayam":11004,"Ġpramaan":11005,"Ġtamilk":11006,"Ġmiddle":11007,"Ġbanaae":11008,"Ġvellri":11009,"vaachit":11010,"Ġbartaman":11011,"Ġsuzav":11012,"ĠChelsea":11013,"EWS":11014,"qi":11015,"Ġkund":11016,"atl":11017,"Ġaud":11018,"Ġaana":11019,"itbaar":11020,"eram":11021,"Ġwet":11022,"Ġfly":11023,"Ġmawatt":11024,"Ġprarambha":11025,"imay":11026,"Ġvaish":11027,"Ġmoved":11028,"lock":11029,"shek":11030,"prad":11031,"Ġsoor":11032,"Ġaadha":11033,"avarun":11034,"Ġvivad":11035,"angaluku":11036,"Ġshanibar":11037,"Ġinterv":11038,"Ġterdal":11039,"Ġmunh":11040,"Ġabhinandan":11041,"Ġavasarmaa":11042,"Ġbhadon":11043,"ukunte":11044,"Ġsanrakshan":11045,"Ġpravasi":11046,"Ġvishleshan":11047,"Ġambedkar":11048,"57":11049,"pam":11050,"yA":11051,"Ġpink":11052,"Ġdic":11053,"Ġgyani":11054,"ilull":11055,"Ġlow":11056,"ukin":11057,"Ġhech":11058,"Ġkaum":11059,"Ġamareeki":11060,"Ġsanjha":11061,"Ġjaatiya":11062,"Ġsarot":11063,"Ġagdi":11064,"ĠPhil":11065,"Ġshakate":11066,"Ġrupye":11067,"Ġbandhan":11068,"Ġkanya":11069,"Ġ72":11070,"Ġmoto":11071,"ptanga":11072,"Ġimp":11073,"Ġgrahak":11074,"Ġnask":11075,"Ġantarrashtriya":11076,"Ġanumodan":11077,"Ġnirdesan":11078,"Ġcurrent":11079,"Ġkartrup":11080,"Ġvishvavid":11081,"craft":11082,"So":11083,"rog":11084,"thyo":11085,"yya":11086,"Ġsune":11087,"Ġsens":11088,"Ġpande":11089,"Ġaya":11090,"ises":11091,"Ġchile":11092,"aph":11093,"Ġparyant":11094,"ichal":11095,"anima":11096,"Ġsachi":11097,"Ġchamak":11098,"attal":11099,"Ġdaam":11100,"Ġmanab":11101,"Ġpaad":11102,"iley":11103,"Ġhassan":11104,"Ġpurva":11105,"ounu":11106,"Ġtirank":11107,"Ġbihaan":11108,"Ġcheste":11109,"Ġthakar":11110,"Ġnirvachner":11111,"Ġdhawar":11112,"Ġprocess":11113,"chandigarh":11114,"conom":11115,"ĠEnglish":11116,"ujavaanas":11117,"Ġchitranlo":11118,"http":11119,"UN":11120,"gnan":11121,"phy":11122,"shata":11123,"Ġkante":11124,"Ġvannu":11125,"Ġkarvo":11126,"Ġmaalik":11127,"Ġparkk":11128,"atech":11129,"Ġarmy":11130,"Ġekda":11131,"Ġpah":11132,"igus":11133,"uvi":11134,"karu":11135,"berg":11136,"Ġwasnt":11137,"onder":11138,"Ġbanan":11139,"Ġudyam":11140,"Ġmilane":11141,"Ġnothing":11142,"Ġmudra":11143,"Ġvachan":11144,"Ġerbad":11145,"Ġsusp":11146,"Ġchahunde":11147,"Ġmekhal":11148,"Ġgupta":11149,"Ġcompanies":11150,"Ġkaaryakarta":11151,"ujjaman":11152,"bis":11153,"bur":11154,"duk":11155,"kit":11156,"shil":11157,"tene":11158,"vell":11159,"villy":11160,"Ġkivave":11161,"alav":11162,"chho":11163,"Ġmind":11164,"Ġnon":11165,"Ġnorth":11166,"Ġgru":11167,"Ġgrup":11168,"Ġlanti":11169,"ayer":11170,"eler":11171,"Ġmaatha":11172,"ically":11173,"antil":11174,"otha":11175,"Ġbhayan":11176,"endari":11177,"Ġsakasham":11178,"ĠAs":11179,"Ġaavela":11180,"Ġlakshaat":11181,"inning":11182,"Ġ99":11183,"Ġethra":11184,"Ġsiasi":11185,"Ġgunt":11186,"Ġtuhari":11187,"Ġshrimati":11188,"Ġyathar":11189,"Ġexpla":11190,"althy":11191,"ieko":11192,"light":11193,"maari":11194,"yil":11195,"Ġsath":11196,"Ġdash":11197,"akhand":11198,"Ġcast":11199,"avish":11200,"Ġwall":11201,"Ġprachin":11202,"Ġsao":11203,"Ġsaun":11204,"Ġsahan":11205,"Ġchehre":11206,"chale":11207,"Ġstars":11208,"Ġatal":11209,"Ġsabandh":11210,"Ġusnoo":11211,"Ġaavata":11212,"Ġlakshal":11213,"Ġtriv":11214,"Ġsayes":11215,"reey":11216,"hedaar":11217,"Ġcredit":11218,"Ġpaaya":11219,"Ġmakal":11220,"Ġaamdaar":11221,"Ġjaldi":11222,"Ġkarmcha":11223,"haleel":11224,"Ġkendrit":11225,"Ġkiran":11226,"Ġkevalam":11227,"Ġuttari":11228,"Ġkomal":11229,"railia":11230,"Ġsamrudh":11231,"Ġarogya":11232,"Ġmahotsav":11233,"ĠEuropean":11234,"bara":11235,"tama":11236,"vag":11237,"Ġpick":11238,"Ġpitt":11239,"Ġbodh":11240,"Ġdaar":11241,"eshak":11242,"Ġlitre":11243,"Ġcash":11244,"Ġrate":11245,"elvi":11246,"iro":11247,"Ġrash":11248,"entat":11249,"Ġadesh":11250,"Ġunivers":11251,"Ġbadheko":11252,"haman":11253,"Ġutpatti":11254,"ĠChamp":11255,"Ġforce":11256,"Ġnatinchin":11257,"Ġsour":11258,"Ġprakritik":11259,"angalin":11260,"Ġkrushi":11261,"Ġkhule":11262,"Ġkaaryakari":11263,"Ġkalaat":11264,"Ġbinaa":11265,"bhoot":11266,"Ġsanchaalak":11267,"Ġmishra":11268,"Ġkaryanvayan":11269,"Ġloksabhaa":11270,"jayaare":11271,"Ġtelustondi":11272,"Ġgurutvapurna":11273,"mujhe":11274,"pett":11275,"Ġsaara":11276,"Ġbap":11277,"Ġwallu":11278,"upol":11279,"Ġsamast":11280,"Ġema":11281,"rey":11282,"Ġadutta":11283,"Ġyawar":11284,"vaani":11285,"ibaar":11286,"Ġrajendra":11287,"àµ¼d":11288,"saint":11289,"Ġudal":11290,"Ġspeshal":11291,"ĠRes":11292,"Ġidenti":11293,"Ġachche":11294,"Ġmeter":11295,"Ġambani":11296,"Ġpanth":11297,"Ġphaguna":11298,"istreshan":11299,"Ġupalbdh":11300,"Ġpratiyogit":11301,"Ġdarshaktvanlo":11302,"meri":11303,"yara":11304,"ching":11305,"aded":11306,"isu":11307,"isam":11308,"Ġkarnar":11309,"Ġkaravaano":11310,"irunnat":11311,"anduku":11312,"Ġprusht":11313,"Ġkaala":11314,"Ġjanun":11315,"ubbu":11316,"ĠSw":11317,"Ġsaken":11318,"Ġpratyak":11319,"aranni":11320,"Ġuhi":11321,"Ġafnai":11322,"Ġpunah":11323,"Ġlaagat":11324,"Ġlaagyo":11325,"alsi":11326,"Ġbarsh":11327,"Ġkharaab":11328,"Ġjhaalan":11329,"Ġmudiyadhu":11330,"Ġpaaune":11331,"Ġbachchan":11332,"Ġtuteni":11333,"Ġkakhano":11334,"Ġgener":11335,"Ġphaunche":11336,"Ġchintaa":11337,"Ġshraddha":11338,"dana":11339,"pil":11340,"Ġia":11341,"Ġsipi":11342,"atre":11343,"Ġaudyog":11344,"Ġvandi":11345,"Ġjudi":11346,"ilty":11347,"Ġloss":11348,"Ġbhain":11349,"ankhya":11350,"Ġmanyata":11351,"Ġvarm":11352,"Ġsanvaare":11353,"Ġjawan":11354,"Ġaapava":11355,"ujan":11356,"Ġavaaz":11357,"ĠCon":11358,"Ġpradar":11359,"Ġvishad":11360,"Ġiru":11361,"ĠDay":11362,"ĠLatest":11363,"Ġleva":11364,"ambe":11365,"Ġbarab":11366,"Ġmothaa":11367,"Ġchesukunn":11368,"Ġsuna":11369,"Ġpatipp":11370,"Ġsantras":11371,"Ġnagad":11372,"Ġsuchana":11373,"Ġsachet":11374,"Ġregular":11375,"Ġolile":11376,"Ġjihde":11377,"gil":11378,"hava":11379,"Ġtram":11380,"Ġnujavaanas":11381,"aire":11382,"ayen":11383,"Ġparyan":11384,"achin":11385,"Ġbhaashan":11386,"Ġgarepachhi":11387,"indani":11388,"karm":11389,"yatra":11390,"Ġrakshan":11391,"Ġrakhana":11392,"Ġperfor":11393,"Ġdekho":11394,"Ġshiva":11395,"lldu":11396,"Ġblag":11397,"Ġ03":11398,"Ġbhaganga":11399,"Ġtamilr":11400,"Ġditam":11401,"Ġmadhyamik":11402,"Ġingreji":11403,"Ġchikitsa":11404,"khabar":11405,"Ġvishayas":11406,"Ġuddeshy":11407,"Ġfelt":11408,"Ġhttps":11409,"Ġrajkeey":11410,"Ġdawitva":11411,"Ġtweet":11412,"fully":11413,"SS":11414,"sup":11415,"anc":11416,"atham":11417,"asta":11418,"Ġjib":11419,"Ġlamo":11420,"Ġchusi":11421,"Ġanip":11422,"Ġwapas":11423,"Ġfiver":11424,"Ġprishth":11425,"Ġbayaan":11426,"iyana":11427,"varsh":11428,"ĠShe":11429,"ĠMalayalam":11430,"Ġcoment":11431,"Ġcomity":11432,"Ġkalp":11433,"Ġagie":11434,"Ġagency":11435,"Ġ71":11436,"Ġaadalat":11437,"Ġundani":11438,"Ġplane":11439,"Ġpratibha":11440,"bien":11441,"198":11442,"Ġ2003":11443,"Ġsahita":11444,"Ġcompla":11445,"Ġjald":11446,"Ġkarmasuchi":11447,"Ġmitr":11448,"Ġchhinan":11449,"Ġtyaancha":11450,"Ġsamanvay":11451,"Ġposhak":11452,"Ġavasthan":11453,"lines":11454,"Ġparistate":11455,"meshur":11456,"tawayan":11457,"91":11458,"bum":11459,"ez":11460,"lato":11461,"sikh":11462,"hapur":11463,"americ":11464,"Ġboss":11465,"Ġdatt":11466,"Ġlash":11467,"Ġlete":11468,"Ġhala":11469,"Ġrol":11470,"agata":11471,"Ġprabh":11472,"upole":11473,"Ġhoia":11474,"Ġcheyu":11475,"Ġsakaaratmak":11476,"Ġkathal":11477,"adev":11478,"Ġlaagch":11479,"Ġghari":11480,"Ġthekes":11481,"Ġfac":11482,"Ġkonetya":11483,"Ġmagron":11484,"Ġulak":11485,"darmyaan":11486,"Ġsthanik":11487,"Ġstrugg":11488,"mukhyamantri":11489,"Ġkendram":11490,"Ġshivaji":11491,"Ġubhi":11492,"ganje":11493,"Ġpagel":11494,"Ġiccha":11495,"Ġfesabuk":11496,"Ġvyavsaayee":11497,"Ġsamuhik":11498,"Ġmaujood":11499,"Ġduusari":11500,"fasil":11501,"Ġ88017":11502,"Ġochiw":11503,"ON":11504,"ovad":11505,"tikar":11506,"vip":11507,"wI":11508,"Ġsis":11509,"atho":11510,"Ġtyamule":11511,"Ġbidd":11512,"Ġvale":11513,"asak":11514,"Ġjel":11515,"uthak":11516,"irman":11517,"anduk":11518,"Ġbhaavana":11519,"tail":11520,"ills":11521,"Ġoro":11522,"Ġupd":11523,"hyaat":11524,"vanyaat":11525,"Ġlagatar":11526,"Ġkatchi":11527,"Ġsadhan":11528,"Ġniojak":11529,"Ġplat":11530,"ĠOr":11531,"Ġjaanava":11532,"Ġhataa":11533,"eshaani":11534,"Ġpachhan":11535,"Ġbhattar":11536,"Ġbakhlakh":11537,"Ġtannaan":11538,"Ġkufipp":11539,"Ġsaydigus":11540,"Ġhuge":11541,"62":11542,"Re":11543,"aise":11544,"bri":11545,"tana":11546,"arayan":11547,"atyaahi":11548,"Ġaati":11549,"Ġaakar":11550,"Ġdhul":11551,"Ġdikh":11552,"yahan":11553,"Ġchutt":11554,"umm":11555,"agami":11556,"Ġpragat":11557,"Ġneeti":11558,"Ġhins":11559,"ogan":11560,"Ġekaj":11561,"Ġadalat":11562,"Ġdah":11563,"opan":11564,"Ġonn":11565,"Ġsanchaar":11566,"Ġsanshay":11567,"Ġij":11568,"Ġavatari":11569,"Ġush":11570,"Ġakhi":11571,"Ġkareet":11572,"Ġdinam":11573,"Ġprakal":11574,"Ġspot":11575,"Ġbandi":11576,"Ġgurt":11577,"Ġdrive":11578,"shaka":11579,"Ġidam":11580,"Ġmajaa":11581,"Ġmujib":11582,"Ġvarshani":11583,"Ġprakaashan":11584,"Ġbhitr":11585,"Ġtippanee":11586,"Ġbhannubhayo":11587,"bart":11588,"dhak":11589,"jekar":11590,"vindra":11591,"yet":11592,"arin":11593,"Ġsibiai":11594,"Ġnath":11595,"Ġnadu":11596,"Ġvia":11597,"Ġchess":11598,"edekhi":11599,"aparyant":11600,"andha":11601,"Ġfiv":11602,"Ġfale":11603,"dig":11604,"stan":11605,"Ġapa":11606,"Ġamai":11607,"ubad":11608,"Ġpanel":11609,"Ġkhadi":11610,"pancha":11611,"yathi":11612,"ĠBer":11613,"Ġaavak":11614,"irak":11615,"Ġnaalon":11616,"Ġlearn":11617,"Ġworth":11618,"Ġbataai":11619,"rass":11620,"Ġjaanate":11621,"Ġpratibad":11622,"Ġangikar":11623,"Ġcentra":11624,"Ġvachchi":11625,"Ġupyogi":11626,"Ġgrifat":11627,"Ġokati":11628,"Ġbrought":11629,"06":11630,"alelya":11631,"Ġviya":11632,"itas":11633,"ittar":11634,"Ġgi":11635,"ilam":11636,"iket":11637,"usar":11638,"Ġom":11639,"eshtha":11640,"iah":11641,"Ġupyukt":11642,"Ġpaddhati":11643,"Ġpanya":11644,"Ġship":11645,"Ġnaval":11646,"Ġ09":11647,"Ġvittiya":11648,"urnal":11649,"Ġbanking":11650,"Ġsuraj":11651,"Ġshilp":11652,"lagn":11653,"AL":11654,"Now":11655,"rY":11656,"Ġsor":11657,"asy":11658,"Ġchett":11659,"Ġrank":11660,"Ġmaf":11661,"antaran":11662,"olai":11663,"Ġunalai":11664,"endr":11665,"Ġraji":11666,"Ġrajesh":11667,"Ġdarja":11668,"Ġgoal":11669,"Ġclos":11670,"ĠJames":11671,"Ġelanti":11672,"Ġvibhager":11673,"Ġlikhi":11674,"Ġkhabaraan":11675,"tyasaile":11676,"Ġmatladutu":11677,"Ġmanohar":11678,"maharashtra":11679,"Ġbrahman":11680,"Ġparanjat":11681,"ĠLabour":11682,"04":11683,"ima":11684,"nish":11685,"ther":11686,"valo":11687,"wandi":11688,"xx":11689,"haai":11690,"Ġsava":11691,"Ġayat":11692,"Ġdhun":11693,"Ġng":11694,"adhin":11695,"aipur":11696,"avis":11697,"ayang":11698,"Ġrid":11699,"Ġfadan":11700,"umari":11701,"Ġsazaa":11702,"Ġhovathi":11703,"eshner":11704,"attle":11705,"Ġbahadur":11706,"Ġusase":11707,"Ġviak":11708,"ĠFrance":11709,"akkunn":11710,"ĠNepal":11711,"Ġtrack":11712,"Ġblues":11713,"Ġthakare":11714,"Ġoffice":11715,"Ġcapt":11716,"Ġvakup":11717,"Ġdhoni":11718,"Ġabhinayta":11719,"Ġzaroor":11720,"Ġaitihaasik":11721,"ustice":11722,"ĠCounty":11723,"Ġupaadhyaksh":11724,"vich":11725,"Ġkans":11726,"Ġtant":11727,"chur":11728,"Ġnara":11729,"Ġghur":11730,"Ġlic":11731,"house":11732,"hold":11733,"Ġsamee":11734,"hyatil":11735,"Ġsthanian":11736,"Ġaplod":11737,"Ġunited":11738,"artin":11739,"Ġsanyojak":11740,"Ġkalat":11741,"Ġpound":11742,"Ġhasan":11743,"Ġbhanchan":11744,"Ġroti":11745,"Ġlegal":11746,"Ġjiha":11747,"Ġkarawa":11748,"Ġplans":11749,"Ġchitral":11750,"aayi":11751,"Ġtyaache":11752,"Ġnasak":11753,"Ġguilty":11754,"Ġpariw":11755,"Ġaasaan":11756,"ĠStreet":11757,"Ġsagon":11758,"Ġkaryrat":11759,"Ġself":11760,"Ġtherind":11761,"Ġsiraf":11762,"Ġstudy":11763,"ukuntunn":11764,"Ġbangabandhu":11765,"Ġbaanki":11766,"Ġpolitical":11767,"Ġtakkuv":11768,"Ġsabandhat":11769,"Ġmaujuud":11770,"72":11771,"jama":11772,"khe":11773,"kang":11774,"uit":11775,"Ġsco":11776,"alama":11777,"Ġtenu":11778,"Ġmini":11779,"Ġdaav":11780,"asurat":11781,"Ġrik":11782,"Ġfell":11783,"chaat":11784,"Ġarti":11785,"Ġaapla":11786,"Ġbhanaai":11787,"uttuk":11788,"Ġmiles":11789,"Ġlae":11790,"Ġsukhi":11791,"ustrali":11792,"Ġshowed":11793,"Ġparisthiti":11794,"Ġgambheer":11795,"Ġseyyapatt":11796,"Ġcharacha":11797,"Ġhunuhunch":11798,"ear":11799,"part":11800,"Ġivar":11801,"arek":11802,"Ġshala":11803,"Ġaabhar":11804,"Ġbhinn":11805,"akaar":11806,"ikad":11807,"Ġkarie":11808,"Ġkarange":11809,"aym":11810,"iral":11811,"upjela":11812,"tafasil":11813,"Ġvarshat":11814,"Ġshapath":11815,"Ġshaayad":11816,"Ġmarupati":11817,"prak":11818,"Ġaavel":11819,"Ġconference":11820,"Ġbanai":11821,"Ġnamee":11822,"hayla":11823,"ĠGu":11824,"Ġpalgon":11825,"Ġdevai":11826,"Ġapnia":11827,"Ġlikhit":11828,"Ġvastawayan":11829,"Ġaashaa":11830,"Ġkachinera":11831,"Ġpriyanka":11832,"Ġweekend":11833,"Ġtikat":11834,"Ġpramanat":11835,"Ġchahidi":11836,"Ġranjit":11837,"Ġanubhut":11838,"wil":11839,"Ġkida":11840,"Ġvaka":11841,"Ġanno":11842,"Ġkartt":11843,"Ġkarpor":11844,"Ġrud":11845,"Ġprinc":11846,"Ġbhashan":11847,"Ġassa":11848,"atts":11849,"ankaa":11850,"Ġkaat":11851,"Ġbeach":11852,"ĠMail":11853,"kaaleen":11854,"ellig":11855,"Ġjoine":11856,"Ġmukhe":11857,"Ġjaaye":11858,"Ġroz":11859,"Ġ62":11860,"Ġkanak":11861,"pector":11862,"udhvaar":11863,"Ġnashe":11864,"Ġchaahe":11865,"Ġgarnubhaeko":11866,"Ġlooks":11867,"otsav":11868,"Ġkhudak":11869,"Ġpassport":11870,"Ġpinne":11871,"Ġsamarthak":11872,"Ġnirdeshak":11873,"Ġvictims":11874,"Ġaarogy":11875,"05":11876,"gani":11877,"gayat":11878,"jaa":11879,"kom":11880,"mund":11881,"zer":11882,"haya":11883,"Ġsata":11884,"Ġshata":11885,"Ġkyan":11886,"Ġpate":11887,"Ġdut":11888,"Ġnus":11889,"Ġvark":11890,"Ġjak":11891,"Ġfee":11892,"ags":11893,"Ġmaane":11894,"Ġsamaro":11895,"halam":11896,"Ġyam":11897,"amain":11898,"Ġgarirheko":11899,"ugi":11900,"dain":11901,"Ġpatill":11902,"uvanti":11903,"Ġnirna":11904,"Ġniryat":11905,"ĠMost":11906,"Ġuha":11907,"ĠDep":11908,"Ġtah":11909,"Ġtii":11910,"Ġsafalataa":11911,"Ġinclude":11912,"Ġchahta":11913,"Ġmashhoor":11914,"bhed":11915,"gya":11916,"pash":11917,"pher":11918,"Ġsone":11919,"Ġkranti":11920,"Ġbord":11921,"raaj":11922,"Ġviniog":11923,"ades":11924,"Ġjhat":11925,"ilable":11926,"Ġprice":11927,"Ġdim":11928,"Ġasaar":11929,"Ġenergy":11930,"Ġapek":11931,"Ġchhad":11932,"Ġmatoru":11933,"Ġnatapati":11934,"barobar":11935,"Ġdekhar":11936,"Ġdinu":11937,"Ġbihibar":11938,"Ġimages":11939,"Ġpramuk":11940,"Ġphool":11941,"akshin":11942,"Ġuddin":11943,"Ġpahilya":11944,"Ġbachre":11945,"zaadi":11946,"ghatna":11947,"Ġtestro":11948,"Ġkaligi":11949,"Ġavarkalin":11950,"Ġaaloch":11951,"Labels":11952,"AS":11953,"All":11954,"hte":11955,"jil":11956,"jati":11957,"nati":11958,"vet":11959,"anma":11960,"Ġphan":11961,"Ġtila":11962,"Ġmist":11963,"Ġmian":11964,"Ġdhil":11965,"unako":11966,"Ġgh":11967,"Ġchhit":11968,"Ġcann":11969,"ekaran":11970,"Ġkaryak":11971,"aychi":11972,"Ġrick":11973,"apalika":11974,"Ġtheriya":11975,"Ġparich":11976,"Ġprase":11977,"dies":11978,"Ġchayan":11979,"Ġarm":11980,"Ġadar":11981,"Ġmanai":11982,"bhaat":11983,"Ġvaralar":11984,"Ġapra":11985,"Ġitt":11986,"vano":11987,"ership":11988,"Ġ59":11989,"aseen":11990,"arder":11991,"Ġbased":11992,"ashion":11993,"Ġpetali":11994,"Ġworked":11995,"Ġjastis":11996,"lekhak":11997,"vaano":11998,"Ġstep":11999,"Ġmuktiyod":12000,"Ġchhuti":12001,"ĠRoyal":12002,"sankhya":12003,"Ġnioose":12004,"camp":12005,"mic":12006,"vim":12007,"yàµ½":12008,"hayak":12009,"Ġgyank":12010,"Ġantah":12011,"Ġkarvanu":12012,"ivite":12013,"ividhi":12014,"Ġkey":12015,"Ġkeman":12016,"ript":12017,"Ġyem":12018,"Ġasese":12019,"okt":12020,"Ġkaitu":12021,"Ġbadle":12022,"Ġforum":12023,"Ġadhikaria":12024,"ĠFer":12025,"appu":12026,"Ġniyukt":12027,"Ġanusar":12028,"Ġmagan":12029,"Ġsahab":12030,"Ġbhukh":12031,"enced":12032,"vision":12033,"pinne":12034,"ography":12035,"Ġwastenn":12036,"Ġbimari":12037,"appatiki":12038,"Ġproblems":12039,"Ġpossible":12040,"fes":12041,"mek":12042,"tyo":12043,"atva":12044,"Ġpage":12045,"Ġtula":12046,"Ġbite":12047,"Ġganj":12048,"utr":12049,"aponi":12050,"uses":12051,"maana":12052,"upai":12053,"Ġtourn":12054,"Ġnahune":12055,"anacha":12056,"hyanga":12057,"bhaag":12058,"Ġsakali":12059,"ĠAng":12060,"Ġaavas":12061,"Ġbalbal":12062,"pain":12063,"ĠHigh":12064,"Ġ67":12065,"Ġdurg":12066,"ikkayu":12067,"ĠEast":12068,"sarv":12069,"urthi":12070,"Ġbanks":12071,"ukiheen":12072,"Ġprakashak":12073,"Ġwithin":12074,"Ġromp":12075,"Ġabhiyoge":12076,"Ġprashanis":12077,"Ġbangabd":12078,"Ġeffect":12079,"Ġummedwaar":12080,"ĠIndian":12081,"Ġbaalako":12082,"rus":12083,"zing":12084,"alage":12085,"Ġdakk":12086,"erik":12087,"Ġguj":12088,"Ġrally":12089,"abal":12090,"Ġinte":12091,"Ġsaja":12092,"Ġdeh":12093,"Ġsemin":12094,"Ġasemb":12095,"Ġkoil":12096,"Ġhirol":12097,"Ġekatra":12098,"Ġbahan":12099,"Ġbadali":12100,"haayak":12101,"Ġthata":12102,"parmay":12103,"etty":12104,"Ġmudiy":12105,"Ġ2002":12106,"Ġpoty":12107,"Ġinterest":12108,"Ġdieven":12109,"Ġaatamak":12110,"Ġmanaya":12111,"Ġmahilaon":12112,"Ġlakshm":12113,"Ġkhatra":12114,"Ġtrib":12115,"Ġvrudd":12116,"Ġshatansh":12117,"ĠComment":12118,"Ġdodang":12119,"Ġkahinde":12120,"Ġcinemaku":12121,"Ġnileil":12122,"sarkaarle":12123,"Ġandhrapradesh":12124,"63":12125,"Be":12126,"RE":12127,"Ġkana":12128,"Ġais":12129,"Ġmim":12130,"amatra":12131,"Ġduvai":12132,"Ġnantar":12133,"eneral":12134,"akul":12135,"Ġjoli":12136,"Ġruj":12137,"Ġwaapas":12138,"Ġfichar":12139,"Ġrahati":12140,"Ġraste":12141,"Ġsaala":12142,"Ġeast":12143,"Ġashok":12144,"asthiti":12145,"Ġpacha":12146,"Ġpatick":12147,"uven":12148,"Ġpratidin":12149,"Ġagus":12150,"aagar":12151,"Ġhasinar":12152,"Ġpunarn":12153,"Ġgoott":12154,"airs":12155,"ottam":12156,"Ġcheshad":12157,"Ġsahaya":12158,"Ġbring":12159,"Ġappdet":12160,"Ġniji":12161,"vishesh":12162,"Ġanything":12163,"Ġvarshamaa":12164,"goàµ¾":12165,"Ġkasto":12166,"cono":12167,"Ġdhakka":12168,"Ġsamitiko":12169,"Ġutsav":12170,"Ġpratibedak":12171,"Ġmukaabale":12172,"gab":12173,"ght":12174,"nenu":12175,"Ġsere":12176,"Ġpaka":12177,"Ġpenn":12178,"ilrundhu":12179,"ikip":12180,"apni":12181,"Ġfam":12182,"Ġfati":12183,"Ġmajab":12184,"Ġpareshaan":12185,"Ġparmeshur":12186,"mauli":12187,"Ġvarge":12188,"Ġvayadu":12189,"ubb":12190,"Ġchhap":12191,"Ġmatrama":12192,"adian":12193,"Ġkament":12194,"Ġtaur":12195,"Ġspec":12196,"Ġgautam":12197,"Ġkharidi":12198,"Ġimpro":12199,"Ġnepalka":12200,"adaniki":12201,"ĠNewspaper":12202,"akshmi":12203,"Ġhayesil":12204,"Ġsimilar":12205,"Ġparishkar":12206,"Ġmanassil":12207,"Ġinvestigat":12208,"Ġudvodhan":12209,"Ġax":12210,"Ġaim":12211,"Ġminn":12212,"Ġjange":12213,"Ġlicense":12214,"Ġchick":12215,"Ġcrow":12216,"Ġkaranaya":12217,"Ġrich":12218,"elugu":12219,"ids":12220,"sthit":12221,"ajar":12222,"Ġteble":12223,"ankan":12224,"Ġaapyo":12225,"Ġmadam":12226,"Ġlagaaya":12227,"Ġakash":12228,"Ġdeshi":12229,"ĠObama":12230,"Ġemne":12231,"ukovada":12232,"Ġtumhen":12233,"Ġkhup":12234,"Ġlabhi":12235,"Ġmahinama":12236,"Ġwatat":12237,"Ġaste":12238,"awj":12239,"Ġclaim":12240,"Ġmanasaa":12241,"Ġreading":12242,"Ġbahumat":12243,"Ġannikall":12244,"Ġuchaaran":12245,"baa":12246,"eel":12247,"joke":12248,"Ġpheri":12249,"amathi":12250,"Ġdong":12251,"Ġned":12252,"adak":12253,"ither":12254,"erala":12255,"Ġjibi":12256,"Ġgend":12257,"Ġganga":12258,"order":12259,"Ġkarato":12260,"homa":12261,"Ġrip":12262,"edukk":12263,"aprak":12264,"andam":12265,"udin":12266,"olit":12267,"olic":12268,"Ġsaadhik":12269,"arkalin":12270,"bhaal":12271,"Ġupabhok":12272,"ĠSa":12273,"Ġmadhu":12274,"Ġrajnaitik":12275,"Ġbhim":12276,"Ġdekhakar":12277,"indian":12278,"Ġtyahan":12279,"Ġtirigi":12280,"Ġeto":12281,"Ġvibhaga":12282,"Ġpatrik":12283,"Ġnikali":12284,"Ġsapana":12285,"Ġcalvi":12286,"Ġdaawa":12287,"Ġvagere":12288,"Ġbiswa":12289,"Ġprakarani":12290,"Ġvyatirek":12291,"Ġchitranni":12292,"Ġakkuvaga":12293,"Ġjaherat":12294,"Ġshekharich":12295,"Ġdavite":12296,"Ġpowder":12297,"Ġpahonchi":12298,"Ġsmooh":12299,"vikipidia":12300,"dik":12301,"jane":12302,"kand":12303,"national":12304,"Ġsumar":12305,"Ġpers":12306,"Ġpaai":12307,"Ġtung":12308,"Ġdhu":12309,"Ġdhyan":12310,"Ġvani":12311,"adhana":12312,"Ġgus":12313,"ikcook":12314,"Ġanuv":12315,"ayane":12316,"umpoàµ¾":12317,"Ġrahit":12318,"Ġmaun":12319,"Ġnewa":12320,"Ġandaaj":12321,"Ġchaut":12322,"ugans":12323,"bhavan":12324,"Ġvarsaad":12325,"ems":12326,"Ġupadan":12327,"Ġjaha":12328,"Ġitani":12329,"saal":12330,"Ġperk":12331,"Ġpehla":12332,"Ġnammal":12333,"Ġ89":12334,"Ġshikaar":12335,"Ġbarf":12336,"Ġ98":12337,"Ġniyant":12338,"bdcom":12339,"Ġbheje":12340,"Ġyanch":12341,"Ġsavaar":12342,"Ġkhela":12343,"Ġsukhbir":12344,"Ġkshamata":12345,"punjabi":12346,"Ġjhadap":12347,"Ġpokharel":12348,"Ġcritic":12349,"Ġindustry":12350,"Ġcheyalani":12351,"Ġcomputur":12352,"ahi":12353,"cart":12354,"dilli":12355,"ninn":12356,"singh":12357,"amaan":12358,"Ġdest":12359,"Ġvair":12360,"Ġjut":12361,"Ġghay":12362,"Ġchote":12363,"ayela":12364,"andaar":12365,"Ġrahyan":12366,"Ġteji":12367,"Ġarai":12368,"Ġdaha":12369,"Ġbachat":12370,"Ġrefer":12371,"ĠSchool":12372,"yancha":12373,"Ġmathi":12374,"Ġkalag":12375,"yamal":12376,"Ġswabha":12377,"Ġbhid":12378,"Ġpurya":12379,"Ġrakta":12380,"Ġtatkaal":12381,"Ġmulaz":12382,"hnaa":12383,"Ġdeshko":12384,"atoon":12385,"Ġpurav":12386,"Ġlieko":12387,"Ġavaru":12388,"doot":12389,"Ġsaache":12390,"Ġdekhko":12391,"Ġashupatri":12392,"Ġmaharashtr":12393,"Ġnirvachanamaa":12394,"Ġasafal":12395,"Ġprachur":12396,"Ġprotsa":12397,"Ġrahamaner":12398,"Ġprithvi":12399,"khani":12400,"ny":12401,"otion":12402,"tele":12403,"word":12404,"Ġkaje":12405,"Ġkenter":12406,"Ġmunnu":12407,"raji":12408,"untar":12409,"Ġjatil":12410,"Ġgali":12411,"irn":12412,"ulkar":12413,"Ġfle":12414,"Ġrasta":12415,"aged":12416,"Ġdimag":12417,"aneey":12418,"kaya":12419,"Ġsaro":12420,"Ġlagia":12421,"Ġpratikar":12422,"yasam":12423,"prakash":12424,"ĠNEWS":12425,"Ġperuto":12426,"etii":12427,"Ġworks":12428,"Ġkuthe":12429,"Ġeduti":12430,"Ġbhavana":12431,"ontinue":12432,"Ġnagars":12433,"Ġariitu":12434,"Ġchatur":12435,"Ġsomeone":12436,"Ġughad":12437,"Ġnicksute":12438,"Ġapadet":12439,"Ġshrenee":12440,"Ġtwachaa":12441,"Ġgyankosh":12442,"lele":12443,"Ġpel":12444,"yastai":12445,"asah":12446,"ention":12447,"Ġchhed":12448,"Ġkaralan":12449,"ukoni":12450,"tian":12451,"Ġprajat":12452,"naat":12453,"Ġadhid":12454,"Ġpadak":12455,"ĠMad":12456,"kaash":12457,"thrund":12458,"Ġlagda":12459,"ĠTra":12460,"Ġmean":12461,"hran":12462,"iraj":12463,"Ġdekun":12464,"Ġjaaenge":12465,"ĠDi":12466,"Ġtaaki":12467,"Ġpakk":12468,"Ġmilada":12469,"Ġdeshal":12470,"Ġdivya":12471,"Ġgarnuparch":12472,"Ġpashe":12473,"Ġpuraatan":12474,"Ġdenge":12475,"Ġfilms":12476,"Ġockk":12477,"Ġmelum":12478,"Ġlakshye":12479,"Ġvigat":12480,"Ġkathor":12481,"dinto":12482,"Ġsernt":12483,"tyastai":12484,"umayana":12485,"Ġpoorv":12486,"Ġsaadhaaran":12487,"Ġlatsam":12488,"Ġtangas":12489,"Ġtype":12490,"Ġasirier":12491,"Ġcareer":12492,"Ġnaveenatam":12493,"Ġjihda":12494,"Ġparichalak":12495,"Ġmushkil":12496,"Ġdoesnt":12497,"Ġkirapa":12498,"Ġventne":12499,"shukra":12500,"52":12501,"fy":12502,"kho":12503,"lone":12504,"power":12505,"wars":12506,"chet":12507,"hita":12508,"raja":12509,"Ġnavar":12510,"Ġjh":12511,"Ġgab":12512,"aida":12513,"usands":12514,"ication":12515,"Ġhairaan":12516,"Ġstates":12517,"Ġatine":12518,"Ġbaccha":12519,"indai":12520,"Ġaman":12521,"Ġabs":12522,"Ġbharter":12523,"ĠMichael":12524,"Ġsaru":12525,"Ġmarana":12526,"paadan":12527,"Ġnamma":12528,"Ġbato":12529,"matra":12530,"Ġtyahi":12531,"Ġtyaane":12532,"Ġsuvar":12533,"Ġmantriparishad":12534,"valu":12535,"rates":12536,"Ġparisar":12537,"Ġayurved":12538,"Ġchhora":12539,"ulture":12540,"Ġuntai":12541,"Ġsmartphon":12542,"Ġletter":12543,"ukkihar":12544,"pramane":12545,"Ġvidhaic":12546,"Ġmicro":12547,"ireddi":12548,"Ġbottle":12549,"Ġswabhavik":12550,"Ġtareeke":12551,"Ġaadhyatmik":12552,"58":12553,"bit":12554,"kim":12555,"Ġsell":12556,"Ġkantu":12557,"Ġkshat":12558,"Ġnast":12559,"Ġlay":12560,"aies":12561,"Ġhakk":12562,"edy":12563,"Ġbhashal":12564,"reg":12565,"Ġchaali":12566,"Ġkaani":12567,"isted":12568,"Ġaapo":12569,"Ġrepe":12570,"Ġthapa":12571,"uchu":12572,"Ġkamjor":12573,"Ġbhidi":12574,"Ġkatak":12575,"Ġexecut":12576,"pton":12577,"Ġkhus":12578,"Ġvyavasthapana":12579,"Ġtapaain":12580,"Ġmatter":12581,"Ġvaarshik":12582,"Ġmilegaa":12583,"Ġdaabi":12584,"Ġsahakaari":12585,"Ġneeded":12586,"istrict":12587,"Ġinjuries":12588,"Ġbatamyansaathi":12589,"internet":12590,"Ġprayojanian":12591,"Ġmhatle":12592,"ospital":12593,"Ġparticular":12594,"Ġcontact":12595,"Ġkarwaun":12596,"07":12597,"bhal":12598,"jamm":12599,"uhan":12600,"Ġpiv":12601,"inna":12602,"alni":12603,"Ġbench":12604,"Ġdhum":12605,"asing":12606,"Ġkarut":12607,"ayta":12608,"Ġparamp":12609,"upchaar":12610,"Ġintr":12611,"Ġholi":12612,"Ġadiv":12613,"yaku":12614,"Ġgarchan":12615,"Ġgaroune":12616,"iganj":12617,"Ġbehaal":12618,"Ġready":12619,"Ġrehindi":12620,"Ġnirmit":12621,"Ġmadhur":12622,"Ġsakriy":12623,"ija":12624,"Ġusko":12625,"ĠPresident":12626,"ĠBo":12627,"Ġkatale":12628,"Ġkarechi":12629,"ĠLive":12630,"Ġshop":12631,"ĠHy":12632,"eph":12633,"Ġkonatyaahi":12634,"Ġ02":12635,"Ġshandaar":12636,"ashtrapati":12637,"Ġerpad":12638,"Ġmakes":12639,"Ġdhaaran":12640,"Ġmitro":12641,"Ġquarter":12642,"Ġaases":12643,"uestion":12644,"Ġmahasang":12645,"Ġsamudra":12646,"Ġvetali":12647,"Ġhafate":12648,"Ġmahendra":12649,"NU":12650,"chata":12651,"lap":12652,"vaay":12653,"zat":12654,"Ġsetting":12655,"athir":12656,"Ġmantra":12657,"Ġbant":12658,"Ġnank":12659,"itul":12660,"onse":12661,"akara":12662,"Ġjamaa":12663,"aayat":12664,"Ġcheti":12665,"Ġcendari":12666,"Ġkarad":12667,"tidin":12668,"mahila":12669,"Ġtomader":12670,"Ġyudd":12671,"Ġneer":12672,"Ġgara":12673,"bhash":12674,"Ġbahubali":12675,"Ġunch":12676,"Ġupkar":12677,"Ġjaakar":12678,"Ġnirma":12679,"Ġbadhyat":12680,"ubai":12681,"Ġkamans":12682,"Ġkathith":12683,"Ġvalart":12684,"ĠDelhi":12685,"bandhu":12686,"Ġnamuk":12687,"Ġdarun":12688,"Ġ68":12689,"Ġextra":12690,"Ġwhose":12691,"Ġkontr":12692,"Ġteru":12693,"Ġphirta":12694,"Ġkilaaf":12695,"Ġcheitat":12696,"Ġshukrabaar":12697,"Ġlamba":12698,"Ġtiares":12699,"ĠOneindia":12700,"AC":12701,"hma":12702,"kaj":12703,"sav":12704,"yuk":12705,"Ġbie":12706,"Ġdeng":12707,"yache":12708,"itha":12709,"enic":12710,"onald":12711,"iles":12712,"Ġcigar":12713,"umennu":12714,"Ġmache":12715,"Ġpraani":12716,"Ġsac":12717,"Ġsaheb":12718,"Ġbhaen":12719,"Ġadyam":12720,"Ġyaun":12721,"ramantri":12722,"ĠAP":12723,"tober":12724,"Ġuhan":12725,"Ġrock":12726,"meeru":12727,"madhyam":12728,"Ġsurendra":12729,"Ġdwip":12730,"Ġparivahan":12731,"Ġgarnubhayo":12732,"Ġfinan":12733,"Ġ1984":12734,"Ġudaharan":12735,"Acc":12736,"bre":12737,"gane":12738,"tis":12739,"vumai":12740,"atik":12741,"Ġtond":12742,"Ġdidhi":12743,"Ġvesi":12744,"erous":12745,"Ġchris":12746,"elves":12747,"inga":12748,"upti":12749,"Ġtouch":12750,"Ġasab":12751,"Ġamp":12752,"osing":12753,"Ġrecover":12754,"ĠCamer":12755,"Ġpanam":12756,"Ġsway":12757,"Ġswanta":12758,"ustak":12759,"Ġdinubhayo":12760,"Ġpeyar":12761,"ĠHol":12762,"Ġangare":12763,"Ġnarendar":12764,"Ġvandatu":12765,"Ġchakri":12766,"Ġmahatvach":12767,"Ġkshetrako":12768,"Ġhumesha":12769,"sonic":12770,"Ġtotal":12771,"Ġpudhil":12772,"Ġfloor":12773,"Ġaustrailia":12774,"Ġchicint":12775,"Ġovvoru":12776,"budhwar":12777,"Ġvishwagiankoshvikipidia":12778,"alifornia":12779,"Ġpahchaan":12780,"ucha":12781,"Ġbhik":12782,"ishe":12783,"aayan":12784,"oro":12785,"Ġochhi":12786,"Ġsahaayak":12787,"Ġhoun":12788,"Ġekun":12789,"Ġstesan":12790,"Ġpaint":12791,"Ġvarshik":12792,"ĠiP":12793,"haaz":12794,"Ġavritu":12795,"Ġsarvan":12796,"Ġsangra":12797,"Ġkaregaa":12798,"inchandi":12799,"Ġtrade":12800,"Ġprasann":12801,"Ġthakun":12802,"Ġ2001":12803,"Ġfebru":12804,"Ġdhang":12805,"Ġentry":12806,"yankar":12807,"Ġindira":12808,"Ġpokhara":12809,"Ġhospitale":12810,"amenne":12811,"Ġsamudr":12812,"Ġbhumi":12813,"grast":12814,"Ġchampion":12815,"Ġholiday":12816,"Ġshahrukh":12817,"Ġkhulaasa":12818,"Ex":12819,"Ġtana":12820,"chun":12821,"Ġbow":12822,"ekad":12823,"ukup":12824,"Ġprots":12825,"Ġandu":12826,"nae":12827,"arkal":12828,"Ġdafatar":12829,"Ġenc":12830,"Ġorgan":12831,"Ġapil":12832,"Ġnirvaachit":12833,"ansah":12834,"ppar":12835,"Ġmukho":12836,"Ġcharity":12837,"Ġ800":12838,"Ġlaut":12839,"Ġdeshaa":12840,"Ġexc":12841,"Ġilaj":12842,"aapnar":12843,"aadhi":12844,"Ġcapital":12845,"Ġpitich":12846,"Ġfootage":12847,"irikunnat":12848,"kerala":12849,"Ġparisthite":12850,"vishwa":12851,"Ġarrived":12852,"Ġprachara":12853,"vernment":12854,"Ġsaanskrit":12855,"Ġavashyap":12856,"Ġsamaapt":12857,"Ġvigyapan":12858,"Ġbeauty":12859,"ĠMinister":12860,"Ġdisease":12861,"Ġpraseent":12862,"Ms":12863,"dars":12864,"kta":12865,"ooni":12866,"saar":12867,"wand":12868,"arul":12869,"Ġsare":12870,"Ġsong":12871,"Ġtennis":12872,"Ġlave":12873,"Ġhaq":12874,"Ġrabi":12875,"Ġec":12876,"Ġeconom":12877,"osari":12878,"Ġvidyu":12879,"Ġpadm":12880,"Ġpadavi":12881,"Ġpadhai":12882,"Ġavatar":12883,"Ġtakaar":12884,"ĠTop":12885,"Ġswayan":12886,"elect":12887,"Ġdoven":12888,"purush":12889,"Ġrohit":12890,"Ġlaagle":12891,"Ġlaagne":12892,"Ġmilte":12893,"Ġweight":12894,"padam":12895,"Ġkhann":12896,"jema":12897,"Ġpaste":12898,"Ġbhavy":12899,"Ġpuraani":12900,"Ġmelvi":12901,"Ġkhubasurat":12902,"Ġchetav":12903,"Ġadhyapak":12904,"Ġkidikum":12905,"Ġchihn":12906,"Ġsahayya":12907,"Ġmalayali":12908,"Ġsamasyal":12909,"Ġfailed":12910,"Ġmeeting":12911,"Ġrelationship":12912,"Ġkataleam":12913,"awaadee":12914,"but":12915,"blog":12916,"ddi":12917,"tusin":12918,"vent":12919,"habar":12920,"Ġkhila":12921,"ature":12922,"Ġactor":12923,"Ġbhon":12924,"itta":12925,"asin":12926,"Ġjyoti":12927,"ukalil":12928,"ukashmir":12929,"ums":12930,"aber":12931,"Ġmaara":12932,"Ġparichit":12933,"upok":12934,"Ġandh":12935,"Ġpurti":12936,"Ġsharif":12937,"ardaar":12938,"shipt":12939,"dhanya":12940,"Ġvirumb":12941,"padu":12942,"ikalam":12943,"Ġbheed":12944,"Ġtisukunn":12945,"Ġkendr":12946,"pratik":12947,"Ġbuudhvaar":12948,"Ġjethi":12949,"Ġsamudaay":12950,"ĠScot":12951,"edding":12952,"Ġpravidhi":12953,"ĠPaul":12954,"Ġanudaan":12955,"Ġpravaktaa":12956,"Ġprotsaa":12957,"shir":12958,"ypi":12959,"Ġsister":12960,"enes":12961,"Ġjakh":12962,"ikir":12963,"Ġchori":12964,"avati":12965,"abd":12966,"icchu":12967,"Ġprava":12968,"Ġeme":12969,"Ġofer":12970,"Ġadhar":12971,"Ġsanshl":12972,"Ġitin":12973,"ĠMy":12974,"Ġmarat":12975,"Ġaff":12976,"Ġsharab":12977,"lies":12978,"unnatinu":12979,"ĠEn":12980,"Ġhaju":12981,"abhave":12982,"Ġcomplet":12983,"ngàµ¾":12984,"phor":12985,"Ġcheiyan":12986,"amadhye":12987,"Ġmenejament":12988,"Ġcontract":12989,"Ġsaanskrithik":12990,"No":12991,"Tube":12992,"kath":12993,"pri":12994,"wang":12995,"Ġsile":12996,"hene":12997,"unka":12998,"ituk":12999,"ikkar":13000,"Ġkarud":13001,"Ġkarayla":13002,"ulation":13003,"Ġfra":13004,"Ġkimat":13005,"Ġkimi":13006,"neey":13007,"Ġdio":13008,"Ġdiwali":13009,"esht":13010,"Ġaapli":13011,"Ġshahad":13012,"Ġforces":13013,"yamdhye":13014,"seva":13015,"agarh":13016,"Ġsoon":13017,"Ġshari":13018,"Ġtammil":13019,"Ġpakshi":13020,"Ġdisplay":13021,"Ġ76":13022,"Ġyaacha":13023,"chala":13024,"Ġbarn":13025,"march":13026,"Ġjeevit":13027,"Ġsansk":13028,"Ġthod":13029,"Ġ04":13030,"ivarum":13031,"Ġgunas":13032,"Ġkapade":13033,"Ġjagad":13034,"Ġpremium":13035,"Ġanumat":13036,"Ġnimn":13037,"Ġadhikarulu":13038,"Ġghetale":13039,"Ġcaught":13040,"Ġgrifatar":13041,"Ġmunduku":13042,"Ġthapale":13043,"Ġsatiguru":13044,"vyavastha":13045,"Ġsrilanka":13046,"Ġbaaju":13047,"Ġtrophy":13048,"Ġvishvavidhyalay":13049,"Ġtournament":13050,"Ġpunarnir":13051,"navi":13052,"yot":13053,"Ġsijan":13054,"Ġpeni":13055,"unj":13056,"Ġjhun":13057,"Ġgeli":13058,"Ġkarto":13059,"Ġrunning":13060,"agal":13061,"Ġmausam":13062,"anter":13063,"ugan":13064,"Ġisaki":13065,"Ġsanman":13066,"endran":13067,"ĠMark":13068,"viya":13069,"ĠAustralian":13070,"Ġpratist":13071,"Ġdarid":13072,"Ġwearing":13073,"coming":13074,"vues":13075,"Ġyouth":13076,"board":13077,"llen":13078,"Ġrojgaar":13079,"Ġuruv":13080,"Ġtask":13081,"Ġsomvaar":13082,"Ġmangalvaar":13083,"Ġgulab":13084,"vayn":13085,"Ġkorik":13086,"Ġservices":13087,"ĠOffice":13088,"photo":13089,"Ġavashyai":13090,"Ġcrime":13091,"Ġpragate":13092,"Ġtaiyaari":13093,"Ġavailable":13094,"Ġamychare":13095,"Ġteacher":13096,"Ġpradarshn":13097,"aak":13098,"div":13099,"guli":13100,"pn":13101,"Ġale":13102,"Ġazaadi":13103,"Ġbhin":13104,"Ġninda":13105,"Ġnurs":13106,"Ġlit":13107,"utund":13108,"Ġrant":13109,"Ġraati":13110,"idal":13111,"Ġmahit":13112,"Ġmahis":13113,"otam":13114,"Ġyeta":13115,"Ġdipti":13116,"aanchya":13117,"Ġbhada":13118,"Ġbhaagaat":13119,"ugalil":13120,"Ġatyadhik":13121,"Ġjanag":13122,"Ġkhade":13123,"bahut":13124,"Ġthats":13125,"Ġdekhinch":13126,"Ġroya":13127,"inchya":13128,"Ġ66":13129,"Ġkanuk":13130,"Ġishwar":13131,"Ġghatak":13132,"Ġniyama":13133,"Ġkavits":13134,"angladesher":13135,"Ġwaalon":13136,"obile":13137,"Ġrashtral":13138,"Ġvatavaran":13139,"Ġtayyar":13140,"Ġaatma":13141,"Ġniravadhi":13142,"Ġchunavi":13143,"ĠState":13144,"Ġsoldi":13145,"Ġcause":13146,"hinchindi":13147,"ĠIslam":13148,"Ġvaqail":13149,"Ġtidipi":13150,"COM":13151,"pare":13152,"wama":13153,"arl":13154,"hacha":13155,"Ġmes":13156,"Ġbran":13157,"Ġdish":13158,"unchan":13159,"Ġlabha":13160,"aiv":13161,"Ġanant":13162,"Ġanatu":13163,"Ġkarutu":13164,"Ġflu":13165,"Ġoral":13166,"akook":13167,"paty":13168,"Ġalok":13169,"Ġrajyam":13170,"Ġmatlab":13171,"Ġlagaai":13172,"Ġkamgiri":13173,"ĠIve":13174,"Ġdharma":13175,"ĠHospital":13176,"Ġbaser":13177,"Ġdeshon":13178,"Ġjaane":13179,"Ġedudd":13180,"airik":13181,"llar":13182,"Ġimran":13183,"Ġkapil":13184,"Ġsansthal":13185,"skeey":13186,"Ġrecently":13187,"Ġcontinue":13188,"Ġcheyya":13189,"Ġjiske":13190,"Ġcount":13191,"Ġpublik":13192,"Ġsambandhma":13193,"Ġgoodadhu":13194,"Ġtwitor":13195,"Ġjaniech":13196,"Ġtakhavals":13197,"Ġmanoranjan":13198,"Ġsamvidhana":13199,"Ġmalyalattil":13200,"company":13201,"While":13202,"dhaan":13203,"fale":13204,"gav":13205,"gujarati":13206,"kee":13207,"phul":13208,"ser":13209,"sut":13210,"tor":13211,"Ġdetii":13212,"itva":13213,"Ġoop":13214,"maha":13215,"Ġinqu":13216,"Ġdeuv":13217,"Ġbhaare":13218,"Ġaslu":13219,"Ġchaan":13220,"Ġgarirheka":13221,"Ġatishay":13222,"oppa":13223,"Ġisai":13224,"Ġvaishisht":13225,"kaàµ¼":13226,"patir":13227,"Ġusde":13228,"Ġusers":13229,"Ġushup":13230,"panish":13231,"bazar":13232,"iras":13233,"parak":13234,"ĠGujarat":13235,"Ġshikait":13236,"ikkaa":13237,"engers":13238,"samay":13239,"Ġajun":13240,"Ġ10000":13241,"Ġgreek":13242,"Ġcheiyuk":13243,"Ġposition":13244,"Ġfasal":13245,"canada":13246,"Ġlidhe":13247,"Ġparichayam":13248,"Some":13249,"fs":13250,"jA":13251,"tine":13252,"Ġhik":13253,"Ġsunn":13254,"Ġkick":13255,"alok":13256,"Ġkaryas":13257,"Ġkaravaa":13258,"apaya":13259,"ivet":13260,"shm":13261,"Ġsaura":13262,"Ġdeun":13263,"ishchit":13264,"Ġchadan":13265,"Ġshaanti":13266,"haaharan":13267,"Ġavkash":13268,"Ġrajshahi":13269,"ppati":13270,"Ġtonni":13271,"Ġbhide":13272,"Ġuc":13273,"Ġsoo":13274,"Ġgoogle":13275,"Ġbandar":13276,"Ġvikri":13277,"ĠWhite":13278,"Ġgurs":13279,"Ġdesk":13280,"ĠEl":13281,"Ġilanti":13282,"Ġkono":13283,"Ġgalti":13284,"Ġnagarpalik":13285,"atinal":13286,"inchad":13287,"Ġnabi":13288,"Ġassiv":13289,"Ġfesti":13290,"ocke":13291,"Ġbipakshe":13292,"Ġmoondau":13293,"Ġthaleko":13294,"Ġauthorities":13295,"Ġshuukravaar":13296,"anjeevi":13297,"ahin":13298,"kins":13299,"maran":13300,"sos":13301,"west":13302,"xum":13303,"yit":13304,"Ġsij":13305,"Ġphel":13306,"Ġtrak":13307,"Ġmuti":13308,"Ġbrak":13309,"raar":13310,"yahaan":13311,"asher":13312,"online":13313,"Ġgk":13314,"Ġguta":13315,"ekat":13316,"Ġrut":13317,"Ġwak":13318,"angane":13319,"rie":13320,"shv":13321,"Ġchaalak":13322,"hyana":13323,"Ġaram":13324,"huun":13325,"Ġyaj":13326,"Ġamma":13327,"roup":13328,"Ġpadiv":13329,"Ġfore":13330,"Ġthati":13331,"Ġtaraan":13332,"Ġshakashe":13333,"Ġpey":13334,"Ġnampik":13335,"Ġkanunn":13336,"Ġnasha":13337,"Ġcheria":13338,"face":13339,"Ġbaitha":13340,"Ġmessage":13341,"Ġkhubi":13342,"Ġsaajha":13343,"tyaanantar":13344,"Ġirindhal":13345,"Ġchallenge":13346,"Ġlyoun":13347,"Ġashanka":13348,"Ġkarttik":13349,"down":13350,"een":13351,"gelya":13352,"Ġmikk":13353,"Ġborn":13354,"unke":13355,"esada":13356,"Ġkaraave":13357,"Ġow":13358,"Ġparati":13359,"Ġinkaar":13360,"Ġasati":13361,"entu":13362,"Ġens":13363,"Ġmanmohan":13364,"shastra":13365,"alaat":13366,"Ġvidd":13367,"Ġaver":13368,"ibaat":13369,"Ġmadhav":13370,"ppan":13371,"Ġagun":13372,"Ġirunnu":13373,"Ġprakria":13374,"Ġudavi":13375,"Ġrahela":13376,"Ġlack":13377,"Ġkututàµ½":13378,"Ġmudl":13379,"Ġbolaa":13380,"Ġantunnar":13381,"dohi":13382,"Ġlakshyam":13383,"virudh":13384,"Ġsombaar":13385,"Ġmilegi":13386,"Ġjastai":13387,"Ġcorpor":13388,"Ġshetakayan":13389,"Ġinjury":13390,"Ġgovernor":13391,"inchalani":13392,"Ġaashcharya":13393,"Ġsicipu":13394,"Ġsalah":13395,"Ġpadhein":13396,"Ġvabbi":13397,"ĠWilliams":13398,"lympic":13399,"Ġpaadate":13400,"upchaarik":13401,"98":13402,"My":13403,"Question":13404,"gand":13405,"Ġkhya":13406,"inum":13407,"alone":13408,"Ġaach":13409,"Ġmush":13410,"Ġdher":13411,"raib":13412,"asion":13413,"Ġjhuk":13414,"aiàµ½":13415,"ekon":13416,"Ġkaragar":13417,"irat":13418,"tipp":13419,"Ġnehru":13420,"rem":13421,"okke":13422,"Ġstab":13423,"Ġstudi":13424,"shama":13425,"endriya":13426,"Ġutaar":13427,"oju":13428,"Ġkalyaan":13429,"Ġuchi":13430,"hrut":13431,"Ġvalar":13432,"Ġdisap":13433,"rakh":13434,"Ġexne":13435,"Ġjevu":13436,"ĠNext":13437,"vachh":13438,"Ġimpress":13439,"Ġvancho":13440,"Ġkotha":13441,"Ġwarned":13442,"Ġtable":13443,"Ġvrutt":13444,"Ġkhulaa":13445,"Ġrather":13446,"Ġjatisang":13447,"rahman":13448,"Ġshowing":13449,"Ġeverything":13450,"Ġprerana":13451,"Ġpariwarer":13452,"Ġlonch":13453,"urangabad":13454,"ĠYouTube":13455,"Ġcheyadaniki":13456,"ĠArsenal":13457,"LU":13458,"kana":13459,"mura":13460,"nings":13461,"uchi":13462,"wich":13463,"Ġaip":13464,"Ġmong":13465,"Ġbillion":13466,"Ġnannu":13467,"aday":13468,"onesia":13469,"Ġlidhi":13470,"orum":13471,"Ġkich":13472,"aancha":13473,"Ġkaayad":13474,"Ġitaly":13475,"Ġvaat":13476,"Ġpadma":13477,"areet":13478,"Ġmaryaada":13479,"Ġhanga":13480,"Ġmeans":13481,"Ġvishyati":13482,"Ġperkon":13483,"Ġpratipad":13484,"Ġedadi":13485,"tics":13486,"ayatka":13487,"Ġpenichu":13488,"Ġraahul":13489,"Ġaagami":13490,"Ġcriminal":13491,"Ġchoree":13492,"Ġkuiandai":13493,"Ġtippani":13494,"Ġtathya":13495,"ĠFrench":13496,"Ġnivarnoo":13497,"Ġfadanvis":13498,"Ġviakatia":13499,"MS":13500,"jin":13501,"mrit":13502,"party":13503,"rine":13504,"wap":13505,"Ġaasha":13506,"akiya":13507,"Ġcit":13508,"hood":13509,"ukai":13510,"Ġmauka":13511,"Ġparava":13512,"Ġpraatham":13513,"Ġtoh":13514,"Ġaahot":13515,"ipin":13516,"Ġbail":13517,"Ġjanadhi":13518,"Ġjaisi":13519,"Ġaapani":13520,"Ġshail":13521,"Ġavo":13522,"ĠSir":13523,"htine":13524,"shetra":13525,"baas":13526,"pared":13527,"Ġharie":13528,"hasik":13529,"Ġgoals":13530,"chali":13531,"Ġsafai":13532,"rated":13533,"Ġbaadhya":13534,"Ġaatam":13535,"takshan":13536,"Ġbrain":13537,"Ġjathedaar":13538,"Ġtolg":13539,"Ġraakhe":13540,"swast":13541,"Ġcollection":13542,"Ġvikipedi":13543,"ĠQue":13544,"Ġparajeet":13545,"Ġaustra":13546,"Ġammelye":13547,"Ġprenam":13548,"ĠViews":13549,"gent":13550,"oft":13551,"sri":13552,"Ġpension":13553,"inir":13554,"Ġtine":13555,"chary":13556,"Ġahm":13557,"Ġbast":13558,"Ġdhakar":13559,"Ġvots":13560,"erve":13561,"esam":13562,"Ġlondon":13563,"lege":13564,"Ġhect":13565,"Ġnaak":13566,"Ġaahar":13567,"Ġadr":13568,"ipati":13569,"alah":13570,"alayas":13571,"Ġlagel":13572,"Ġsangtaan":13573,"Ġswikari":13574,"ĠBl":13575,"aranu":13576,"Ġadhikshe":13577,"Ġvirat":13578,"Ġ84":13579,"Ġplate":13580,"Ġrahim":13581,"shakar":13582,"Ġthodaa":13583,"Ġdevyar":13584,"Ġkapi":13585,"Ġulag":13586,"Ġbankley":13587,"Ġannad":13588,"Ġsuba":13589,"Ġmahatma":13590,"Ġanyone":13591,"Ġyasri":13592,"Ġmahasoos":13593,"Ġpaarit":13594,"Ġsharuat":13595,"protidin":13596,"Ġhaadasa":13597,"Ġjanatako":13598,"Ġjimmevary":13599,"Ġpublikesan":13600,"IV":13601,"OR":13602,"cement":13603,"dad":13604,"mate":13605,"Ġksaa":13606,"Ġbachi":13607,"Ġdarkaar":13608,"akhil":13609,"isah":13610,"Ġjangal":13611,"Ġchune":13612,"avind":13613,"etha":13614,"Ġsamak":13615,"Ġindhan":13616,"hattu":13617,"shyal":13618,"Ġyeman":13619,"Ġhoni":13620,"hikk":13621,"alled":13622,"Ġstru":13623,"Ġpaath":13624,"Ġvargal":13625,"emi":13626,"Ġthava":13627,"Ġpratid":13628,"Ġhanm":13629,"Ġswim":13630,"àµ¼n":13631,"Ġaavd":13632,"Ġpuree":13633,"Ġakhar":13634,"Ġbalan":13635,"Ġsatark":13636,"Ġlekho":13637,"Ġherself":13638,"badprotidin":13639,"Ġvirus":13640,"Ġlahir":13641,"Ġscindia":13642,"ĠInst":13643,"Ġkism":13644,"inchai":13645,"Ġashram":13646,"Ġwatate":13647,"Ġsrust":13648,"Ġpahunche":13649,"Ġdikhaa":13650,"Ġsexual":13651,"Ġchikisa":13652,"basite":13653,"Ġmazab":13654,"Ġbelieves":13655,"Ġsnehit":13656,"Ġrachna":13657,"Ġchitraniki":13658,"Ġaspataalama":13659,"ĠChannel":13660,"Ġaasaani":13661,"Ġzimewar":13662,"Ġyahowah":13663,"ax":13664,"june":13665,"lon":13666,"lete":13667,"nek":13668,"rar":13669,"wen":13670,"hah":13671,"havan":13672,"Ġtata":13673,"Ġched":13674,"apram":13675,"Ġmaaro":13676,"Ġoundi":13677,"inger":13678,"Ġpravaas":13679,"Ġhethal":13680,"Ġhok":13681,"Ġeye":13682,"Ġarvind":13683,"ipra":13684,"bhaar":13685,"indatu":13686,"hamantri":13687,"ĠCor":13688,"Ġusdi":13689,"Ġtarat":13690,"Ġagho":13691,"Ġkaman":13692,"Ġkatar":13693,"Ġkatam":13694,"ickle":13695,"Ġsatat":13696,"Ġshod":13697,"ĠRed":13698,"iveu":13699,"Ġgaadi":13700,"anjay":13701,"Ġmaaya":13702,"Ġdrushya":13703,"marfat":13704,"Ġtrail":13705,"Ġsansari":13706,"Ġcarried":13707,"Ġmudal":13708,"Ġganit":13709,"Ġwantam":13710,"Ġjabaki":13711,"Ġquality":13712,"Ġmayer":13713,"Ġpachhillo":13714,"Ġpaven":13715,"Ġsutara":13716,"irikunn":13717,"Ġpictures":13718,"ukuntu":13719,"Ġpratinidhis":13720,"Ġexperience":13721,"Ġfariyaad":13722,"Ġassault":13723,"kshan":13724,"mb":13725,"pid":13726,"Ġsv":13727,"Ġsold":13728,"inam":13729,"Ġturai":13730,"Ġment":13731,"rao":13732,"Ġnom":13733,"Ġvote":13734,"itya":13735,"Ġjayanti":13736,"ilil":13737,"Ġsamyer":13738,"Ġyata":13739,"Ġsepar":13740,"Ġdib":13741,"aanon":13742,"hyath":13743,"Ġstores":13744,"arke":13745,"Ġgarbh":13746,"ĠMumbai":13747,"Ġsarkkar":13748,"Ġbalak":13749,"Ġhissaa":13750,"hns":13751,"Ġmalyo":13752,"Ġsmriti":13753,"kaahi":13754,"rapy":13755,"Ġsimit":13756,"Ġillamal":13757,"Ġmikhat":13758,"Ġbanaaeko":13759,"Ġbroad":13760,"ĠMarathi":13761,"Ġthayela":13762,"Ġcertain":13763,"ĠHouse":13764,"Ġmahattvach":13765,"Ġannounced":13766,"Ġcartoon":13767,"Ġvaanijya":13768,"03":13769,"Downloads":13770,"wada":13771,"hain":13772,"hase":13773,"Ġsave":13774,"Ġkushi":13775,"Ġkripaya":13776,"Ġdura":13777,"Ġny":13778,"Ġjataat":13779,"Ġgift":13780,"umund":13781,"antt":13782,"Ġprash":13783,"riwal":13784,"Ġprit":13785,"Ġprarthi":13786,"odara":13787,"veer":13788,"allah":13789,"Ġmannia":13790,"Ġremains":13791,"Ġpadataa":13792,"viet":13793,"Ġsakeko":13794,"Ġalav":13795,"Ġsangita":13796,"ranu":13797,"Ġpanich":13798,"Ġrahech":13799,"Ġshoshan":13800,"Ġvirudh":13801,"Ġmothi":13802,"Ġnalugu":13803,"Ġcentrian":13804,"Ġdenar":13805,"Ġbheti":13806,"Ġnertil":13807,"Ġghadi":13808,"Ġkirtan":13809,"Ġsattam":13810,"Ġbattle":13811,"Ġhiroga":13812,"Ġjungle":13813,"56":13814,"Last":13815,"krishna":13816,"yright":13817,"à§":13818,"anath":13819,"Ġsed":13820,"Ġsede":13821,"Ġsekhane":13822,"Ġmaage":13823,"rahi":13824,"Ġchind":13825,"Ġrukh":13826,"Ġreta":13827,"agaar":13828,"Ġsaaman":13829,"Ġsthana":13830,"yake":13831,"Ġyav":13832,"oper":13833,"Ġkaya":13834,"isters":13835,"Ġpadaad":13836,"Ġbhare":13837,"Ġharm":13838,"Ġrahegi":13839,"dhanjali":13840,"akarm":13841,"Ġplot":13842,"Ġtelugu":13843,"Ġalla":13844,"Ġkadaaya":13845,"kalu":13846,"Ġsiem":13847,"Ġawk":13848,"Ġsthanak":13849,"rican":13850,"Ġvalld":13851,"Ġaslele":13852,"Ġsanchalit":13853,"Ġleading":13854,"Ġvyavahaar":13855,"Ġsoftware":13856,"Ġromantic":13857,"Ġbaktavya":13858,"TC":13859,"lekh":13860,"Ġsek":13861,"Ġsits":13862,"aluku":13863,"Ġtaap":13864,"amud":13865,"Ġnikk":13866,"Ġvaap":13867,"Ġjite":13868,"iling":13869,"Ġkarar":13870,"Ġrish":13871,"ulal":13872,"ukqup":13873,"anduke":13874,"Ġfung":13875,"abich":13876,"Ġinsp":13877,"riyat":13878,"Ġpred":13879,"Ġprog":13880,"Ġneenru":13881,"chap":13882,"arts":13883,"Ġabuse":13884,"Ġavasi":13885,"Ġkalatil":13886,"ĠTo":13887,"Ġvech":13888,"Ġkamun":13889,"ĠBlog":13890,"àµ¼m":13891,"Ġconne":13892,"yogya":13893,"Ġchalak":13894,"akaat":13895,"Ġtahamaa":13896,"Ġcharyal":13897,"Ġkrishak":13898,"Ġshanivar":13899,"Ġnikaay":13900,"Ġpenal":13901,"Ġvinamul":13902,"Ġquite":13903,"Ġflat":13904,"Ġcontent":13905,"Ġkachinj":13906,"Ġnabhe":13907,"Ġpavaar":13908,"Ġintellig":13909,"Ġkimba":13910,"Ġuniharuko":13911,"Ġsansadeey":13912,"uvarai":13913,"ugaluku":13914,"Ġkesu":13915,"Ġsamaajawaadee":13916,"Ġpakshama":13917,"Ġtumhaare":13918,"Ġdurghatnama":13919,"mangalbar":13920,"muthal":13921,"Ġreporter":13922,"Ġconfirmed":13923,"119":13924,"bud":13925,"ech":13926,"kati":13927,"uff":13928,"yali":13929,"ĠØ":13930,"Ġsvayn":13931,"Ġkra":13932,"Ġpattil":13933,"Ġbhun":13934,"Ġnama":13935,"erry":13936,"aao":13937,"Ġlie":13938,"ikshik":13939,"Ġannu":13940,"avadi":13941,"avanu":13942,"aylor":13943,"uske":13944,"Ġparliament":13945,"Ġdecl":13946,"Ġdefe":13947,"Ġyatha":13948,"ishti":13949,"nayaan":13950,"Ġdaadi":13951,"Ġamuk":13952,"istant":13953,"Ġpathi":13954,"Ġpadat":13955,"ileye":13956,"Ġsabak":13957,"ĠCle":13958,"Ġmarried":13959,"Ġpanja":13960,"Ġkalandhu":13961,"ĠTho":13962,"Ġvichale":13963,"cially":13964,"ravati":13965,"Ġchhote":13966,"Ġpremi":13967,"Ġsantaan":13968,"Ġkitna":13969,"Ġbachan":13970,"Ġmunnil":13971,"Ġudyoge":13972,"uced":13973,"iskeka":13974,"Ġkaanooni":13975,"ĠHealth":13976,"Ġbaithkma":13977,"Ġkddur":13978,"Ġibbodhu":13979,"arashtriya":13980,"ukayairunnu":13981,"Ġandubatulo":13982,"73":13983,"ES":13984,"uya":13985,"anat":13986,"Ġkank":13987,"Ġpesha":13988,"Ġtanku":13989,"Ġbaav":13990,"Ġnishi":13991,"Ġvive":13992,"Ġanshal":13993,"Ġkarel":13994,"Ġmaatam":13995,"Ġhearing":13996,"Ġprince":13997,"odhit":13998,"chas":13999,"Ġaaitbaar":14000,"alace":14001,"Ġamari":14002,"varta":14003,"very":14004,"Ġmukiya":14005,"Ġsadhin":14006,"uttal":14007,"shich":14008,"Ġguruv":14009,"avarute":14010,"Ġdevendra":14011,"Ġsuppor":14012,"Ġnarindra":14013,"Ġcolour":14014,"Ġbijali":14015,"Ġkolon":14016,"Ġkhele":14017,"Ġkilos":14018,"Ġbhalob":14019,"Ġgola":14020,"Ġwebsiter":14021,"Ġparampar":14022,"tyaare":14023,"Ġcheiyunnu":14024,"Ġkirti":14025,"Ġkilling":14026,"Ġdirect":14027,"amadhyam":14028,"Ġheroin":14029,"Ġcharanma":14030,"Ġkyarey":14031,"Ġandriki":14032,"ĠInternational":14033,"Ġelectronic":14034,"Ġmianmar":14035,"badprotidinbdcom":14036,"59":14037,"dis":14038,"king":14039,"math":14040,"yuv":14041,"Ġsasha":14042,"Ġsàµ¼k":14043,"Ġthaa":14044,"Ġhaare":14045,"tich":14046,"Ġkept":14047,"Ġdewar":14048,"hakti":14049,"Ġarasang":14050,"illed":14051,"Ġenpat":14052,"Ġammai":14053,"Ġjaisaa":14054,"uvann":14055,"ubh":14056,"karani":14057,"yanu":14058,"Ġalco":14059,"Ġaged":14060,"ounts":14061,"Ġperil":14062,"Ġafsar":14063,"Ġleaving":14064,"Ġtrudo":14065,"Ġvadapradhan":14066,"Ġpalit":14067,"Ġfouj":14068,"chalo":14069,"Ġpradhani":14070,"erial":14071,"Ġsuh":14072,"Ġnavya":14073,"angales":14074,"Ġkhelad":14075,"Ġaakarshan":14076,"baba":14077,"Ġnirnyam":14078,"Ġparihar":14079,"Ġjasle":14080,"ennaàµ½":14081,"Ġmatramall":14082,"Ġremov":14083,"Ġsugg":14084,"Ġghenyat":14085,"Ġlidho":14086,"Ġprotein":14087,"Ġcongreska":14088,"Ġarabia":14089,"Ġyuktarashtra":14090,"Ġmahisus":14091,"gmailcom":14092,"song":14093,"yull":14094,"Ġsona":14095,"Ġkandi":14096,"Ġditt":14097,"raf":14098,"Ġnako":14099,"Ġnanu":14100,"hech":14101,"yash":14102,"asho":14103,"enj":14104,"Ġgadi":14105,"Ġnaitik":14106,"Ġseek":14107,"ented":14108,"Ġmanavar":14109,"Ġpahari":14110,"Ġkaalam":14111,"Ġvaikk":14112,"patan":14113,"Ġpoho":14114,"Ġ5000":14115,"Ġmuki":14116,"Ġboat":14117,"Ġmuly":14118,"haarit":14119,"Ġbarbar":14120,"Ġemit":14121,"Ġedup":14122,"amily":14123,"Ġshanibaar":14124,"ishtha":14125,"Ġsmit":14126,"Ġayina":14127,"Ġaircraft":14128,"Ġmugham":14129,"Ġprashasonic":14130,"Ġborder":14131,"Ġnearly":14132,"Ġreturned":14133,"gyanik":14134,"Ġmubarak":14135,"aviraan":14136,"NULL":14137,"500":14138,"IC":14139,"bhin":14140,"body":14141,"cis":14142,"pinn":14143,"set":14144,"inas":14145,"Ġgone":14146,"Ġwid":14147,"aphal":14148,"timat":14149,"upe":14150,"Ġsamuk":14151,"shun":14152,"oms":14153,"attus":14154,"Ġarch":14155,"yaki":14156,"Ġdawa":14157,"istry":14158,"varum":14159,"Ġiii":14160,"Ġbadhai":14161,"areerik":14162,"Ġlagayatka":14163,"kehi":14164,"Ġshet":14165,"Ġclot":14166,"Ġniog":14167,"Ġdeshiya":14168,"Ġextre":14169,"owner":14170,"Ġetra":14171,"Ġsanskaran":14172,"Ġthousands":14173,"Ġvitar":14174,"Ġkabatti":14175,"ĠVict":14176,"ukauddhe":14177,"Ġkhate":14178,"Ġsharirik":14179,"Ġkudia":14180,"Ġbuy":14181,"Ġdakut":14182,"Ġshravan":14183,"Ġopening":14184,"Ġvekhya":14185,"Ġbanaavavaa":14186,"Ġprashansa":14187,"Ġelectric":14188,"Ġjyeshtha":14189,"Ġimmedi":14190,"Ġjigyasa":14191,"Ġvahatus":14192,"Ġbataaieko":14193,"ayanganj":14194,"According":14195,"App":14196,"bia":14197,"Ġsitu":14198,"atinu":14199,"Ġpeng":14200,"amantri":14201,"Ġjon":14202,"ilin":14203,"Ġcand":14204,"ayar":14205,"etuttu":14206,"Ġwed":14207,"ukalk":14208,"hatak":14209,"Ġandroid":14210,"hikarik":14211,"Ġadya":14212,"Ġadivas":14213,"Ġatisthan":14214,"Ġappar":14215,"osho":14216,"Ġpadan":14217,"ĠChen":14218,"ĠAt":14219,"Ġtakes":14220,"Ġmeas":14221,"Ġpere":14222,"Ġdinamaa":14223,"Ġsook":14224,"Ġ700":14225,"Ġchithi":14226,"Ġdivsam":14227,"Ġbolya":14228,"Ġkhur":14229,"Ġfeed":14230,"acharya":14231,"Ġadhyakshat":14232,"kkunn":14233,"Ġswatvadhikar":14234,"Ġnimitt":14235,"mandu":14236,"Ġkheds":14237,"Ġshabdo":14238,"Ġpolicy":14239,"ĠAndroid":14240,"Ġkutuba":14241,"Ġjammu":14242,"Ġiddru":14243,"Ġacademy":14244,"Ġvictory":14245,"Ġfavour":14246,"Ġperkonnar":14247,"jilla":14248,"not":14249,"rend":14250,"haari":14251,"Ġphela":14252,"Ġbaag":14253,"Ġjign":14254,"Ġgill":14255,"hanga":14256,"iks":14257,"Ġcru":14258,"hola":14259,"uslim":14260,"agulo":14261,"Ġmah":14262,"aniya":14263,"rial":14264,"Ġbhaaven":14265,"Ġchaat":14266,"Ġhimachal":14267,"ipot":14268,"Ġpatn":14269,"ĠShar":14270,"ibpati":14271,"Ġmadan":14272,"Ġmadhum":14273,"anno":14274,"bers":14275,"ĠAhmed":14276,"Ġvechan":14277,"Ġmeelvi":14278,"Ġvisaran":14279,"Ġdharlu":14280,"Ġgoor":14281,"Ġvirdohi":14282,"Ġkaamma":14283,"Ġsafety":14284,"Ġsahayak":14285,"Ġshanivaar":14286,"galya":14287,"lication":14288,"Ġmahatav":14289,"Ġcouldnt":14290,"Ġpahuncha":14291,"nataka":14292,"Ġsagal":14293,"Ġvagharo":14294,"Ġsevaavaan":14295,"hicle":14296,"Ġsteel":14297,"ĠArch":14298,"Ġtangute":14299,"haalanki":14300,"Ġparyaay":14301,"Ġdizin":14302,"Ġbenefits":14303,"Ġfestival":14304,"à§·":14305,"1000":14306,"51":14307,"Des":14308,"cinema":14309,"pine":14310,"priya":14311,"thak":14312,"Ġmog":14313,"Ġnuv":14314,"itara":14315,"ukaliàµ½":14316,"Ġrau":14317,"angle":14318,"Ġsamik":14319,"otoppa":14320,"Ġasian":14321,"ugol":14322,"iyatu":14323,"Ġpadal":14324,"pathi":14325,"Ġsatr":14326,"ĠRuss":14327,"Ġbaseko":14328,"Ġlahaan":14329,"Ġzamin":14330,"Ġdesiya":14331,"bharata":14332,"vidy":14333,"Ġshuruyaat":14334,"Ġtuhada":14335,"Ġkshetraka":14336,"Ġfamilies":14337,"Ġdamage":14338,"Ġmihar":14339,"Ġshastri":14340,"tyasapachhi":14341,"Ġpaddy":14342,"Ġcasino":14343,"Ġvigyaapan":14344,"Ġtarakthi":14345,"Ġdhruv":14346,"Ġkeemat":14347,"psml":14348,"Ġchunauti":14349,"BI":14350,"JAB":14351,"gol":14352,"khad":14353,"sud":14354,"uha":14355,"chok":14356,"Ġbakk":14357,"Ġvere":14358,"adani":14359,"orer":14360,"Ġwedding":14361,"ukyu":14362,"Ġful":14363,"abhanda":14364,"Ġravan":14365,"Ġthems":14366,"Ġnera":14367,"Ġteg":14368,"Ġatha":14369,"Ġkaabu":14370,"Ġupasthiti":14371,"bert":14372,"elly":14373,"ĠPUN":14374,"Ġudaya":14375,"Ġdharan":14376,"Ġikk":14377,"ĠRob":14378,"Ġbaton":14379,"Ġparts":14380,"janya":14381,"tical":14382,"Ġnalug":14383,"Ġyojna":14384,"ddil":14385,"Ġbaadha":14386,"Ġmasala":14387,"Ġuddhar":14388,"ganum":14389,"Ġrasin":14390,"Ġthirumb":14391,"Ġhotya":14392,"Ġsaptaa":14393,"Ġingu":14394,"Ġambul":14395,"Ġsukti":14396,"Ġsajaa":14397,"gyik":14398,"Ġlenaa":14399,"swam":14400,"Ġsumari":14401,"Ġaropan":14402,"Ġsultan":14403,"Ġdikhaai":14404,"Ġnetrutva":14405,"Ġdetails":14406,"Ġapnader":14407,"kachinera":14408,"Ġsampattik":14409,"ĠCameron":14410,"ĠPUNJAB":14411,"kaan":14412,"mere":14413,"pus":14414,"vine":14415,"rasa":14416,"rahul":14417,"yawhili":14418,"Ġjum":14419,"Ġgork":14420,"udiga":14421,"hatuk":14422,"Ġhovanu":14423,"ishing":14424,"ajal":14425,"ajya":14426,"Ġares":14427,"Ġgaryo":14428,"Ġgarown":14429,"Ġapakir":14430,"hyavu":14431,"Ġpadhan":14432,"Ġmoo":14433,"Ġpratap":14434,"ortun":14435,"pact":14436,"Ġlokana":14437,"Ġjihe":14438,"Ġgaiyr":14439,"Ġallu":14440,"Ġbhavikh":14441,"antaram":14442,"mouth":14443,"Ġminh":14444,"Ġkarnanga":14445,"Ġchhot":14446,"Ġsaachi":14447,"Ġsundari":14448,"Ġaddress":14449,"Ġkalig":14450,"illae":14451,"Ġavasthit":14452,"Ġpuchhia":14453,"bhijan":14454,"Ġjilhyatil":14455,"abahadur":14456,"Ġappearan":14457,"ĠArtic":14458,"Ġactress":14459,"unkhala":14460,"Ġinjured":14461,"Ġdirgha":14462,"Ġwelip":14463,"Ġraakhne":14464,"Ġkoekati":14465,"Ġiyakk":14466,"Ġsachib":14467,"02":14468,"dir":14469,"jast":14470,"Ġketi":14471,"Ġbamb":14472,"isamen":14473,"Ġrama":14474,"timp":14475,"abet":14476,"Ġpareshaani":14477,"teo":14478,"Ġbhaiskeko":14479,"Ġkoch":14480,"Ġgarbhav":14481,"lace":14482,"Ġjanana":14483,"varai":14484,"endent":14485,"Ġpathav":14486,"kare":14487,"Ġsabsc":14488,"Ġnatati":14489,"ĠPrevious":14490,"pras":14491,"Ġspes":14492,"àµ¾kk":14493,"Ġbyre":14494,"Ġlaws":14495,"Ġkharap":14496,"Ġvija":14497,"Ġhalan":14498,"Ġavare":14499,"pattu":14500,"Ġniraiy":14501,"Ġguard":14502,"natun":14503,"Ġkeralat":14504,"Ġmangalbaar":14505,"Ġvarshana":14506,"Ġunioner":14507,"Ġparipati":14508,"Ġutpaadane":14509,"Ġasalyachi":14510,"Ġmaajhe":14511,"Ġvaisipi":14512,"Ġsanchalanamaa":14513,"Ġpratipaksh":14514,"mahanagar":14515,"Ġfemale":14516,"Ġfeesdi":14517,"ĠDepartment":14518,"Ġadhidptar":14519,"BA":14520,"With":14521,"baaz":14522,"kant":14523,"rA":14524,"anural":14525,"Ġkriya":14526,"Ġpic":14527,"Ġpali":14528,"Ġmuna":14529,"Ġdrav":14530,"Ġdhur":14531,"Ġnes":14532,"yaach":14533,"Ġvee":14534,"akde":14535,"Ġgok":14536,"hanni":14537,"Ġchivari":14538,"harat":14539,"apari":14540,"Ġsaali":14541,"Ġpranal":14542,"Ġneu":14543,"Ġandaaz":14544,"Ġchayar":14545,"Ġaayaat":14546,"Ġpaheli":14547,"iyani":14548,"uvit":14549,"anshil":14550,"Ġsarhad":14551,"Ġwasallam":14552,"adaata":14553,"Ġswik":14554,"palya":14555,"hadyaa":14556,"ships":14557,"Ġcharcha":14558,"ĠWales":14559,"Ġexpect":14560,"Ġwhole":14561,"Ġmedal":14562,"Ġsafed":14563,"Ġmuq":14564,"Ġkuritt":14565,"Ġmanaat":14566,"Ġranpur":14567,"Ġbetaa":14568,"Ġtasaviraan":14569,"Ġvidyalay":14570,"2009":14571,"Ġpolisani":14572,"Ġmishran":14573,"ukuntunnar":14574,"Ġsahabhaag":14575,"Ġsivaay":14576,"Ġthemselves":14577,"IM":14578,"ken":14579,"khat":14580,"nab":14581,"sai":14582,"Ġtethi":14583,"china":14584,"Ġdaag":14585,"Ġdung":14586,"Ġvick":14587,"akaari":14588,"Ġgane":14589,"Ġrane":14590,"abadi":14591,"Ġsamrat":14592,"omen":14593,"odhat":14594,"Ġchapp":14595,"attai":14596,"Ġstopped":14597,"igat":14598,"iyam":14599,"Ġshaw":14600,"Ġavya":14601,"deh":14602,"estyle":14603,"ppich":14604,"Ġshevat":14605,"Ġaavu":14606,"Ġroza":14607,"Ġprakri":14608,"Ġsharan":14609,"Ġharaa":14610,"Ġpartika":14611,"Ġkaval":14612,"Ġsunvai":14613,"Ġgatti":14614,"Ġgraha":14615,"Ġayukta":14616,"Ġbankko":14617,"Ġmuàµ»":14618,"Ġnived":14619,"Ġlogo":14620,"Ġunderstand":14621,"Ġvakil":14622,"Ġgrow":14623,"Ġmenok":14624,"Ġsukha":14625,"retary":14626,"Ġnayar":14627,"Ġaalochana":14628,"Ġtelugulo":14629,"Ġplanning":14630,"bet":14631,"kako":14632,"rud":14633,"vark":14634,"vib":14635,"anmdhye":14636,"atile":14637,"Ġtini":14638,"Ġachar":14639,"Ġbira":14640,"unne":14641,"adanto":14642,"akak":14643,"akkar":14644,"irp":14645,"Ġfashion":14646,"abhit":14647,"Ġrasi":14648,"ido":14649,"Ġsamved":14650,"otati":14651,"Ġkiqui":14652,"Ġhealthy":14653,"Ġprin":14654,"Ġyud":14655,"Ġbhajan":14656,"Ġbhaskar":14657,"Ġasli":14658,"yakt":14659,"nira":14660,"Ġvarnit":14661,"Ġkaaji":14662,"Ġaapyu":14663,"ĠMed":14664,"Ġutpatt":14665,"Ġpradeep":14666,"Ġpurat":14667,"Ġkarega":14668,"Ġkaranyas":14669,"uttom":14670,"Ġlev":14671,"Ġhernuhos":14672,"Ġwebasite":14673,"ĠGeneral":14674,"Ġvikk":14675,"anjeet":14676,"Ġemna":14677,"Ġdua":14678,"Ġshriram":14679,"Ġgunha":14680,"ĠVideo":14681,"Ġvaste":14682,"Ġbethak":14683,"Ġmahatva":14684,"erapar":14685,"Ġhaathon":14686,"itional":14687,"Ġgaves":14688,"Ġlonger":14689,"Ġmanaged":14690,"Ġvidhayak":14691,"ikshanik":14692,"Ġshiksharthider":14693,"Ġjokhim":14694,"Ġlibr":14695,"Ġsarsaad":14696,"Ġmagazine":14697,"Ġnatwatiky":14698,"IDEO":14699,"Ġkaabuu":14700,"120":14701,"300":14702,"dama":14703,"fl":14704,"sir":14705,"sim":14706,"vala":14707,"haun":14708,"Ġkush":14709,"Ġdro":14710,"Ġdair":14711,"Ġnade":14712,"asons":14713,"Ġcold":14714,"haruka":14715,"avàµ¼":14716,"etch":14717,"andin":14718,"anghan":14719,"olkata":14720,"oto":14721,"Ġhole":14722,"stal":14723,"igram":14724,"opic":14725,"Ġies":14726,"Ġitr":14727,"Ġpatna":14728,"Ġpadarth":14729,"vanni":14730,"Ġhasin":14731,"ĠBrown":14732,"Ġaavan":14733,"Ġsatyam":14734,"Ġnamadhu":14735,"Ġviz":14736,"Ġcoast":14737,"Ġhamalaa":14738,"unnatumay":14739,"ikalin":14740,"antrik":14741,"Ġmudiveu":14742,"Ġsandhu":14743,"Ġsandeh":14744,"Ġbhoga":14745,"Ġpaaeko":14746,"ĠVal":14747,"Ġjalad":14748,"Ġmhantaat":14749,"Ġsirjana":14750,"Ġaashir":14751,"Ġvimarsh":14752,"Ġpustake":14753,"Ġravivaar":14754,"Ġpaasethi":14755,"Ġinstagram":14756,"Ġcalls":14757,"Ġattacks":14758,
[...]
